{
  "version": "1.0",
  "truncation": null,
  "padding": null,
  "added_tokens": [
    {
      "id": 0,
      "content": "[PAD]",
      "single_word": false,
      "lstrip": false,
      "rstrip": false,
      "normalized": false,
      "special": true
    },
    {
      "id": 1,
      "content": "[UNK]",
      "single_word": false,
      "lstrip": false,
      "rstrip": false,
      "normalized": false,
      "special": true
    },
    {
      "id": 2,
      "content": "[CLS]",
      "single_word": false,
      "lstrip": false,
      "rstrip": false,
      "normalized": false,
      "special": true
    },
    {
      "id": 3,
      "content": "[SEP]",
      "single_word": false,
      "lstrip": false,
      "rstrip": false,
      "normalized": false,
      "special": true
    },
    {
      "id": 4,
      "content": "[MASK]",
      "single_word": false,
      "lstrip": false,
      "rstrip": false,
      "normalized": false,
      "special": true
    }
  ],
  "normalizer": null,
  "pre_tokenizer": {
    "type": "Sequence",
    "pretokenizers": [
      {
        "type": "ByteLevel",
        "add_prefix_space": true,
        "trim_offsets": true,
        "use_regex": true
      }
    ]
  },
  "post_processor": {
    "type": "ByteLevel",
    "add_prefix_space": true,
    "trim_offsets": true,
    "use_regex": true
  },
  "decoder": null,
  "model": {
    "type": "BPE",
    "dropout": null,
    "unk_token": "[UNK]",
    "continuing_subword_prefix": null,
    "end_of_word_suffix": null,
    "fuse_unk": false,
    "byte_fallback": false,
    "ignore_merges": false,
    "vocab": {
      "[PAD]": 0,
      "[UNK]": 1,
      "[CLS]": 2,
      "[SEP]": 3,
      "[MASK]": 4,
      "!": 5,
      "\"": 6,
      "#": 7,
      "$": 8,
      "%": 9,
      "&": 10,
      "'": 11,
      "(": 12,
      ")": 13,
      "*": 14,
      "+": 15,
      ",": 16,
      "-": 17,
      ".": 18,
      "/": 19,
      "0": 20,
      "1": 21,
      "2": 22,
      "3": 23,
      "4": 24,
      "5": 25,
      "6": 26,
      "7": 27,
      "8": 28,
      "9": 29,
      ":": 30,
      ";": 31,
      "<": 32,
      "=": 33,
      ">": 34,
      "?": 35,
      "@": 36,
      "A": 37,
      "B": 38,
      "C": 39,
      "D": 40,
      "E": 41,
      "F": 42,
      "G": 43,
      "H": 44,
      "I": 45,
      "J": 46,
      "K": 47,
      "L": 48,
      "M": 49,
      "N": 50,
      "O": 51,
      "P": 52,
      "Q": 53,
      "R": 54,
      "S": 55,
      "T": 56,
      "U": 57,
      "V": 58,
      "W": 59,
      "X": 60,
      "Y": 61,
      "Z": 62,
      "[": 63,
      "\\": 64,
      "]": 65,
      "^": 66,
      "_": 67,
      "`": 68,
      "a": 69,
      "b": 70,
      "c": 71,
      "d": 72,
      "e": 73,
      "f": 74,
      "g": 75,
      "h": 76,
      "i": 77,
      "j": 78,
      "k": 79,
      "l": 80,
      "m": 81,
      "n": 82,
      "o": 83,
      "p": 84,
      "q": 85,
      "r": 86,
      "s": 87,
      "t": 88,
      "u": 89,
      "v": 90,
      "w": 91,
      "x": 92,
      "y": 93,
      "z": 94,
      "{": 95,
      "|": 96,
      "}": 97,
      "~": 98,
      "¡": 99,
      "¢": 100,
      "£": 101,
      "¤": 102,
      "¥": 103,
      "¦": 104,
      "§": 105,
      "¨": 106,
      "©": 107,
      "ª": 108,
      "«": 109,
      "¬": 110,
      "®": 111,
      "¯": 112,
      "°": 113,
      "±": 114,
      "²": 115,
      "³": 116,
      "´": 117,
      "µ": 118,
      "¶": 119,
      "·": 120,
      "¸": 121,
      "¹": 122,
      "º": 123,
      "»": 124,
      "¼": 125,
      "½": 126,
      "¾": 127,
      "¿": 128,
      "Â": 129,
      "Ã": 130,
      "Ä": 131,
      "Å": 132,
      "Æ": 133,
      "Ç": 134,
      "È": 135,
      "É": 136,
      "Ê": 137,
      "Ë": 138,
      "Ì": 139,
      "Í": 140,
      "Î": 141,
      "Ï": 142,
      "Ð": 143,
      "Ñ": 144,
      "Ò": 145,
      "Ó": 146,
      "Ô": 147,
      "Õ": 148,
      "Ö": 149,
      "×": 150,
      "Ø": 151,
      "Ù": 152,
      "Ú": 153,
      "Û": 154,
      "Ü": 155,
      "Ý": 156,
      "Þ": 157,
      "ß": 158,
      "à": 159,
      "á": 160,
      "â": 161,
      "ã": 162,
      "ä": 163,
      "å": 164,
      "æ": 165,
      "ç": 166,
      "è": 167,
      "é": 168,
      "ê": 169,
      "ë": 170,
      "ì": 171,
      "í": 172,
      "î": 173,
      "ï": 174,
      "ð": 175,
      "ñ": 176,
      "ò": 177,
      "ó": 178,
      "ô": 179,
      "Ċ": 180,
      "č": 181,
      "Ġ": 182,
      "ġ": 183,
      "Ģ": 184,
      "ģ": 185,
      "Ĥ": 186,
      "ĥ": 187,
      "Ħ": 188,
      "ħ": 189,
      "Ĩ": 190,
      "ĩ": 191,
      "Ī": 192,
      "ī": 193,
      "Ĭ": 194,
      "ĭ": 195,
      "Į": 196,
      "į": 197,
      "İ": 198,
      "ı": 199,
      "Ĳ": 200,
      "ĳ": 201,
      "Ĵ": 202,
      "ĵ": 203,
      "Ķ": 204,
      "ķ": 205,
      "ĸ": 206,
      "Ĺ": 207,
      "ĺ": 208,
      "Ļ": 209,
      "ļ": 210,
      "Ľ": 211,
      "ľ": 212,
      "Ŀ": 213,
      "ŀ": 214,
      "Ł": 215,
      "ł": 216,
      "Ń": 217,
      "Ġt": 218,
      "Ġa": 219,
      "he": 220,
      "in": 221,
      "re": 222,
      "on": 223,
      "Ġthe": 224,
      "er": 225,
      "čĊ": 226,
      "Ġs": 227,
      "Ġw": 228,
      "at": 229,
      "en": 230,
      "Ġo": 231,
      "Ġc": 232,
      "it": 233,
      "an": 234,
      "is": 235,
      "or": 236,
      "es": 237,
      "Ġp": 238,
      "Ġb": 239,
      "Ġf": 240,
      "ing": 241,
      "ed": 242,
      "ou": 243,
      "al": 244,
      "ar": 245,
      "Ġd": 246,
      "Ġan": 247,
      "Ġto": 248,
      "ĠčĊ": 249,
      "Ġm": 250,
      "Ġin": 251,
      "Ġof": 252,
      "âĢ": 253,
      "Ġh": 254,
      "as": 255,
      "ic": 256,
      "le": 257,
      "Ġand": 258,
      "Ġth": 259,
      "om": 260,
      "ion": 261,
      "ent": 262,
      "Ġl": 263,
      "il": 264,
      "Ġn": 265,
      "ĠT": 266,
      "Ġe": 267,
      "Ġre": 268,
      "st": 269,
      "ve": 270,
      "ro": 271,
      "id": 272,
      "Ġg": 273,
      "Ġbe": 274,
      "ly": 275,
      "ĠI": 276,
      "ĠS": 277,
      "ut": 278,
      "ac": 279,
      "ĠA": 280,
      "ot": 281,
      "et": 282,
      "ad": 283,
      "Ġon": 284,
      "im": 285,
      "âĢĻ": 286,
      "ay": 287,
      "am": 288,
      "Ġthat": 289,
      "Ġis": 290,
      "ig": 291,
      "ol": 292,
      "ĠC": 293,
      "se": 294,
      "ow": 295,
      "un": 296,
      "Ġfor": 297,
      "ur": 298,
      "ver": 299,
      "ct": 300,
      "el": 301,
      "Ġy": 302,
      "ĠM": 303,
      "Ġst": 304,
      "Ġhe": 305,
      "ir": 306,
      "Ġit": 307,
      "ĠâĢ": 308,
      "ĠB": 309,
      "ation": 310,
      "ith": 311,
      "ter": 312,
      "us": 313,
      "Ġde": 314,
      "Ġwh": 315,
      "ch": 316,
      "ĠP": 317,
      "ce": 318,
      "ĠThe": 319,
      "ãģ": 320,
      "Ġwith": 321,
      "Ġal": 322,
      "Ġas": 323,
      "ill": 324,
      "ul": 325,
      "ĠW": 326,
      "Ġwe": 327,
      "Ġcon": 328,
      "Ġyou": 329,
      "ers": 330,
      "ĠD": 331,
      "ld": 332,
      "ĠH": 333,
      "ke": 334,
      "Ġr": 335,
      "ag": 336,
      "em": 337,
      "est": 338,
      "Ġwas": 339,
      "if": 340,
      "ĠR": 341,
      "Ġat": 342,
      "ĠF": 343,
      "Ġpro": 344,
      "her": 345,
      "Ġha": 346,
      "Ġv": 347,
      "os": 348,
      "um": 349,
      "ate": 350,
      "ri": 351,
      "ore": 352,
      "pp": 353,
      "Ġcom": 354,
      "Ġse": 355,
      "ist": 356,
      "and": 357,
      "Ġ2": 358,
      "ĠN": 359,
      "Ġare": 360,
      "qu": 361,
      "Ġ1": 362,
      "ĠâĢľ": 363,
      "âĢĿ": 364,
      "ort": 365,
      "op": 366,
      "res": 367,
      "ain": 368,
      "oun": 369,
      "Ġne": 370,
      "od": 371,
      "ĠL": 372,
      "rom": 373,
      "ht": 374,
      "ab": 375,
      "Ġ(": 376,
      "ĠG": 377,
      "Ġex": 378,
      "ĠE": 379,
      "ant": 380,
      "ess": 381,
      "oc": 382,
      "art": 383,
      "Ġnot": 384,
      "ity": 385,
      "Ġhave": 386,
      "ment": 387,
      "Ġor": 388,
      "ould": 389,
      "Ġun": 390,
      "Ġsu": 391,
      "ive": 392,
      "Ġby": 393,
      "Ġfrom": 394,
      "Ġle": 395,
      "ĠO": 396,
      "th": 397,
      "Ġsa": 398,
      "Ġthis": 399,
      "Ġsh": 400,
      "ie": 401,
      "ust": 402,
      "end": 403,
      "ĠJ": 404,
      "pe": 405,
      "ies": 406,
      "ight": 407,
      "Ġch": 408,
      "up": 409,
      "Ġj": 410,
      "Ġab": 411,
      "ra": 412,
      "out": 413,
      "'s": 414,
      "Ġhas": 415,
      "all": 416,
      "iv": 417,
      "Ġ\"": 418,
      "red": 419,
      "ack": 420,
      "Ġk": 421,
      "Ġpl": 422,
      "our": 423,
      "ak": 424,
      "00": 425,
      "ĠU": 426,
      "ren": 427,
      "ial": 428,
      "ost": 429,
      "ud": 430,
      "ard": 431,
      "ast": 432,
      "Ġgo": 433,
      "ĠÐ": 434,
      "ome": 435,
      "ear": 436,
      "ĠIn": 437,
      "Ġsaid": 438,
      "Ġhis": 439,
      "Ġdo": 440,
      "ãĤ": 441,
      "te": 442,
      "Ġwill": 443,
      "ge": 444,
      "Ġtr": 445,
      "Ġcan": 446,
      "ap": 447,
      "ell": 448,
      "Ġwor": 449,
      "Ġthey": 450,
      "ich": 451,
      "ok": 452,
      "Ġbut": 453,
      "Ġwhe": 454,
      "ally": 455,
      "Ġall": 456,
      "ia": 457,
      "ans": 458,
      "ide": 459,
      "Ġwho": 460,
      "oug": 461,
      "ff": 462,
      "ĠK": 463,
      "Ġout": 464,
      "Ġen": 465,
      "Ġad": 466,
      "ice": 467,
      "Ġqu": 468,
      "ĠTh": 469,
      "Ġ20": 470,
      "Ġtheir": 471,
      "ong": 472,
      "ther": 473,
      "pl": 474,
      "Ð¾": 475,
      "ure": 476,
      "ions": 477,
      "Ġme": 478,
      "ame": 479,
      "ine": 480,
      "act": 481,
      "Ġup": 482,
      "Ġmore": 483,
      "ous": 484,
      "ound": 485,
      "one": 486,
      "ep": 487,
      "Ġim": 488,
      "og": 489,
      "ike": 490,
      "ber": 491,
      "age": 492,
      "use": 493,
      "iz": 494,
      "der": 495,
      "Ġar": 496,
      "cc": 497,
      "ub": 498,
      "Ġabout": 499,
      "ime": 500,
      "Ġus": 501,
      "ect": 502,
      "ãĥ": 503,
      "ated": 504,
      "Ġcl": 505,
      "Ġcont": 506,
      "ue": 507,
      "to": 508,
      "ind": 509,
      "Ġone": 510,
      "Ġcomp": 511,
      "Ġag": 512,
      "Ġso": 513,
      "ake": 514,
      "Ġoff": 515,
      "so": 516,
      "pt": 517,
      "Ġhad": 518,
      "Ġwould": 519,
      "ip": 520,
      "very": 521,
      "Ġwhich": 522,
      "ign": 523,
      "Ġwere": 524,
      "Ð°": 525,
      "ĠAn": 526,
      "ough": 527,
      "Ġbeen": 528,
      "Ġ201": 529,
      "Ðµ": 530,
      "ry": 531,
      "Ġper": 532,
      "Ġpe": 533,
      "are": 534,
      "ace": 535,
      "Ġres": 536,
      "ire": 537,
      "Ġinc": 538,
      "per": 539,
      "Ġman": 540,
      "ass": 541,
      "ven": 542,
      "ĠSt": 543,
      "Ġyear": 544,
      "Ġsp": 545,
      "ew": 546,
      "ite": 547,
      "ĠV": 548,
      "ary": 549,
      "ook": 550,
      "Ġlike": 551,
      "ays": 552,
      "ult": 553,
      "ile": 554,
      "Ġyour": 555,
      "able": 556,
      "ĠIt": 557,
      "Ġte": 558,
      "ib": 559,
      "Ġla": 560,
      "ose": 561,
      "mer": 562,
      "ks": 563,
      "av": 564,
      "ĠY": 565,
      "Ã©": 566,
      "port": 567,
      "ople": 568,
      "orm": 569,
      "ress": 570,
      "ord": 571,
      "ail": 572,
      "Ġdis": 573,
      "ĠCh": 574,
      "Ġpart": 575,
      "Ġnew": 576,
      "Ð¸": 577,
      "ll": 578,
      "Ġother": 579,
      "ations": 580,
      "ence": 581,
      "Ġover": 582,
      "Ġsome": 583,
      "own": 584,
      "ount": 585,
      "Ġalso": 586,
      "Ġapp": 587,
      "ens": 588,
      "ance": 589,
      "Ġthere": 590,
      "ical": 591,
      "ÑĤ": 592,
      "Ġpeople": 593,
      "Ġthan": 594,
      "lic": 595,
      "Ġ3": 596,
      "fter": 597,
      ".âĢĿ": 598,
      "ase": 599,
      "Ġno": 600,
      "Ġthem": 601,
      "ach": 602,
      "Ġsc": 603,
      "Ġher": 604,
      "int": 605,
      "ond": 606,
      "ident": 607,
      "uc": 608,
      "Ġbec": 609,
      "ĠHe": 610,
      "Ġwhen": 611,
      "Ġpol": 612,
      "Ġwhat": 613,
      "ction": 614,
      "Ġits": 615,
      "Ġrec": 616,
      "Ġjust": 617,
      "Ġany": 618,
      "Ġ-": 619,
      "Ġtime": 620,
      "ian": 621,
      "vel": 622,
      "Ġour": 623,
      "Ġwork": 624,
      "Ġget": 625,
      "ang": 626,
      "Ġkn": 627,
      "Ġif": 628,
      "ob": 629,
      "reat": 630,
      "Ġpre": 631,
      "Ġmy": 632,
      "ug": 633,
      "Ġtw": 634,
      "ors": 635,
      "ree": 636,
      "Ġpr": 637,
      ",âĢĿ": 638,
      "Ġinto": 639,
      "ings": 640,
      "Ġgr": 641,
      "wn": 642,
      "ade": 643,
      "irst": 644,
      "fe": 645,
      "Ð½": 646,
      "ick": 647,
      "ark": 648,
      "Ġacc": 649,
      "ition": 650,
      "ne": 651,
      "rent": 652,
      "Ñģ": 653,
      "ãĢ": 654,
      "Ġshe": 655,
      "ory": 656,
      "ove": 657,
      "ink": 658,
      "ÑĢ": 659,
      "amp": 660,
      "vers": 661,
      "Ġdes": 662,
      "form": 663,
      "day": 664,
      "Ġafter": 665,
      "ents": 666,
      "hing": 667,
      "ov": 668,
      "Ġro": 669,
      "ause": 670,
      "Ġser": 671,
      "ates": 672,
      "ĠâĢĵ": 673,
      "ict": 674,
      "Ġatt": 675,
      "ĠTr": 676,
      "Ġhow": 677,
      "Ġplay": 678,
      "ons": 679,
      "Ġcould": 680,
      "old": 681,
      "low": 682,
      "hed": 683,
      "ĠâĢĶ": 684,
      "Ð¾Ð": 685,
      "Ġcomm": 686,
      "ild": 687,
      "Ġfirst": 688,
      "ious": 689,
      "Ġdec": 690,
      "ft": 691,
      "Ġhim": 692,
      "rit": 693,
      "ump": 694,
      "ĠBut": 695,
      "ning": 696,
      "ĠWh": 697,
      "Ġact": 698,
      "Ġbl": 699,
      "Ġonly": 700,
      "ĠThis": 701,
      "Ġam": 702,
      "Ġtwo": 703,
      "Ġadd": 704,
      "ĠWe": 705,
      "ĠUn": 706,
      "Ġ4": 707,
      "anc": 708,
      "ec": 709,
      "Ġem": 710,
      "Ġbet": 711,
      "Ġback": 712,
      "Ġspe": 713,
      "'t": 714,
      "oy": 715,
      "ish": 716,
      "we": 717,
      "Ġfe": 718,
      "iss": 719,
      "Ġinv": 720,
      "ĠAnd": 721,
      "ual": 722,
      "Ġmost": 723,
      "Ġco": 724,
      "..": 725,
      "Ġpo": 726,
      "igh": 727,
      "ood": 728,
      "Ġind": 729,
      "Ġcons": 730,
      "ru": 731,
      "Ġ5": 732,
      "Ġdid": 733,
      "Ġagain": 734,
      "Ġunder": 735,
      "enc": 736,
      "ublic": 737,
      "Ġinter": 738,
      "Ġwant": 739,
      ".\"": 740,
      "hen": 741,
      "Ã¤": 742,
      "Ġnow": 743,
      "Ġ$": 744,
      "lud": 745,
      "Ġneed": 746,
      "uch": 747,
      "ater": 748,
      "ĠAs": 749,
      "itt": 750,
      "Ġ19": 751,
      "ock": 752,
      "sel": 753,
      "Ġsec": 754,
      "Ġsee": 755,
      "du": 756,
      "Ġyears": 757,
      "Ġbecause": 758,
      "Ġknow": 759,
      "vern": 760,
      "Ġeven": 761,
      "Ġsupp": 762,
      "pect": 763,
      "ise": 764,
      "man": 765,
      "gr": 766,
      "Ġbr": 767,
      "fore": 768,
      "Ġevery": 769,
      ",\"": 770,
      "Ġpres": 771,
      "ier": 772,
      "urn": 773,
      "Ġmake": 774,
      "ational": 775,
      "ont": 776,
      "io": 777,
      "oss": 778,
      "xt": 779,
      "ject": 780,
      "Ġthese": 781,
      "Ġimp": 782,
      "rough": 783,
      "ful": 784,
      "Ġwhere": 785,
      "Ġreg": 786,
      "ied": 787,
      "Ġlook": 788,
      "Ġdon": 789,
      "Ġrem": 790,
      "Ġown": 791,
      "Ġev": 792,
      "lect": 793,
      "ement": 794,
      "ating": 795,
      "row": 796,
      "Ġdif": 797,
      "ĠTrump": 798,
      "Ġinclud": 799,
      "Ġrel": 800,
      "iew": 801,
      "Ġbeing": 802,
      "les": 803,
      "Ġway": 804,
      "Ġmay": 805,
      "ĠRe": 806,
      "arg": 807,
      "aking": 808,
      "oup": 809,
      "Ġcall": 810,
      "Ġright": 811,
      "und": 812,
      "ities": 813,
      "ty": 814,
      "ph": 815,
      "Ġlast": 816,
      "ific": 817,
      "The": 818,
      "Ġac": 819,
      "Ġsy": 820,
      "rib": 821,
      "Ġthrough": 822,
      "ased": 823,
      "Ġmany": 824,
      "Ġshould": 825,
      "Ġstr": 826,
      "Ġcount": 827,
      "Ġthen": 828,
      "Ġreport": 829,
      "ek": 830,
      "Ġthink": 831,
      "Ġdown": 832,
      "ath": 833,
      "Ġsay": 834,
      "uring": 835,
      "ĠNew": 836,
      "ason": 837,
      "Ġass": 838,
      "Ġbu": 839,
      "Ġcol": 840,
      "Ġthose": 841,
      "Ġshow": 842,
      "Ġgovern": 843,
      "ative": 844,
      "ues": 845,
      "ited": 846,
      "Ġent": 847,
      "Ð»": 848,
      "ting": 849,
      "other": 850,
      "Ġvery": 851,
      "meric": 852,
      "Ġfin": 853,
      "als": 854,
      "Ġke": 855,
      "Ġuse": 856,
      "Ġmuch": 857,
      "ik": 858,
      ").": 859,
      "ange": 860,
      "Ġmon": 861,
      "ah": 862,
      "Ġph": 863,
      "erson": 864,
      "Ġend": 865,
      "Ġwell": 866,
      "ert": 867,
      "com": 868,
      "ince": 869,
      "Ġdef": 870,
      "000": 871,
      "oth": 872,
      "ĠÃ": 873,
      "ters": 874,
      "ible": 875,
      "Ġhel": 876,
      "ĠAl": 877,
      "Ġbefore": 878,
      "Ġdoes": 879,
      "Ġlong": 880,
      "ics": 881,
      "ved": 882,
      "Ġstart": 883,
      "ener": 884,
      "olog": 885,
      "ower": 886,
      "Ġmin": 887,
      "ward": 888,
      "ism": 889,
      "arly": 890,
      "Ġsur": 891,
      "Ġmed": 892,
      "az": 893,
      "Ġ6": 894,
      "ix": 895,
      "Ġque": 896,
      "ble": 897,
      "Ġfl": 898,
      "ĠAmeric": 899,
      "Ġcr": 900,
      "Ġteam": 901,
      "ments": 902,
      "Ġel": 903,
      "uss": 904,
      "ily": 905,
      "ility": 906,
      "omet": 907,
      "ts": 908,
      "ten": 909,
      "ros": 910,
      "ãģ®": 911,
      "its": 912,
      "Ġhelp": 913,
      "ĠDe": 914,
      "ull": 915,
      "rest": 916,
      "gan": 917,
      "Ġmade": 918,
      "Ġgoing": 919,
      "ife": 920,
      "ork": 921,
      "Ġcap": 922,
      "Ġworld": 923,
      "Ġsm": 924,
      "Ġop": 925,
      "Ġprov": 926,
      "Ġset": 927,
      "Ġagainst": 928,
      "Ġob": 929,
      "Ġlead": 930,
      "Ġeff": 931,
      "),": 932,
      "ys": 933,
      "Ġsuch": 934,
      "ures": 935,
      "illion": 936,
      "ĠLe": 937,
      "ank": 938,
      "cess": 939,
      "Ġstud": 940,
      "Ġgood": 941,
      "stem": 942,
      "Ġsub": 943,
      "Ġgu": 944,
      "ĠIf": 945,
      "Ġint": 946,
      "ĠYou": 947,
      "ars": 948,
      "Ġdet": 949,
      "Ġwhile": 950,
      "Ġinst": 951,
      "arch": 952,
      "ient": 953,
      "ists": 954,
      "ner": 955,
      "Ġstill": 956,
      "Ġpoint": 957,
      "Ġ[": 958,
      "tern": 959,
      "Ġter": 960,
      "Ġoffic": 961,
      "any": 962,
      "Ġtrans": 963,
      "ĠAr": 964,
      "ually": 965,
      "read": 966,
      "Ġtake": 967,
      "aj": 968,
      "ax": 969,
      "ms": 970,
      "ĠCom": 971,
      "ving": 972,
      "ale": 973,
      "ĠFor": 974,
      "land": 975,
      "alk": 976,
      "imes": 977,
      "Ġsays": 978,
      "co": 979,
      "20": 980,
      "Ġ10": 981,
      "ween": 982,
      "Ġgovernment": 983,
      "Ñĥ": 984,
      "--": 985,
      "ng": 986,
      "Ġsim": 987,
      "way": 988,
      "ollow": 989,
      "con": 990,
      "air": 991,
      "Ġlaw": 992,
      "Ðº": 993,
      "ution": 994,
      "Ã¡": 995,
      "ern": 996,
      "Ġret": 997,
      "ĠSh": 998,
      "Ġz": 999,
      "Ġsign": 1000,
      "Ġ7": 1001,
      "Ã³": 1002,
      "ouse": 1003,
      "Ġnum": 1004,
      "rat": 1005,
      "Ġhigh": 1006,
      "Ġgame": 1007,
      "pr": 1008,
      "hes": 1009,
      "min": 1010,
      "âĢĶ": 1011,
      "self": 1012,
      "velop": 1013,
      "Ġdiffe": 1014,
      "Ġins": 1015,
      "iel": 1016,
      "Ġmem": 1017,
      "ets": 1018,
      "alth": 1019,
      "Ġbetween": 1020,
      "Ġest": 1021,
      "led": 1022,
      "hip": 1023,
      "ool": 1024,
      "Ġaut": 1025,
      "Ġsame": 1026,
      "ata": 1027,
      "ever": 1028,
      "Ġpublic": 1029,
      "Ġhere": 1030,
      "ins": 1031,
      "cent": 1032,
      "Ġsupport": 1033,
      "Ġexp": 1034,
      "atch": 1035,
      "Ġreal": 1036,
      "ene": 1037,
      "Ġconf": 1038,
      "Ġmod": 1039,
      "Ġrun": 1040,
      "Ġaround": 1041,
      "ĠThey": 1042,
      "ives": 1043,
      "Ġfr": 1044,
      "cial": 1045,
      "de": 1046,
      "ces": 1047,
      "Ġstate": 1048,
      "Ġcour": 1049,
      "Ġpar": 1050,
      "Ġbel": 1051,
      "ĠAd": 1052,
      "Ġcur": 1053,
      "ought": 1054,
      "Ġfam": 1055,
      "tt": 1056,
      "ĠIs": 1057,
      "Ġi": 1058,
      "Ġche": 1059,
      "Ġcor": 1060,
      "Ġrep": 1061,
      "ices": 1062,
      "Ġdr": 1063,
      "irect": 1064,
      "Ġes": 1065,
      "Ġcar": 1066,
      "Ġthree": 1067,
      "ames": 1068,
      "Ġfound": 1069,
      "ves": 1070,
      "oot": 1071,
      "Ġinvest": 1072,
      "Ġsomet": 1073,
      "Ġsystem": 1074,
      "ton": 1075,
      "Ġperson": 1076,
      "Ġhand": 1077,
      "ave": 1078,
      "Ġdel": 1079,
      "Ġext": 1080,
      "Ġav": 1081,
      "Ġexper": 1082,
      "ines": 1083,
      "Ġ8": 1084,
      "Ġreally": 1085,
      "Ġpolit": 1086,
      "ĠThat": 1087,
      "Ġtold": 1088,
      "Ġ200": 1089,
      "ather": 1090,
      "Ġdisc": 1091,
      "Ġdem": 1092,
      "Ġweek": 1093,
      "Ġgroup": 1094,
      "cept": 1095,
      "ann": 1096,
      "ck": 1097,
      "aw": 1098,
      "ĠOn": 1099,
      "ãĢģ": 1100,
      "ying": 1101,
      "ĠPro": 1102,
      "ĠThere": 1103,
      "Ġsoc": 1104,
      "ĠFr": 1105,
      "Ġfind": 1106,
      "Ġday": 1107,
      "Ġhapp": 1108,
      "Ġ'": 1109,
      "Ġleg": 1110,
      "Ġused": 1111,
      "ages": 1112,
      "Ġmonth": 1113,
      "ording": 1114,
      "ivers": 1115,
      "Ġwom": 1116,
      "med": 1117,
      "ience": 1118,
      "arn": 1119,
      "Ġiss": 1120,
      "ĠâĢĺ": 1121,
      "Ġduring": 1122,
      "me": 1123,
      "Ġresp": 1124,
      "Ø§": 1125,
      "Ġcontin": 1126,
      "ĠÎ": 1127,
      "ric": 1128,
      "Ġinte": 1129,
      "ash": 1130,
      "ĠSo": 1131,
      "Ġgreat": 1132,
      "Ġdevelop": 1133,
      "ced": 1134,
      "Ġcre": 1135,
      "ular": 1136,
      "Ġfollow": 1137,
      "Ġboth": 1138,
      "Ġfact": 1139,
      "ĠCl": 1140,
      "ared": 1141,
      "ision": 1142,
      "Ġ9": 1143,
      "iet": 1144,
      "Ġvot": 1145,
      "att": 1146,
      "ÃŃ": 1147,
      "Ġsince": 1148,
      "Ġcent": 1149,
      "Ġbig": 1150,
      "Ġrequ": 1151,
      "ital": 1152,
      "get": 1153,
      "ense": 1154,
      "ina": 1155,
      "Ġstat": 1156,
      "ĠUS": 1157,
      "tic": 1158,
      "ex": 1159,
      "Ġexpl": 1160,
      "Ġinf": 1161,
      "ĠZ": 1162,
      "Ġread": 1163,
      "Ġcommun": 1164,
      "ute": 1165,
      "be": 1166,
      "Ġprodu": 1167,
      "akes": 1168,
      "Ð²": 1169,
      "Ġmark": 1170,
      "Ġopp": 1171,
      "oh": 1172,
      "Ġloc": 1173,
      "orth": 1174,
      "iness": 1175,
      "Ġbus": 1176,
      "Ġgener": 1177,
      "Ġlot": 1178,
      "Ġpass": 1179,
      "ãģĦ": 1180,
      "Ġref": 1181,
      "Ġdep": 1182,
      "leg": 1183,
      "Ġcle": 1184,
      "Ġcamp": 1185,
      "Ġpri": 1186,
      "ross": 1187,
      "ĠRep": 1188,
      "ants": 1189,
      "bers": 1190,
      "Ġfew": 1191,
      "Ġ0": 1192,
      "Ġinform": 1193,
      "Ġquest": 1194,
      "ĠHow": 1195,
      "Ġmet": 1196,
      "Ġput": 1197,
      "Ġbest": 1198,
      "orn": 1199,
      "ention": 1200,
      "Ġposs": 1201,
      "ize": 1202,
      "Ġfar": 1203,
      "Ġfil": 1204,
      "Ġtoo": 1205,
      "ized": 1206,
      "ling": 1207,
      "Ġanother": 1208,
      "Ġcome": 1209,
      "Ġbelie": 1210,
      "Ġtra": 1211,
      "ically": 1212,
      "the": 1213,
      "Ġdifferent": 1214,
      "Ġadv": 1215,
      "erv": 1216,
      "view": 1217,
      "chool": 1218,
      "Ġbo": 1219,
      "Ġpost": 1220,
      "ret": 1221,
      "Ġpower": 1222,
      "Ġask": 1223,
      "Ñı": 1224,
      "chn": 1225,
      "Ġrele": 1226,
      "Ġcare": 1227,
      "Ġhead": 1228,
      "ody": 1229,
      "son": 1230,
      "Ġconc": 1231,
      "Ġann": 1232,
      "ĠBl": 1233,
      "Ġsomething": 1234,
      "uro": 1235,
      "Ġnext": 1236,
      "istr": 1237,
      "Ġimport": 1238,
      "ĠÂ": 1239,
      "thing": 1240,
      "Ġthings": 1241,
      "gram": 1242,
      "ĠQ": 1243,
      "Ġdirect": 1244,
      "Ġopen": 1245,
      "Ġlife": 1246,
      "ral": 1247,
      "Ġchild": 1248,
      "Ð¼": 1249,
      "ãģ«": 1250,
      "Ġallow": 1251,
      "Ġhome": 1252,
      "Ġmight": 1253,
      "Ġserv": 1254,
      "Ġcountry": 1255,
      "arge": 1256,
      "conom": 1257,
      "uck": 1258,
      "Ġdi": 1259,
      "Ġpresident": 1260,
      "Ġsecond": 1261,
      "Ġincluding": 1262,
      "arl": 1263,
      "Ġeach": 1264,
      "Ġfeel": 1265,
      "ger": 1266,
      "Ġgot": 1267,
      "Ġmil": 1268,
      "Ġer": 1269,
      "ness": 1270,
      "Ġnever": 1271,
      "Ġincre": 1272,
      "Ġgl": 1273,
      "We": 1274,
      "Ġtest": 1275,
      "Ġ.": 1276,
      "Ð´": 1277,
      "ï¼": 1278,
      "ĠShe": 1279,
      "line": 1280,
      "ĠÐ¿": 1281,
      "ĠBe": 1282,
      "ĠInd": 1283,
      "Ġresult": 1284,
      "urs": 1285,
      "Ġtop": 1286,
      "gy": 1287,
      "Ġcontro": 1288,
      "Ġpercent": 1289,
      "Ġwar": 1290,
      "Ġplan": 1291,
      "Ġval": 1292,
      "Ġpos": 1293,
      "Ġsol": 1294,
      "Ġcomple": 1295,
      "ĠSc": 1296,
      "Ġmillion": 1297,
      "ung": 1298,
      "ĠSe": 1299,
      "Ġsl": 1300,
      "less": 1301,
      "aim": 1302,
      "Ġhard": 1303,
      "Ġproble": 1304,
      "Ġed": 1305,
      "duc": 1306,
      "que": 1307,
      "ired": 1308,
      "Ġdata": 1309,
      "ittle": 1310,
      "Ġrest": 1311,
      "Ġhum": 1312,
      "Ġrecent": 1313,
      "ately": 1314,
      "Ġseem": 1315,
      "ider": 1316,
      "wit": 1317,
      "ode": 1318,
      "Ñĭ": 1319,
      "Ġwithout": 1320,
      "Ġpartic": 1321,
      "ency": 1322,
      "à¤": 1323,
      "Ġplace": 1324,
      "Ġofficial": 1325,
      "ãĢĤ": 1326,
      "ãģ¨": 1327,
      "Ġlet": 1328,
      "Ġbuild": 1329,
      "app": 1330,
      "Ġide": 1331,
      "ield": 1332,
      "osed": 1333,
      "Ġnumber": 1334,
      "Ġtri": 1335,
      "ãĤĭ": 1336,
      "Ġappro": 1337,
      "oney": 1338,
      "Ġcase": 1339,
      "ĠPres": 1340,
      "Ġstand": 1341,
      "ential": 1342,
      "Ġprev": 1343,
      "Ġbeh": 1344,
      "ains": 1345,
      "Ġnews": 1346,
      "ways": 1347,
      "ised": 1348,
      "riend": 1349,
      "Ġbetter": 1350,
      "ĠDem": 1351,
      "ãģŁ": 1352,
      "Ġmov": 1353,
      "Ġpay": 1354,
      "ĠPh": 1355,
      "Ġve": 1356,
      "Ġele": 1357,
      "Ġfour": 1358,
      "ocrat": 1359,
      "hor": 1360,
      "Ġsk": 1361,
      "ÑĮ": 1362,
      "Ġpop": 1363,
      "ained": 1364,
      "Ġfun": 1365,
      "ĠAt": 1366,
      "Ġkeep": 1367,
      "ãģĹ": 1368,
      "Ġcompany": 1369,
      "Ġinterest": 1370,
      "Ġturn": 1371,
      "ĠWhat": 1372,
      "gest": 1373,
      "Ġprocess": 1374,
      "Ġform": 1375,
      "Ġattack": 1376,
      "Ġeconom": 1377,
      "Ġmove": 1378,
      "ĠWhen": 1379,
      "Ġseason": 1380,
      "inal": 1381,
      "Ġusing": 1382,
      "ished": 1383,
      "ari": 1384,
      "ajor": 1385,
      "ases": 1386,
      "Ġwon": 1387,
      "Ġprogram": 1388,
      "ably": 1389,
      "Ã¶": 1390,
      "Ġbro": 1391,
      "ploy": 1392,
      "ered": 1393,
      "Ġdidn": 1394,
      "Ġhealth": 1395,
      "ama": 1396,
      "ĠGo": 1397,
      "Ġcalled": 1398,
      "Ġlist": 1399,
      "Ġbusiness": 1400,
      "ract": 1401,
      "ãģ§": 1402,
      "Ġless": 1403,
      "Ġlittle": 1404,
      "ready": 1405,
      "ird": 1406,
      "Ġpolice": 1407,
      "Ġvis": 1408,
      "Ġleft": 1409,
      "Ġprof": 1410,
      "Äĥ": 1411,
      "Ã£": 1412,
      "ional": 1413,
      "Ġmain": 1414,
      "Ġprom": 1415,
      "ister": 1416,
      "Ġcurrent": 1417,
      "ature": 1418,
      "Ġty": 1419,
      "ãģ¦": 1420,
      "ai": 1421,
      "ament": 1422,
      "rence": 1423,
      "ertain": 1424,
      "Ġchange": 1425,
      "Ġinformation": 1426,
      "used": 1427,
      "...": 1428,
      "ĠSp": 1429,
      "Ġca": 1430,
      "ology": 1431,
      "vert": 1432,
      "Ġtechn": 1433,
      "ott": 1434,
      "Ġwin": 1435,
      "Î±": 1436,
      "ĠPresident": 1437,
      "ãģ¯": 1438,
      "ps": 1439,
      "Ġvi": 1440,
      "Ġexpect": 1441,
      "Ġeffect": 1442,
      "Ġorgan": 1443,
      "Ġalready": 1444,
      "Ġmen": 1445,
      "oad": 1446,
      "Ġproject": 1447,
      "iving": 1448,
      "Ġlevel": 1449,
      "aign": 1450,
      "Ġeas": 1451,
      "Ġrece": 1452,
      "Ġmat": 1453,
      "Ġet": 1454,
      "Ġhist": 1455,
      "Ġdri": 1456,
      "Ġschool": 1457,
      "stand": 1458,
      "Ã£o": 1459,
      "ÏĦ": 1460,
      "sc": 1461,
      "Ã¼": 1462,
      "ruct": 1463,
      "ron": 1464,
      "cl": 1465,
      "ĠÐ²": 1466,
      "Ġpa": 1467,
      "urity": 1468,
      "ior": 1469,
      "enn": 1470,
      "âĢ¦": 1471,
      "ÑģÑĤ": 1472,
      "Ġoper": 1473,
      "ined": 1474,
      "It": 1475,
      "ided": 1476,
      "ER": 1477,
      "Ġ12": 1478,
      "Ġable": 1479,
      "ĠAll": 1480,
      "Ġsit": 1481,
      "ĠAmerican": 1482,
      "Ġclaim": 1483,
      "ãĤĴ": 1484,
      "Ġwomen": 1485,
      "ission": 1486,
      "Ġbre": 1487,
      "Ġsocial": 1488,
      "ÙĦ": 1489,
      "acy": 1490,
      "ĠPl": 1491,
      "Ġsmall": 1492,
      "Ġwhy": 1493,
      "els": 1494,
      "Ġpat": 1495,
      "Ġaff": 1496,
      "Ã¥": 1497,
      "Ġimportant": 1498,
      "br": 1499,
      "Ġrese": 1500,
      "Ġalways": 1501,
      "Ġconst": 1502,
      "ohn": 1503,
      "ada": 1504,
      "reen": 1505,
      "ãģĮ": 1506,
      "bs": 1507,
      "atur": 1508,
      "Ã§": 1509,
      "ĠAm": 1510,
      "au": 1511,
      "Ġjob": 1512,
      "ĠCon": 1513,
      "__": 1514,
      "Ġpolic": 1515,
      "Ġmoney": 1516,
      "eder": 1517,
      "ĠTo": 1518,
      "Ġvide": 1519,
      "Ġspec": 1520,
      "ãģª": 1521,
      "Ġchang": 1522,
      "Ġpast": 1523,
      "Ġda": 1524,
      "Ġcampaign": 1525,
      "Ġmajor": 1526,
      "outh": 1527,
      "ĠUnited": 1528,
      "Ġgrow": 1529,
      "Ġintern": 1530,
      "ator": 1531,
      "Ġfree": 1532,
      "til": 1533,
      "Ġ15": 1534,
      "10": 1535,
      "Î¿": 1536,
      "Ġwrit": 1537,
      "Ġdays": 1538,
      "Ġclass": 1539,
      "eng": 1540,
      "arc": 1541,
      "ĠEn": 1542,
      "iven": 1543,
      "ides": 1544,
      "ĠDemocrat": 1545,
      "Ġchar": 1546,
      "Ġcost": 1547,
      "iversity": 1548,
      "ĠRuss": 1549,
      "aining": 1550,
      "Ġtalk": 1551,
      "Ġhappen": 1552,
      "ãĥ¼": 1553,
      "ĠGr": 1554,
      "Ġder": 1555,
      "Ġelect": 1556,
      "ope": 1557,
      "Ġaccording": 1558,
      "Ġdist": 1559,
      "Ġthing": 1560,
      "Ġdeal": 1561,
      "tion": 1562,
      "ĠComm": 1563,
      "rist": 1564,
      "oll": 1565,
      "ending": 1566,
      "ĠEuro": 1567,
      "ards": 1568,
      "ane": 1569,
      "ĠNo": 1570,
      "Ġmarket": 1571,
      "Ġaway": 1572,
      "Ġprote": 1573,
      "ney": 1574,
      "Ġdesign": 1575,
      "ĠOne": 1576,
      "Ġcity": 1577,
      "Ġmust": 1578,
      "ĠCan": 1579,
      "'re": 1580,
      "ox": 1581,
      "Ġfac": 1582,
      "Ñĩ": 1583,
      "ald": 1584,
      "here": 1585,
      "ĠOr": 1586,
      "Ġfund": 1587,
      "ait": 1588,
      "ĠMr": 1589,
      "Ġprop": 1590,
      "side": 1591,
      "ued": 1592,
      "Ġleast": 1593,
      "pped": 1594,
      "work": 1595,
      "Ġdoesn": 1596,
      "Ġfamily": 1597,
      "ians": 1598,
      "ries": 1599,
      "Ġ--": 1600,
      "ĠTe": 1601,
      "Ġworking": 1602,
      "Ġmedia": 1603,
      "ead": 1604,
      "Ġformer": 1605,
      "den": 1606,
      "Ġmaking": 1607,
      "une": 1608,
      "ured": 1609,
      "ĠMay": 1610,
      "Ġfore": 1611,
      "Ġinvestig": 1612,
      "ĠIm": 1613,
      "Ġpolitical": 1614,
      "let": 1615,
      "Ġold": 1616,
      "Ġcame": 1617,
      "iver": 1618,
      "ado": 1619,
      "ĠJohn": 1620,
      "ĠÐ½": 1621,
      "ĠBr": 1622,
      "//": 1623,
      "Ġpot": 1624,
      "ample": 1625,
      "ream": 1626,
      "Ġkill": 1627,
      "ising": 1628,
      "Ġlater": 1629,
      "ality": 1630,
      "inc": 1631,
      "Ġtell": 1632,
      "Ġdie": 1633,
      "Ġopt": 1634,
      "Î¹": 1635,
      "aring": 1636,
      "ĠPol": 1637,
      "Ġsimp": 1638,
      "year": 1639,
      "ĠRepublic": 1640,
      "ccess": 1641,
      "Ġenough": 1642,
      "Ġstory": 1643,
      "Ġbook": 1644,
      "Ġview": 1645,
      "ified": 1646,
      "Ġ11": 1647,
      "ury": 1648,
      "for": 1649,
      "Ġden": 1650,
      "Ġkind": 1651,
      "Ġrecord": 1652,
      "Ġmeet": 1653,
      "Ġfriend": 1654,
      "Ġ=": 1655,
      "ror": 1656,
      "Ġ18": 1657,
      "Ġthough": 1658,
      "ĠMc": 1659,
      "Ġfut": 1660,
      "ley": 1661,
      "by": 1662,
      "ering": 1663,
      "rem": 1664,
      "ĠSy": 1665,
      "Ġdev": 1666,
      "Ġfull": 1667,
      "ush": 1668,
      "ĠWith": 1669,
      "ĠHouse": 1670,
      "ĠSte": 1671,
      "Ġlarge": 1672,
      "ĠEx": 1673,
      "Ġtax": 1674,
      "Ġorder": 1675,
      "Ġbas": 1676,
      "Ġtook": 1677,
      "Ġdeb": 1678,
      "ĠÑģ": 1679,
      "ember": 1680,
      "book": 1681,
      "19": 1682,
      "ĠMin": 1683,
      "Ġgive": 1684,
      "ĠDon": 1685,
      "Ġair": 1686,
      "Ġbecome": 1687,
      "Th": 1688,
      "alf": 1689,
      "ization": 1690,
      "Ġuntil": 1691,
      "Ġnon": 1692,
      "Ġra": 1693,
      "iber": 1694,
      "ony": 1695,
      "Ġhuman": 1696,
      "oint": 1697,
      "Ġtoday": 1698,
      "artment": 1699,
      "ĠØ": 1700,
      "ison": 1701,
      "witter": 1702,
      "Ġbit": 1703,
      "Ġline": 1704,
      "ived": 1705,
      "ument": 1706,
      "ĠCo": 1707,
      "ats": 1708,
      "Ġpriv": 1709,
      "Ġpress": 1710,
      "Ġthought": 1711,
      "Ġreturn": 1712,
      "Ġmean": 1713,
      "Ġevent": 1714,
      "gin": 1715,
      "ĠPr": 1716,
      "Ġ#": 1717,
      "Ġcrit": 1718,
      "ands": 1719,
      "Ġ2016": 1720,
      "Ġproduct": 1721,
      "ds": 1722,
      "ted": 1723,
      "aken": 1724,
      "Ġactually": 1725,
      "Ġdoing": 1726,
      "Ġtimes": 1727,
      "Ġ&": 1728,
      "raph": 1729,
      "Ġever": 1730,
      "ana": 1731,
      "Ġseen": 1732,
      "ĠMar": 1733,
      "Ġacross": 1734,
      "Ġannoun": 1735,
      "Ġsex": 1736,
      "Ġwhether": 1737,
      "Ġperform": 1738,
      "most": 1739,
      "Ġreported": 1740,
      "imate": 1741,
      "ours": 1742,
      "aps": 1743,
      "ubl": 1744,
      "ĠSen": 1745,
      "ourn": 1746,
      "Ġsure": 1747,
      "Ġsug": 1748,
      "ĠOb": 1749,
      "Ġviol": 1750,
      "Ġequ": 1751,
      "Ġmembers": 1752,
      "ti": 1753,
      "Ġquestion": 1754,
      "arm": 1755,
      "urch": 1756,
      "Ġlikely": 1757,
      "50": 1758,
      "ware": 1759,
      "ones": 1760,
      "Ġcommunity": 1761,
      "Ġsever": 1762,
      "ĠEurope": 1763,
      "Ġhaving": 1764,
      "Ġchildren": 1765,
      "iously": 1766,
      "aff": 1767,
      "isc": 1768,
      "Ġnight": 1769,
      "Ġmanag": 1770,
      "ĠCol": 1771,
      "Ġvers": 1772,
      "Ġsing": 1773,
      "wh": 1774,
      "gress": 1775,
      "ÑĢÐ°": 1776,
      "Ġfuture": 1777,
      "Ġoften": 1778,
      "Ġ,": 1779,
      "Ġactiv": 1780,
      "idence": 1781,
      "ots": 1782,
      "Ġmilit": 1783,
      "Ġcontrol": 1784,
      "empt": 1785,
      "Ġlocal": 1786,
      "Ġname": 1787,
      "Ġeng": 1788,
      "Ġcho": 1789,
      "pro": 1790,
      "Ġwr": 1791,
      "Ġ30": 1792,
      "mber": 1793,
      "ortun": 1794,
      "Ġavail": 1795,
      "ster": 1796,
      "nd": 1797,
      "ĠX": 1798,
      "ÐµÐ½": 1799,
      "Ġappear": 1800,
      "Ġgames": 1801,
      "ories": 1802,
      "ither": 1803,
      "Ġfive": 1804,
      "raft": 1805,
      "Ġcond": 1806,
      "go": 1807,
      "Ġplayers": 1808,
      "ivid": 1809,
      "nect": 1810,
      "Ġdone": 1811,
      "sh": 1812,
      "Ġmom": 1813,
      "ium": 1814,
      "Ġproblem": 1815,
      "Ġce": 1816,
      "Ġauthor": 1817,
      "Ġarg": 1818,
      "Ġcertain": 1819,
      "oci": 1820,
      "Ġmonths": 1821,
      "ĠNot": 1822,
      "Ġsent": 1823,
      "Ġearly": 1824,
      "Ġshort": 1825,
      "Ġvideo": 1826,
      "Ġpossible": 1827,
      "itive": 1828,
      "Ġwithin": 1829,
      "ederal": 1830,
      "Ġunderstand": 1831,
      "Ð¾Ð²": 1832,
      "ended": 1833,
      "Ġalong": 1834,
      "ij": 1835,
      "Ġ:": 1836,
      "Ġyoung": 1837,
      "Ġseveral": 1838,
      "Ġprot": 1839,
      "Ġwent": 1840,
      "Ġinvol": 1841,
      "ĠAfter": 1842,
      "igr": 1843,
      "Ġnet": 1844,
      "Î½": 1845,
      "ĠYork": 1846,
      "Ġris": 1847,
      "Ġhold": 1848,
      "Ġside": 1849,
      "Ġund": 1850,
      "Ġvar": 1851,
      "Ġindust": 1852,
      "Ġamong": 1853,
      "Ġdesc": 1854,
      "Ġident": 1855,
      "elf": 1856,
      "Ġwater": 1857,
      "Ġaccount": 1858,
      "Ġsuccess": 1859,
      "Ġmeans": 1860,
      "Ġ2017": 1861,
      "ief": 1862,
      "ague": 1863,
      "fic": 1864,
      "Ġyet": 1865,
      "ged": 1866,
      "Ġexample": 1867,
      "por": 1868,
      "ched": 1869,
      "Ġonce": 1870,
      "rew": 1871,
      "Ġasked": 1872,
      "Ġfight": 1873,
      "itions": 1874,
      "ĠHowever": 1875,
      "Ġcourse": 1876,
      "nes": 1877,
      "----": 1878,
      "ustom": 1879,
      "ball": 1880,
      "iron": 1881,
      "ĠWhile": 1882,
      "Ġlim": 1883,
      "ĠState": 1884,
      "ĠFl": 1885,
      "Ġnational": 1886,
      "Ġfail": 1887,
      "Ġadded": 1888,
      "Ġart": 1889,
      "AT": 1890,
      "ances": 1891,
      "IN": 1892,
      "Ġcharac": 1893,
      "ulation": 1894,
      "ĠStates": 1895,
      "Ġaccess": 1896,
      "arr": 1897,
      "uff": 1898,
      "ĠCent": 1899,
      "Ġstrong": 1900,
      "Ġmid": 1901,
      "ler": 1902,
      "pecial": 1903,
      "Ġgetting": 1904,
      "Ġmakes": 1905,
      "urther": 1906,
      "orts": 1907,
      "Ġavailable": 1908,
      "Ġparty": 1909,
      "of": 1910,
      "eb": 1911,
      "Îµ": 1912,
      "Ġtrad": 1913,
      "Ġemploy": 1914,
      "ãģĻ": 1915,
      "verage": 1916,
      "rop": 1917,
      "back": 1918,
      "Ġland": 1919,
      "Ġothers": 1920,
      "osp": 1921,
      "resent": 1922,
      "Ġlo": 1923,
      "ee": 1924,
      "ober": 1925,
      "Ġocc": 1926,
      "Ġsuggest": 1927,
      "Ð·": 1928,
      "orld": 1929,
      "irm": 1930,
      "ĠSec": 1931,
      "Ġ2018": 1932,
      "not": 1933,
      "Ġreason": 1934,
      "ript": 1935,
      "ĠChina": 1936,
      "Ġcomes": 1937,
      "Ġcreat": 1938,
      "Ġbelieve": 1939,
      "Ġclose": 1940,
      "Ġgiven": 1941,
      "Ġprob": 1942,
      "ource": 1943,
      "Ġdeath": 1944,
      "://": 1945,
      "Ġfoc": 1946,
      "ĠChrist": 1947,
      "Ġap": 1948,
      "ĠEl": 1949,
      "Ġ13": 1950,
      "ON": 1951,
      "omm": 1952,
      "ĠDep": 1953,
      "Ġsus": 1954,
      "ĠInst": 1955,
      "Ġfollowing": 1956,
      "ĠÙ": 1957,
      "ability": 1958,
      "ashing": 1959,
      "Ġexc": 1960,
      "Ġ14": 1961,
      "ensive": 1962,
      "ĠNe": 1963,
      "Ġlove": 1964,
      "Ġlight": 1965,
      "Ġmus": 1966,
      ".,": 1967,
      "Ġtot": 1968,
      "Ġ16": 1969,
      "ĠJust": 1970,
      "Ġil": 1971,
      "aut": 1972,
      "Ġsecurity": 1973,
      "Ġissue": 1974,
      "Ġmult": 1975,
      "Ġlos": 1976,
      "ĠUniversity": 1977,
      "Ġstarted": 1978,
      "Ġsal": 1979,
      "ored": 1980,
      "Ġhig": 1981,
      "Ġknown": 1982,
      "iety": 1983,
      "unch": 1984,
      "Ġorig": 1985,
      "ze": 1986,
      "Ġclear": 1987,
      "aster": 1988,
      "Ġtem": 1989,
      "iÃ³": 1990,
      "Ġanal": 1991,
      "ran": 1992,
      "Ġago": 1993,
      "Ġimpro": 1994,
      "acebook": 1995,
      "Ġlow": 1996,
      "Ġtrying": 1997,
      "Ġmiss": 1998,
      "Ġenc": 1999,
      "hers": 2000,
      "Ġlive": 2001,
      "Ġcourt": 2002,
      "Ġtoget": 2003,
      "ä¸": 2004,
      "Ġtogether": 2005,
      "Ġexperience": 2006,
      "Ġcut": 2007,
      "Ġbene": 2008,
      "ĠSun": 2009,
      "raw": 2010,
      "Ġ/": 2011,
      "elt": 2012,
      "Ġlooking": 2013,
      "uly": 2014,
      "RE": 2015,
      "yn": 2016,
      "ference": 2017,
      "itional": 2018,
      "Ġbased": 2019,
      "utes": 2020,
      "ĠMe": 2021,
      "Ġpotential": 2022,
      "ĠApp": 2023,
      "Ġmor": 2024,
      "Ġhistory": 2025,
      "lement": 2026,
      "ades": 2027,
      "ination": 2028,
      "ĠMan": 2029,
      "Ġ199": 2030,
      "oto": 2031,
      "irl": 2032,
      "Ġjo": 2033,
      "ators": 2034,
      "Ġsaying": 2035,
      "Ġconcern": 2036,
      "Ġ|": 2037,
      "Ġcompan": 2038,
      "Ġface": 2039,
      "par": 2040,
      "Ġconsider": 2041,
      "ĠAb": 2042,
      "ĠRes": 2043,
      "ĠAmerica": 2044,
      "uf": 2045,
      "Ġpresent": 2046,
      "Ġvict": 2047,
      "ĠCal": 2048,
      "Ġartic": 2049,
      "selves": 2050,
      "ilar": 2051,
      "Ġfav": 2052,
      "Ġindivid": 2053,
      "Ġrul": 2054,
      "30": 2055,
      "uge": 2056,
      "IS": 2057,
      "Ġver": 2058,
      "reed": 2059,
      "ĠDr": 2060,
      "ĠÃ©": 2061,
      "Ġthreat": 2062,
      "ĠÐ¾": 2063,
      "Ġisn": 2064,
      "Ġcompet": 2065,
      "11": 2066,
      "Ġadmin": 2067,
      "fer": 2068,
      "ails": 2069,
      "Ġidea": 2070,
      "Ġmess": 2071,
      "Ġspecial": 2072,
      "ĠÃł": 2073,
      "Ġalmost": 2074,
      "Ġimm": 2075,
      "Ġdiscuss": 2076,
      "Ġcand": 2077,
      "Ġtaken": 2078,
      "Ġsw": 2079,
      "Ġpract": 2080,
      "ãĥ³": 2081,
      "Ġprotect": 2082,
      "ule": 2083,
      "Ñħ": 2084,
      "ĠPart": 2085,
      "rael": 2086,
      "obal": 2087,
      "Ġbill": 2088,
      "ĠNorth": 2089,
      "Ġpolicy": 2090,
      "ĠAf": 2091,
      "Ġproper": 2092,
      "Ġcomplete": 2093,
      "Ġsix": 2094,
      "Ġ2015": 2095,
      "iday": 2096,
      "Ġmar": 2097,
      "ĠNews": 2098,
      "ĠNow": 2099,
      "ili": 2100,
      "Ġbring": 2101,
      "irc": 2102,
      "Ġbehind": 2103,
      "Ġenv": 2104,
      "ĠGu": 2105,
      "reet": 2106,
      "reme": 2107,
      "Ġarea": 2108,
      "Ġstatement": 2109,
      "'ve": 2110,
      "Ġkey": 2111,
      "ique": 2112,
      "ĠFacebook": 2113,
      "itor": 2114,
      "Ġhalf": 2115,
      "Ġseries": 2116,
      "Ġanything": 2117,
      "ĠTwitter": 2118,
      "wards": 2119,
      "Ġsum": 2120,
      "che": 2121,
      "ify": 2122,
      "Ġcoun": 2123,
      "Ġcustom": 2124,
      "Ġpubl": 2125,
      "Ġservice": 2126,
      "Ġdecision": 2127,
      "ĠÐ¸": 2128,
      "ĠBrit": 2129,
      "Ġ17": 2130,
      "rown": 2131,
      "Ġnear": 2132,
      "ãģĭ": 2133,
      "Ġfall": 2134,
      "Ġquick": 2135,
      "Ġentire": 2136,
      "Ġblock": 2137,
      "reg": 2138,
      "ĠNational": 2139,
      "Ġdoc": 2140,
      "Ġtaking": 2141,
      "Ġmind": 2142,
      "ien": 2143,
      "ĠAust": 2144,
      "Ġindividual": 2145,
      "Ġbad": 2146,
      "ĠEng": 2147,
      "ĠJan": 2148,
      "istration": 2149,
      "lu": 2150,
      "ids": 2151,
      "Ġofficials": 2152,
      "Ġcompl": 2153,
      "Ð¿": 2154,
      "ha": 2155,
      "Ġcoming": 2156,
      "Ġcompanies": 2157,
      "ĠObama": 2158,
      "Ġtarg": 2159,
      "Ġhtt": 2160,
      "na": 2161,
      "aper": 2162,
      "Ġcomb": 2163,
      "Ġsomeone": 2164,
      "Ġfood": 2165,
      "Ġexist": 2166,
      "off": 2167,
      "AN": 2168,
      "Ġneg": 2169,
      "Ġspace": 2170,
      "Ġsitu": 2171,
      "Ġconnect": 2172,
      "ãĤĮ": 2173,
      "Ġchall": 2174,
      "ĠMed": 2175,
      "ĠEm": 2176,
      "Ġ2019": 2177,
      "Ġmass": 2178,
      "ources": 2179,
      "ĠBy": 2180,
      "Ġmilitary": 2181,
      "Ð¹": 2182,
      "Ġsingle": 2183,
      "ww": 2184,
      "Ġtry": 2185,
      "Ġdue": 2186,
      "Ġstudy": 2187,
      "ĠGer": 2188,
      "Ġstep": 2189,
      "Ġresearch": 2190,
      "á»": 2191,
      "Ġlearn": 2192,
      "Ġprovide": 2193,
      "Ġfurther": 2194,
      "ĠMy": 2195,
      "ĠIsrael": 2196,
      "ĠWar": 2197,
      "ĠGe": 2198,
      "BC": 2199,
      "Ġcolle": 2200,
      "Ġwanted": 2201,
      "ĠDo": 2202,
      "Ġcult": 2203,
      "uel": 2204,
      "ĠCity": 2205,
      "Ġleaders": 2206,
      "iting": 2207,
      "12": 2208,
      "ences": 2209,
      "ault": 2210,
      "rote": 2211,
      "Ġalleg": 2212,
      "ring": 2213,
      "ĠAss": 2214,
      "sec": 2215,
      "ĠAcc": 2216,
      "ĠWorld": 2217,
      "ĠSouth": 2218,
      "Ġissues": 2219,
      "ask": 2220,
      "asing": 2221,
      "ores": 2222,
      "ashington": 2223,
      "Ġcreate": 2224,
      "aces": 2225,
      "ĠThese": 2226,
      "Ïĥ": 2227,
      "Ġblack": 2228,
      "ept": 2229,
      "Ġ25": 2230,
      "Ġcandid": 2231,
      "ĠCar": 2232,
      "ugh": 2233,
      "Ġattempt": 2234,
      "Ġ100": 2235,
      "play": 2236,
      "ounds": 2237,
      "Ġfire": 2238,
      "Ġren": 2239,
      "Ġvo": 2240,
      "rie": 2241,
      "ams": 2242,
      "cy": 2243,
      "Ġsuper": 2244,
      "ãģ¾": 2245,
      "Ġcontinue": 2246,
      "pping": 2247,
      "Ġfront": 2248,
      "AR": 2249,
      "Ġfilm": 2250,
      "Ġbody": 2251,
      "Ġlat": 2252,
      "Ġpoints": 2253,
      "Ġsignific": 2254,
      "ogle": 2255,
      "Ġfederal": 2256,
      "Ġfoot": 2257,
      "ĠDav": 2258,
      "ender": 2259,
      "ãģ£": 2260,
      "Ġfinal": 2261,
      "Ġles": 2262,
      "Ġans": 2263,
      "In": 2264,
      "Ġaddress": 2265,
      "ĠSome": 2266,
      "Ġexec": 2267,
      "ĠWashington": 2268,
      "ta": 2269,
      "Ġmeas": 2270,
      "Ġhit": 2271,
      "Ġelection": 2272,
      "Ġrather": 2273,
      "Ġdom": 2274,
      "Ġconv": 2275,
      "'m": 2276,
      "Ġstop": 2277,
      "âĢĿ.": 2278,
      "arlier": 2279,
      "Ïģ": 2280,
      "Ġoffice": 2281,
      "though": 2282,
      "ĠPa": 2283,
      "head": 2284,
      "iÃ³n": 2285,
      "Ġfeat": 2286,
      "Ġ2014": 2287,
      "olution": 2288,
      "ĠEd": 2289,
      "Ġdam": 2290,
      "my": 2291,
      "ĠHis": 2292,
      "ĠPe": 2293,
      "itte": 2294,
      "Ġelse": 2295,
      "Ġpret": 2296,
      "Ġfig": 2297,
      "oon": 2298,
      "itted": 2299,
      "atic": 2300,
      "af": 2301,
      "ery": 2302,
      "abor": 2303,
      "Ġsimilar": 2304,
      "Ġnothing": 2305,
      "Ġum": 2306,
      "pite": 2307,
      "duct": 2308,
      "vertis": 2309,
      "ibility": 2310,
      "Ġfinanc": 2311,
      "Ġmoment": 2312,
      "ironment": 2313,
      "Ġthird": 2314,
      "Ġbegin": 2315,
      "Ġpick": 2316,
      "Ġrelations": 2317,
      "Ġeverything": 2318,
      "AS": 2319,
      "ilt": 2320,
      "Ġcountries": 2321,
      "ĠCong": 2322,
      "Ġwrote": 2323,
      "Ġpor": 2324,
      "Ġdest": 2325,
      "urg": 2326,
      "Ġrepresent": 2327,
      "sy": 2328,
      "ournal": 2329,
      "ĠWhite": 2330,
      "Ġener": 2331,
      "Ġaction": 2332,
      "Ġrespons": 2333,
      "Ġdevelopment": 2334,
      "Ġrights": 2335,
      "oud": 2336,
      "Ġ50": 2337,
      "ively": 2338,
      "ÂŃ": 2339,
      "ais": 2340,
      "li": 2341,
      "15": 2342,
      "Ġplayer": 2343,
      "ĠMarch": 2344,
      "pecially": 2345,
      "Ġgeneral": 2346,
      "ĠSup": 2347,
      "Ġmot": 2348,
      "Ġinit": 2349,
      "Ñĸ": 2350,
      "Ġprofess": 2351,
      "eks": 2352,
      "Ġhouse": 2353,
      "lam": 2354,
      "Ġhours": 2355,
      "Ġoutside": 2356,
      "Ġwatch": 2357,
      "ĠPer": 2358,
      "Ġstudents": 2359,
      "ÑĢÐµ": 2360,
      "Ġvir": 2361,
      "Ġple": 2362,
      "Ġindustry": 2363,
      "Ġprobably": 2364,
      "Ġsite": 2365,
      ".)": 2366,
      "Ġhowever": 2367,
      "Ġprim": 2368,
      "Ġson": 2369,
      "Ġdescrib": 2370,
      "Ġhope": 2371,
      "Ġhom": 2372,
      "Ø§ÙĦ": 2373,
      "Ġneeds": 2374,
      "Ġrepl": 2375,
      "Ġste": 2376,
      "uk": 2377,
      "iod": 2378,
      "now": 2379,
      "ugg": 2380,
      "ux": 2381,
      "dle": 2382,
      "Ġdou": 2383,
      "Ġtreat": 2384,
      "amer": 2385,
      "Ġstri": 2386,
      "Ġeither": 2387,
      "Ġstates": 2388,
      "Ġlegal": 2389,
      "Ġbreak": 2390,
      "Ġwhole": 2391,
      "Ġmatter": 2392,
      "Ġself": 2393,
      "Ġvol": 2394,
      "lex": 2395,
      "EN": 2396,
      "Ġcharg": 2397,
      "ift": 2398,
      "aged": 2399,
      "**": 2400,
      "ĠMond": 2401,
      "ffic": 2402,
      "mb": 2403,
      "oe": 2404,
      "duced": 2405,
      "Ġey": 2406,
      "ĠSch": 2407,
      "Ġrole": 2408,
      "ĠMore": 2409,
      "Ġinterview": 2410,
      "Ġbelow": 2411,
      "ote": 2412,
      "ried": 2413,
      "Ġposition": 2414,
      "ĠÐº": 2415,
      "Ġpara": 2416,
      "iff": 2417,
      "ural": 2418,
      "Ġbenef": 2419,
      "Ġservices": 2420,
      "ivil": 2421,
      "Ġspecific": 2422,
      "Ġonline": 2423,
      "amed": 2424,
      "ãĤĤ": 2425,
      "Ġroom": 2426,
      "ently": 2427,
      "Ġ24": 2428,
      "Ġfield": 2429,
      "Ġreleased": 2430,
      "ĠLa": 2431,
      "amb": 2432,
      "lim": 2433,
      "rup": 2434,
      "Ġlarg": 2435,
      "Ġwoman": 2436,
      "Ġamount": 2437,
      "Ġabove": 2438,
      "ows": 2439,
      "Ġdiffic": 2440,
      "Ð±": 2441,
      "anks": 2442,
      "Ġbillion": 2443,
      "Ġsen": 2444,
      "ãģĨ": 2445,
      "Ġeveryone": 2446,
      "Ġseems": 2447,
      "Ġrelease": 2448,
      "Ġcases": 2449,
      "ches": 2450,
      "ape": 2451,
      "Ġvote": 2452,
      "ĠQu": 2453,
      "ients": 2454,
      "Ġdecl": 2455,
      "ĠIntern": 2456,
      "ÑĤÐ¾": 2457,
      "ÙĬ": 2458,
      "Ġrunning": 2459,
      "ico": 2460,
      "abl": 2461,
      "ser": 2462,
      "ĠKe": 2463,
      "ma": 2464,
      "umb": 2465,
      "iding": 2466,
      "ĠFriday": 2467,
      "Ġjud": 2468,
      "arth": 2469,
      "Ġgen": 2470,
      "Ġwasn": 2471,
      "Ġinj": 2472,
      "Ġdeep": 2473,
      "ribut": 2474,
      "Ġ@": 2475,
      "Ġforward": 2476,
      "time": 2477,
      "Ġshows": 2478,
      "Ġbuilding": 2479,
      "Ġdifficult": 2480,
      "Ġsignificant": 2481,
      "Ġopportun": 2482,
      "Ġweeks": 2483,
      "ĠGoogle": 2484,
      "Ġvalue": 2485,
      "str": 2486,
      "ĠDepartment": 2487,
      "inton": 2488,
      "Ġhimself": 2489,
      "ogn": 2490,
      "ino": 2491,
      "Ġcheck": 2492,
      "Ġred": 2493,
      "Ġport": 2494,
      "medi": 2495,
      "Ġapplic": 2496,
      "Ġthemselves": 2497,
      "attle": 2498,
      "Ġgun": 2499,
      "ĠMonday": 2500,
      "Ġball": 2501,
      "val": 2502,
      "ĠTues": 2503,
      "Ġabs": 2504,
      "Ġitself": 2505,
      "ĠMich": 2506,
      "Ġhost": 2507,
      "Ġwebs": 2508,
      "Ġstay": 2509,
      "ights": 2510,
      "Ġupd": 2511,
      "ĠWill": 2512,
      "Ġinclude": 2513,
      "like": 2514,
      "ES": 2515,
      "fect": 2516,
      "iter": 2517,
      "Ġimpact": 2518,
      "onse": 2519,
      "ĠTuesday": 2520,
      "ĠWest": 2521,
      "Ġevidence": 2522,
      "Ġ)": 2523,
      "Ġmag": 2524,
      "fully": 2525,
      "Ġannounced": 2526,
      "vertisement": 2527,
      "aced": 2528,
      "ming": 2529,
      "la": 2530,
      "Ġtyp": 2531,
      "Ġtotal": 2532,
      "ÏĢ": 2533,
      "Ġrad": 2534,
      "Ġappe": 2535,
      "Ġdrug": 2536,
      "Ġrisk": 2537,
      "Ø§Ø": 2538,
      "arter": 2539,
      "ateg": 2540,
      "Ġsaw": 2541,
      "order": 2542,
      "ival": 2543,
      "ĠApr": 2544,
      "Ġrecently": 2545,
      "ĠChe": 2546,
      "ida": 2547,
      "Ð³": 2548,
      "Ġdeter": 2549,
      "iment": 2550,
      "Ġbegan": 2551,
      "Ġcred": 2552,
      "ĠDes": 2553,
      "Ã¨": 2554,
      "ograph": 2555,
      "ĠCongress": 2556,
      "ĠMus": 2557,
      "uit": 2558,
      "ĠWed": 2559,
      "Ġcontent": 2560,
      "Ġtechnology": 2561,
      "Ġcaption": 2562,
      "Ġtrack": 2563,
      "Ġgroups": 2564,
      "Ġtrue": 2565,
      "Ġsimply": 2566,
      "Ġshare": 2567,
      "Ġcontract": 2568,
      "ĠAg": 2569,
      "Ġespecially": 2570,
      "epend": 2571,
      "put": 2572,
      "Ð½Ð¸": 2573,
      "load": 2574,
      "Ġpersonal": 2575,
      "ÙĨ": 2576,
      "upp": 2577,
      "ris": 2578,
      "Ġcop": 2579,
      "ĠOct": 2580,
      "Ġwhite": 2581,
      "Ġenergy": 2582,
      "Ġconsum": 2583,
      "ĠÐ´": 2584,
      "Ġversion": 2585,
      "Ġperiod": 2586,
      "ãĤī": 2587,
      "body": 2588,
      "Ġfocus": 2589,
      "Ġeconomic": 2590,
      "tr": 2591,
      "Ġanim": 2592,
      "Ġarticle": 2593,
      "ĠCour": 2594,
      "Ġ+": 2595,
      "Ġusers": 2596,
      "16": 2597,
      "bo": 2598,
      "Ġcirc": 2599,
      "Ġfriends": 2600,
      "angu": 2601,
      "ãģĵ": 2602,
      "action": 2603,
      "Ġstaff": 2604,
      "Ġcharacter": 2605,
      "ĠAug": 2606,
      "Ġchanges": 2607,
      "ude": 2608,
      "Ġbar": 2609,
      "Ġquite": 2610,
      "ĠSm": 2611,
      "Ġep": 2612,
      "Ġexpected": 2613,
      "ĠHer": 2614,
      "Ġsoon": 2615,
      "Ġlate": 2616,
      "Ġtarget": 2617,
      "Ġrev": 2618,
      "oke": 2619,
      "Ġshoot": 2620,
      "Ġglobal": 2621,
      "isl": 2622,
      "ĠClinton": 2623,
      "Ġlost": 2624,
      "org": 2625,
      "OR": 2626,
      "Ġinstead": 2627,
      "right": 2628,
      "unt": 2629,
      "ĠSept": 2630,
      "bre": 2631,
      "Ñİ": 2632,
      "Ġphys": 2633,
      "Ġpred": 2634,
      "Ġanti": 2635,
      "ĠAccording": 2636,
      "ĠRed": 2637,
      "ham": 2638,
      "Ġresults": 2639,
      "ica": 2640,
      "itting": 2641,
      "Ġled": 2642,
      "Ġtal": 2643,
      "æľ": 2644,
      "ached": 2645,
      "ole": 2646,
      "ĠHere": 2647,
      "Ġlonger": 2648,
      "ittee": 2649,
      "Ġsense": 2650,
      "Ġaud": 2651,
      "\".": 2652,
      "Ġreve": 2653,
      "atform": 2654,
      "Ġpretty": 2655,
      "Î·": 2656,
      "where": 2657,
      "äº": 2658,
      "ĠJe": 2659,
      "ĠÂ«": 2660,
      "ĠRussia": 2661,
      "==": 2662,
      "Ġpain": 2663,
      "ners": 2664,
      "ires": 2665,
      "ĠWednes": 2666,
      "Ġplaying": 2667,
      "Ġpict": 2668,
      "Ġcommon": 2669,
      "uary": 2670,
      "Ġreview": 2671,
      "wer": 2672,
      "Ġaccept": 2673,
      "ilities": 2674,
      "Ġcode": 2675,
      "Ġearlier": 2676,
      "ĠAustral": 2677,
      "ĠDonald": 2678,
      "ĠThurs": 2679,
      "Ġregul": 2680,
      "Ġnecess": 2681,
      "Ġvia": 2682,
      "ĠWednesday": 2683,
      "ĠApril": 2684,
      "Ġparent": 2685,
      "Ð°Ð»": 2686,
      "ests": 2687,
      "'ll": 2688,
      "istic": 2689,
      "ĠCor": 2690,
      "ctor": 2691,
      "yle": 2692,
      "anger": 2693,
      "Ġmusic": 2694,
      "ÏĤ": 2695,
      "Ġgirl": 2696,
      "Ġwalk": 2697,
      "Ġeduc": 2698,
      "Ġfinancial": 2699,
      "ĠThursday": 2700,
      "Ġlaws": 2701,
      "Ġobject": 2702,
      "ara": 2703,
      "hod": 2704,
      "Ġrespect": 2705,
      "Ġhigher": 2706,
      "erc": 2707,
      "rap": 2708,
      "Ġneeded": 2709,
      "Ġquestions": 2710,
      "Ġenvironment": 2711,
      "Ġdead": 2712,
      "Ð¾Ð¼": 2713,
      "Ġheld": 2714,
      "Ġfavor": 2715,
      "Ġ{": 2716,
      "iple": 2717,
      "80": 2718,
      "Ġrespond": 2719,
      "ĠBar": 2720,
      "Ġcomment": 2721,
      "ĠGerman": 2722,
      "Ġincrease": 2723,
      "This": 2724,
      "Ġhy": 2725,
      "han": 2726,
      "Ġtit": 2727,
      "ĠJune": 2728,
      "Ġworks": 2729,
      "Ġprice": 2730,
      "ky": 2731,
      "Ġcoup": 2732,
      "Ġdu": 2733,
      "Ġbecame": 2734,
      "Ġprivate": 2735,
      "ria": 2736,
      "Ġplayed": 2737,
      "Ġanyone": 2738,
      "Ïħ": 2739,
      "ny": 2740,
      "Ġpack": 2741,
      "aker": 2742,
      "ÑĨ": 2743,
      "ĠCount": 2744,
      "Ġemer": 2745,
      "cil": 2746,
      "Ġ2013": 2747,
      "Ġut": 2748,
      "lear": 2749,
      "Ġfunction": 2750,
      "itution": 2751,
      "Ġpie": 2752,
      "over": 2753,
      "14": 2754,
      "Ã§Ã£o": 2755,
      "ĠRepublican": 2756,
      "Ùħ": 2757,
      "Ġ2020": 2758,
      "ĠAct": 2759,
      "Ġhar": 2760,
      "Ġworkers": 2761,
      "overed": 2762,
      "Ġsell": 2763,
      "ends": 2764,
      "\",": 2765,
      "coin": 2766,
      "aterial": 2767,
      "Ġwrong": 2768,
      "17": 2769,
      "itiz": 2770,
      "key": 2771,
      "Ġminutes": 2772,
      "Ġrate": 2773,
      "ato": 2774,
      "Ġcal": 2775,
      "oph": 2776,
      "ci": 2777,
      "Ġ<": 2778,
      "ellig": 2779,
      "tain": 2780,
      "Ġeasy": 2781,
      "ĠCalif": 2782,
      "ees": 2783,
      "ĠJuly": 2784,
      "Ġways": 2785,
      "bit": 2786,
      "ĠIndia": 2787,
      "Ġresponse": 2788,
      "asons": 2789,
      "Ġpopular": 2790,
      "Ġexpress": 2791,
      "Ä±": 2792,
      "Ġwind": 2793,
      "Ġexecut": 2794,
      "eter": 2795,
      "Ġlog": 2796,
      "Ġinternational": 2797,
      "Ġarrest": 2798,
      "okes": 2799,
      "Ġcoll": 2800,
      "cast": 2801,
      "atives": 2802,
      "Ġmodel": 2803,
      "Ġdiv": 2804,
      "Ð¾Ð»": 2805,
      "Ġens": 2806,
      "alt": 2807,
      "istrict": 2808,
      "Ġadministration": 2809,
      "pa": 2810,
      "Ġdig": 2811,
      "Ã©s": 2812,
      "Ġna": 2813,
      "ĠUK": 2814,
      "Ġmeeting": 2815,
      "Wh": 2816,
      "Ġ*": 2817,
      "Ġcapital": 2818,
      "lin": 2819,
      "zy": 2820,
      "ĠÐ½Ð°": 2821,
      "mit": 2822,
      "ĠAdvertisement": 2823,
      "hern": 2824,
      "aving": 2825,
      "ĠHar": 2826,
      "ãĤĬ": 2827,
      "Ġparticip": 2828,
      "Ġnearly": 2829,
      "Ġtrade": 2830,
      "ID": 2831,
      "Ġcreated": 2832,
      "Ġ21": 2833,
      "ĠCourt": 2834,
      "Ġcannot": 2835,
      "Ġ40": 2836,
      "Ġsurpr": 2837,
      "ises": 2838,
      "Ġtype": 2839,
      "Ġreports": 2840,
      "ille": 2841,
      "Ġwords": 2842,
      "Ġleave": 2843,
      "ĠAng": 2844,
      "25": 2845,
      "ĠIran": 2846,
      "Ġoffer": 2847,
      "Ġcry": 2848,
      "Ġdirector": 2849,
      "Ãª": 2850,
      "down": 2851,
      "Ġnetwork": 2852,
      "Ġcurrently": 2853,
      "Ġ(@": 2854,
      "rain": 2855,
      "Ġimmedi": 2856,
      "based": 2857,
      "Ġinside": 2858,
      "Ġnation": 2859,
      "Ġpur": 2860,
      "ken": 2861,
      "ips": 2862,
      "Ġage": 2863,
      "Ġge": 2864,
      "He": 2865,
      "ĠGl": 2866,
      "ites": 2867,
      "hic": 2868,
      "ills": 2869,
      "IC": 2870,
      "Ġ2012": 2871,
      "Ġimage": 2872,
      "do": 2873,
      "gen": 2874,
      "apan": 2875,
      "18": 2876,
      "ÐµÑĤ": 2877,
      "ĠFeb": 2878,
      "Ġrelationship": 2879,
      "Ġreceived": 2880,
      "Ġein": 2881,
      "Ġground": 2882,
      "Ġwait": 2883,
      "Ġgoal": 2884,
      "ÑĢÐ¸": 2885,
      "Ġsituation": 2886,
      "Ġtre": 2887,
      "Ġrequire": 2888,
      "ãĤ¹": 2889,
      "joy": 2890,
      "bor": 2891,
      "iqu": 2892,
      "ĠSunday": 2893,
      "St": 2894,
      "Ġplatform": 2895,
      "Ġproblems": 2896,
      "Ġbuy": 2897,
      "ĠPat": 2898,
      "lev": 2899,
      "za": 2900,
      "Ġscient": 2901,
      "Ġexact": 2902,
      "Ġmis": 2903,
      "Ġrelig": 2904,
      "ĠSan": 2905,
      "Ġdefin": 2906,
      "Ġinvolved": 2907,
      "ĠPal": 2908,
      "icro": 2909,
      "Ġnorm": 2910,
      "ĠTH": 2911,
      "Ġarri": 2912,
      "Ġforce": 2913,
      "ãĥ¼ãĥ": 2914,
      "Ø±": 2915,
      "ĠCont": 2916,
      "rend": 2917,
      "ett": 2918,
      "Ġheart": 2919,
      "Ġsoft": 2920,
      "Ġâ": 2921,
      "ĠEven": 2922,
      "ĠDemocrats": 2923,
      "13": 2924,
      "Ġplans": 2925,
      "âĢĵ": 2926,
      "haps": 2927,
      "rel": 2928,
      "Ġworth": 2929,
      "Ġdemand": 2930,
      "ĠMark": 2931,
      "ĠCaliforn": 2932,
      "âĢĿ,": 2933,
      "oid": 2934,
      "osition": 2935,
      "Ġterror": 2936,
      "iction": 2937,
      "Ġ22": 2938,
      "ĠJanuary": 2939,
      "Ġtool": 2940,
      "Ġphot": 2941,
      "ples": 2942,
      "Ġfans": 2943,
      "oved": 2944,
      "Ġemail": 2945,
      "ĠGet": 2946,
      "Ġinvestigation": 2947,
      "Ġbase": 2948,
      "Ġaffect": 2949,
      "roll": 2950,
      "ĠTV": 2951,
      "ÑĪ": 2952,
      "ael": 2953,
      "Ġforeign": 2954,
      "____": 2955,
      "usion": 2956,
      "Ġclub": 2957,
      "ese": 2958,
      "aily": 2959,
      "Ġcomput": 2960,
      "izing": 2961,
      "omb": 2962,
      "Ġcollect": 2963,
      "Ġsource": 2964,
      "hood": 2965,
      "ops": 2966,
      "Ġphone": 2967,
      "Ġshot": 2968,
      "Ġpers": 2969,
      "ĠØ§ÙĦ": 2970,
      "Ġsold": 2971,
      "ety": 2972,
      "Ġcivil": 2973,
      "Ġwebsite": 2974,
      "cer": 2975,
      "ste": 2976,
      "ĠGod": 2977,
      "Ġlatest": 2978,
      "Ġroad": 2979,
      "ĠKore": 2980,
      "AL": 2981,
      "vent": 2982,
      "Ġtravel": 2983,
      "ãģ¦ãģĦ": 2984,
      "Ġpage": 2985,
      "Ġje": 2986,
      "Ġworked": 2987,
      "Ġliving": 2988,
      "Ġtakes": 2989,
      "Ġbecom": 2990,
      "ĠAmericans": 2991,
      "Ġkilled": 2992,
      "uth": 2993,
      "ĠDavid": 2994,
      "Ġability": 2995,
      "ple": 2996,
      "Ġterms": 2997,
      "Ġlives": 2998,
      "atural": 2999,
      "Ġess": 3000,
      "âĢľ": 3001,
      "ĠCalifornia": 3002,
      "iam": 3003,
      "Ġintro": 3004,
      "Ġlangu": 3005,
      "Ġmaterial": 3006,
      "ĠDemocratic": 3007,
      "Ġfem": 3008,
      "akers": 3009,
      "aled": 3010,
      "aging": 3011,
      "Ġ}": 3012,
      "ume": 3013,
      "Ġaverage": 3014,
      "ĠPaul": 3015,
      "Ġclos": 3016,
      "Ġinflu": 3017,
      "Ġmember": 3018,
      "Ġhappened": 3019,
      "Ġbank": 3020,
      "Ã¸": 3021,
      "Ġindic": 3022,
      "ĠJapan": 3023,
      "Ġvisit": 3024,
      "uments": 3025,
      "Ġcontact": 3026,
      "IT": 3027,
      "ĠRussian": 3028,
      "Ġbroad": 3029,
      "ED": 3030,
      "Ġassoci": 3031,
      "ray": 3032,
      "hel": 3033,
      "ĠNet": 3034,
      "Ġimprove": 3035,
      "ging": 3036,
      "Ġvictim": 3037,
      "Ġrac": 3038,
      "orters": 3039,
      "ãĢĮ": 3040,
      "ãĢį": 3041,
      "ructure": 3042,
      "Ġdro": 3043,
      "60": 3044,
      "ovember": 3045,
      "Ġchance": 3046,
      "Ġsat": 3047,
      "Ġlack": 3048,
      "ouch": 3049,
      "istan": 3050,
      "Ð¾Ð´": 3051,
      "ĠEuropean": 3052,
      "Ġleader": 3053,
      "Ġareas": 3054,
      "Ġcell": 3055,
      "ĠPar": 3056,
      "Ġapproach": 3057,
      "ĠSenate": 3058,
      "ught": 3059,
      "OS": 3060,
      "ruction": 3061,
      "Ġtwe": 3062,
      "Ġslow": 3063,
      "Ð¶": 3064,
      "Ġperformance": 3065,
      "cement": 3066,
      "Ġeconomy": 3067,
      "Ġ23": 3068,
      "ĠSeptember": 3069,
      "atory": 3070,
      "Ġhon": 3071,
      "ĠBre": 3072,
      "Ġsecret": 3073,
      "Ġill": 3074,
      "Ġregard": 3075,
      "AC": 3076,
      "Ãł": 3077,
      "ĠÐ¼": 3078,
      "Ġpoll": 3079,
      "idents": 3080,
      "Ġdecided": 3081,
      "ĠFin": 3082,
      "ĠCanada": 3083,
      "Ġlegisl": 3084,
      "Ġpublished": 3085,
      "Ġestabl": 3086,
      "Ġoil": 3087,
      "Ġweap": 3088,
      "chie": 3089,
      "Ġgoes": 3090,
      "Ġevents": 3091,
      "Ġoriginal": 3092,
      "US": 3093,
      "rect": 3094,
      "Ġaw": 3095,
      "ĠAugust": 3096,
      "Ġmother": 3097,
      "Ġsuff": 3098,
      "Ġbi": 3099,
      "uses": 3100,
      "Ġtext": 3101,
      "?âĢĿ": 3102,
      "rian": 3103,
      "ĠHill": 3104,
      "ĠPost": 3105,
      "ĠNovember": 3106,
      "ĠFirst": 3107,
      "Ġhuge": 3108,
      "Ġhot": 3109,
      "Ġteams": 3110,
      "Ġrecogn": 3111,
      "Ġthous": 3112,
      "icht": 3113,
      "inese": 3114,
      "Ġquickly": 3115,
      "oo": 3116,
      "ĠÑĤ": 3117,
      "Ġsimple": 3118,
      "Ġsubject": 3119,
      "Ġfelt": 3120,
      "bl": 3121,
      "ospital": 3122,
      "sp": 3123,
      "Ġcouple": 3124,
      "Ġcy": 3125,
      "Ġpull": 3126,
      "Ġvehic": 3127,
      "Ġfre": 3128,
      "urb": 3129,
      "Ġgave": 3130,
      "ĠTw": 3131,
      "Ġmedical": 3132,
      "ĠCons": 3133,
      "Ġmill": 3134,
      "ĠSatur": 3135,
      "Ġwhose": 3136,
      "Ġenjoy": 3137,
      "asc": 3138,
      "ĠSand": 3139,
      "Ġwants": 3140,
      "ĠSa": 3141,
      "Ġturned": 3142,
      "Ġboard": 3143,
      "Ġmatch": 3144,
      "Ġrace": 3145,
      "ological": 3146,
      "Ġmethod": 3147,
      "Ġreach": 3148,
      "Ġimmigr": 3149,
      "Ð¾Ð³": 3150,
      "imin": 3151,
      "ĠAfric": 3152,
      "Ġlink": 3153,
      "ki": 3154,
      "Ġprogress": 3155,
      "Ġgrowth": 3156,
      "Ġsi": 3157,
      "ka": 3158,
      "Ġclimate": 3159,
      "Ġloss": 3160,
      "men": 3161,
      "ãĤ¤": 3162,
      "Ġà¤": 3163,
      "Ġsepar": 3164,
      "Ġmorning": 3165,
      "Ġinn": 3166,
      "áº": 3167,
      "ĠOctober": 3168,
      "å®": 3169,
      "ĠMinister": 3170,
      "ech": 3171,
      "elligence": 3172,
      "mon": 3173,
      "ĠSaturday": 3174,
      "You": 3175,
      "Ġhop": 3176,
      "Ġheard": 3177,
      "Ġsafe": 3178,
      "Ġhor": 3179,
      "Ġhands": 3180,
      "Ġperfect": 3181,
      "å¤": 3182,
      "ĠChinese": 3183,
      "Ġnumbers": 3184,
      "Ġproduction": 3185,
      "ĠOf": 3186,
      "Ġprior": 3187,
      "no": 3188,
      "ĠBlack": 3189,
      "Ġliber": 3190,
      "Ġcareer": 3191,
      "Ġboy": 3192,
      "Ġlas": 3193,
      "hold": 3194,
      "ening": 3195,
      "Ġallowed": 3196,
      "ondon": 3197,
      "ĠThen": 3198,
      "ĠCounty": 3199,
      "Ġfast": 3200,
      "ĠCap": 3201,
      "come": 3202,
      "Ġcover": 3203,
      "Ð½Ð¾": 3204,
      "cember": 3205,
      "Ġcause": 3206,
      "ession": 3207,
      "ĠSw": 3208,
      "ales": 3209,
      "Ġgets": 3210,
      "aur": 3211,
      "avy": 3212,
      "Ġbuilt": 3213,
      "king": 3214,
      "Ġproducts": 3215,
      "ĠÏĦ": 3216,
      "Ġlower": 3217,
      "Ġfear": 3218,
      "ĠPolice": 3219,
      "Ð°ÑĤ": 3220,
      "ceed": 3221,
      "ĠBro": 3222,
      "ened": 3223,
      "Ġlooks": 3224,
      "ares": 3225,
      "Ġwide": 3226,
      "Ġrepe": 3227,
      "Ġprevious": 3228,
      "Ġspent": 3229,
      "Ġfeatures": 3230,
      "Ġdocument": 3231,
      "Ġsett": 3232,
      "Ġneigh": 3233,
      "ctions": 3234,
      "ĠMon": 3235,
      "ĠÐ±": 3236,
      "Ġcitiz": 3237,
      "çĶ": 3238,
      "ui": 3239,
      "ges": 3240,
      "ĠÐ·": 3241,
      "Ġuna": 3242,
      "inks": 3243,
      "face": 3244,
      "oring": 3245,
      "Ġsearch": 3246,
      "Ġstrugg": 3247,
      "Ġfell": 3248,
      "ĠCO": 3249,
      "Ġtried": 3250,
      "Ġbehav": 3251,
      "Ġbud": 3252,
      "ãģķ": 3253,
      "ully": 3254,
      "Ġhttps": 3255,
      "Ġattention": 3256,
      "ĠTur": 3257,
      "rast": 3258,
      "utions": 3259,
      "Ġjournal": 3260,
      "Ġengine": 3261,
      "Ġknew": 3262,
      "Ġconduct": 3263,
      "ishing": 3264,
      "yond": 3265,
      "Ġbrought": 3266,
      "ero": 3267,
      "ĠLet": 3268,
      "Ġsound": 3269,
      "ĠEU": 3270,
      "40": 3271,
      "Ġmention": 3272,
      "à¥": 3273,
      "ÐµÑĢ": 3274,
      "ĠGener": 3275,
      "Ġdemon": 3276,
      "Ġsexual": 3277,
      "ĠParty": 3278,
      "Ġvarious": 3279,
      "ando": 3280,
      "Ġrules": 3281,
      "ĠDecember": 3282,
      "ĠMor": 3283,
      "Ġspokes": 3284,
      "fort": 3285,
      "ification": 3286,
      "Ġindepend": 3287,
      "yl": 3288,
      "undred": 3289,
      "Ġcritic": 3290,
      "Ġesc": 3291,
      "ĠâĢ¦": 3292,
      "Ġeight": 3293,
      "ĠBec": 3294,
      "Ġtown": 3295,
      "ĠIslam": 3296,
      "ĠPark": 3297,
      "light": 3298,
      "Ã¼r": 3299,
      "Ġsens": 3300,
      "alled": 3301,
      "ĠLondon": 3302,
      "Ġparticular": 3303,
      "Ġincluded": 3304,
      "Ġmovement": 3305,
      "ĠBritish": 3306,
      "Ġprep": 3307,
      "Ġword": 3308,
      "ÐµÐ»": 3309,
      "ularly": 3310,
      "åħ": 3311,
      "Ġprevent": 3312,
      "Ġuser": 3313,
      "ibly": 3314,
      "Ġunc": 3315,
      "ements": 3316,
      "Ġfather": 3317,
      "ĠIS": 3318,
      "BI": 3319,
      "Ġlab": 3320,
      "Ãº": 3321,
      "Ġtraining": 3322,
      "arily": 3323,
      "Ġcris": 3324,
      "ĠFrom": 3325,
      "ĠAdd": 3326,
      "Ġincreasing": 3327,
      "Ġfair": 3328,
      "Ġsize": 3329,
      "Ġsn": 3330,
      "iant": 3331,
      "unk": 3332,
      "Ġforces": 3333,
      "anned": 3334,
      "Ġ2011": 3335,
      "Ġagre": 3336,
      "va": 3337,
      "Ġachie": 3338,
      "Ð¸ÑĤ": 3339,
      "ÑģÐº": 3340,
      "Ð½Ñĭ": 3341,
      "Ġmob": 3342,
      "omp": 3343,
      "berg": 3344,
      "urning": 3345,
      "ĠBit": 3346,
      "ĠSer": 3347,
      "Ġten": 3348,
      "ĠComp": 3349,
      "Ġsort": 3350,
      "oul": 3351,
      "Ġexperi": 3352,
      "Ġconvers": 3353,
      "Ġ27": 3354,
      "Ġopportunity": 3355,
      "Ġ197": 3356,
      "Ġchief": 3357,
      "Ġexam": 3358,
      "Ġaddition": 3359,
      "Ġdetails": 3360,
      "Ġmach": 3361,
      "bed": 3362,
      "If": 3363,
      "Ġtalking": 3364,
      "lection": 3365,
      "ruary": 3366,
      "sequ": 3367,
      "ĠOff": 3368,
      ");": 3369,
      "Ġcard": 3370,
      "Ġimplement": 3371,
      "ĠTex": 3372,
      "Ġviolence": 3373,
      "Ġdoll": 3374,
      "Ġment": 3375,
      "ledge": 3376,
      "Ġpopulation": 3377,
      "Ġparents": 3378,
      "Ġnom": 3379,
      "Ġsystems": 3380,
      "mp": 3381,
      "iers": 3382,
      "Ġhear": 3383,
      "ä»": 3384,
      "Ġremain": 3385,
      "estern": 3386,
      "Ġclaims": 3387,
      "ĠTimes": 3388,
      "Î»": 3389,
      "Ġmultiple": 3390,
      "Ġdespite": 3391,
      "Ġmessage": 3392,
      "Ġeffort": 3393,
      "Ġpen": 3394,
      "uz": 3395,
      "ĠCenter": 3396,
      "ĠRead": 3397,
      "ĠMichael": 3398,
      "set": 3399,
      "rency": 3400,
      "ĠSoc": 3401,
      "ibr": 3402,
      "ension": 3403,
      "ĠDan": 3404,
      "iminal": 3405,
      "Ġspeed": 3406,
      "hi": 3407,
      "ÅĤ": 3408,
      "pir": 3409,
      "Ġ26": 3410,
      "ĠHol": 3411,
      "ysis": 3412,
      "There": 3413,
      "Ġrequest": 3414,
      "ĠVer": 3415,
      "Ġextra": 3416,
      "Ġassist": 3417,
      "Ġcele": 3418,
      "Ġsaf": 3419,
      "lig": 3420,
      "ĠSim": 3421,
      "Ġinitial": 3422,
      "Ġog": 3423,
      "Ġlevels": 3424,
      "ining": 3425,
      "Ġult": 3426,
      "ãĥĪ": 3427,
      "Ġsqu": 3428,
      "aly": 3429,
      "aries": 3430,
      "Ġban": 3431,
      "ĠReg": 3432,
      "Ġ...": 3433,
      "Ġpaper": 3434,
      "Ġalleged": 3435,
      "Ġquality": 3436,
      "Ġcoach": 3437,
      "oor": 3438,
      "ĠÃ®": 3439,
      "Ġvoters": 3440,
      "Ġextreme": 3441,
      "Ġprec": 3442,
      "ĠFebruary": 3443,
      "ĠCoun": 3444,
      "room": 3445,
      "ĠMcC": 3446,
      "Ġpan": 3447,
      "Ġconserv": 3448,
      "imately": 3449,
      "oper": 3450,
      "atter": 3451,
      "Ġrange": 3452,
      "Ġregion": 3453,
      "Ġ28": 3454,
      "Ġhistor": 3455,
      "inn": 3456,
      "Ġfa": 3457,
      "vey": 3458,
      "eth": 3459,
      "orge": 3460,
      "Ġserious": 3461,
      "ĠOur": 3462,
      "ube": 3463,
      "Ġseven": 3464,
      "ĠIndian": 3465,
      "ios": 3466,
      "Ġefforts": 3467,
      "Ġreb": 3468,
      "ĠStreet": 3469,
      "ĠRepublicans": 3470,
      "Ã¢": 3471,
      "Ġbiggest": 3472,
      "Ġadm": 3473,
      "ãģł": 3474,
      "Ġdisp": 3475,
      "99": 3476,
      "OP": 3477,
      "Ã¤n": 3478,
      "Ġrequired": 3479,
      "Ġresearc": 3480,
      "ĠLast": 3481,
      "Ġcross": 3482,
      "ÙĪ": 3483,
      "Ġmajority": 3484,
      "idered": 3485,
      "ĠServ": 3486,
      "ables": 3487,
      "isions": 3488,
      "Ġpurch": 3489,
      "Ġjobs": 3490,
      "Ġaf": 3491,
      "Ġcomments": 3492,
      "Ġcommunic": 3493,
      "ĠDis": 3494,
      "ĠRec": 3495,
      "Ġleading": 3496,
      "enge": 3497,
      "OT": 3498,
      "Ġsil": 3499,
      "Ġpaid": 3500,
      "ĠKing": 3501,
      "ĠApple": 3502,
      "ET": 3503,
      "ãģı": 3504,
      "idge": 3505,
      "Ġdraw": 3506,
      "ĠAD": 3507,
      "ĠDet": 3508,
      "ĠÅ": 3509,
      "Ġquarter": 3510,
      "ano": 3511,
      "apt": 3512,
      "Ġlaunch": 3513,
      "åı": 3514,
      "Ġ60": 3515,
      "lying": 3516,
      "hr": 3517,
      "Ġgas": 3518,
      "Îº": 3519,
      "Ġgrowing": 3520,
      "AM": 3521,
      "Ġahead": 3522,
      "duce": 3523,
      "Ġspeak": 3524,
      "itch": 3525,
      "ÑĢÐ¾": 3526,
      "Ġupon": 3527,
      "ĠVal": 3528,
      "Ġimag": 3529,
      "Ġlanguage": 3530,
      "--------": 3531,
      "Ġcrisis": 3532,
      "Ġsem": 3533,
      "Ġchalleng": 3534,
      "Ġmur": 3535,
      "Ġremains": 3536,
      "Ġanswer": 3537,
      "uing": 3538,
      "cle": 3539,
      "Ġcompletely": 3540,
      "ĠdÃ©": 3541,
      "Ġrecomm": 3542,
      "Ġattacks": 3543,
      "Ġaren": 3544,
      "ĠPlay": 3545,
      "ss": 3546,
      "ido": 3547,
      "Ġscreen": 3548,
      "Ġbox": 3549,
      "Ġ2010": 3550,
      "Ġ198": 3551,
      "ante": 3552,
      "ĠWhy": 3553,
      "Ġcontinued": 3554,
      "Ġfix": 3555,
      "Ġdoub": 3556,
      "ĠJames": 3557,
      "Ġcarry": 3558,
      "Ġready": 3559,
      "Ġfamil": 3560,
      "Ġgiving": 3561,
      "Ġobv": 3562,
      "Ġfile": 3563,
      "Ġstar": 3564,
      "Ġprovided": 3565,
      "Ġstories": 3566,
      "'d": 3567,
      "omen": 3568,
      "Ġrout": 3569,
      "Ġdanger": 3570,
      "ãģĹãģŁ": 3571,
      "ground": 3572,
      "Ġhundred": 3573,
      "kt": 3574,
      "urt": 3575,
      "Ġstarting": 3576,
      "Ġconsidered": 3577,
      "ĠRom": 3578,
      "Ġsafety": 3579,
      "reedom": 3580,
      "Ġparticularly": 3581,
      "Ġlooked": 3582,
      "EO": 3583,
      "AP": 3584,
      "Ġspread": 3585,
      "Ġhous": 3586,
      "Ġexactly": 3587,
      "enced": 3588,
      "ĠMart": 3589,
      "orney": 3590,
      "Ġterm": 3591,
      "Ġitem": 3592,
      "ĠOver": 3593,
      "ĠUp": 3594,
      "Ã±": 3595,
      "Ġnatural": 3596,
      "ĠEvery": 3597,
      "Ġagency": 3598,
      "ici": 3599,
      "Ġbott": 3600,
      "ports": 3601,
      "Ġshowed": 3602,
      "Ġpath": 3603,
      "åĪ": 3604,
      "Ġlay": 3605,
      "Ġdog": 3606,
      "sych": 3607,
      "Ġones": 3608,
      "ĠOther": 3609,
      "Ġadditional": 3610,
      "ram": 3611,
      "Ġvan": 3612,
      "Ġofficers": 3613,
      "Ġsurv": 3614,
      "Î¯": 3615,
      "Ġtowards": 3616,
      "zen": 3617,
      "illed": 3618,
      "Ġdefense": 3619,
      "Ġx": 3620,
      "ĠJew": 3621,
      "ĠSince": 3622,
      "anced": 3623,
      "ĠRober": 3624,
      "Ġexch": 3625,
      "Ġcosts": 3626,
      "Ġsong": 3627,
      "Ġdied": 3628,
      "Ġsociety": 3629,
      "ĠMost": 3630,
      "Ġincludes": 3631,
      "Ġfirm": 3632,
      "Â»": 3633,
      "Ġtable": 3634,
      "Ã¤r": 3635,
      "Ġpour": 3636,
      "inary": 3637,
      "Ġinteresting": 3638,
      "Ġprison": 3639,
      "uclear": 3640,
      "ona": 3641,
      "24": 3642,
      "ĠAir": 3643,
      "200": 3644,
      "iles": 3645,
      "ĠBo": 3646,
      "ously": 3647,
      "ĠÑ": 3648,
      "Ġprem": 3649,
      "Ġround": 3650,
      "Ġcalls": 3651,
      "Ġfinally": 3652,
      "Ġconditions": 3653,
      "Ġautom": 3654,
      "Ġimmediately": 3655,
      "ĠAut": 3656,
      "net": 3657,
      "ĠLeague": 3658,
      "Ġdire": 3659,
      "vin": 3660,
      "ĠEast": 3661,
      "Ġpositive": 3662,
      "Ġclean": 3663,
      "irmed": 3664,
      "ĠSpe": 3665,
      "Ġparts": 3666,
      "Ð°Ð½": 3667,
      "iden": 3668,
      "Ġchanged": 3669,
      "Ġdamage": 3670,
      "ä½": 3671,
      "Øª": 3672,
      "Ġthousands": 3673,
      "ĠMuslim": 3674,
      "Ġdate": 3675,
      "je": 3676,
      "Ġearn": 3677,
      "Ġstore": 3678,
      "Ġcertainly": 3679,
      "Ġsummer": 3680,
      "Ġmodern": 3681,
      "itness": 3682,
      "using": 3683,
      "reng": 3684,
      "Ġcas": 3685,
      "Ġborder": 3686,
      "ĠTexas": 3687,
      "Ġpractice": 3688,
      "Ġdas": 3689,
      "Ġdirectly": 3690,
      "aves": 3691,
      "Ġpurp": 3692,
      "fl": 3693,
      "Ġgrand": 3694,
      "Ġplus": 3695,
      "cul": 3696,
      "astic": 3697,
      "Î¼": 3698,
      "ĠIra": 3699,
      "Ġprinc": 3700,
      "Ġtro": 3701,
      "Ġstudent": 3702,
      "Ġmovie": 3703,
      "ĠAP": 3704,
      "Ġexcept": 3705,
      "Ġletter": 3706,
      "Ġaim": 3707,
      "ãĤĵ": 3708,
      "ĠBer": 3709,
      "ario": 3710,
      "ju": 3711,
      "Ġwritten": 3712,
      "rief": 3713,
      "Ġune": 3714,
      "ĠJack": 3715,
      "gu": 3716,
      "Ġopin": 3717,
      "ĠDay": 3718,
      "Ġcamer": 3719,
      "ãģį": 3720,
      "aint": 3721,
      "hest": 3722,
      "Ġblood": 3723,
      "ING": 3724,
      "ÃŃa": 3725,
      "ĠMany": 3726,
      "Ġbeyond": 3727,
      "icks": 3728,
      "Ġsom": 3729,
      "ya": 3730,
      "22": 3731,
      "hib": 3732,
      "ago": 3733,
      "Ã¶r": 3734,
      "Ġdescribed": 3735,
      "ĠÑĩ": 3736,
      "anch": 3737,
      "Ġmiddle": 3738,
      "Ġstuff": 3739,
      "Ġthinking": 3740,
      "Ġpressure": 3741,
      "Ġ×": 3742,
      "Ġincreased": 3743,
      "Ġunf": 3744,
      "EC": 3745,
      "ãģĤ": 3746,
      "itute": 3747,
      "ĠÐ½Ðµ": 3748,
      "Ġwouldn": 3749,
      "icted": 3750,
      "Ġeducation": 3751,
      "ĠÃ®n": 3752,
      "ĠHealth": 3753,
      "ĠCr": 3754,
      "part": 3755,
      "airs": 3756,
      "Ġtrust": 3757,
      "irus": 3758,
      "Ġ29": 3759,
      "Ġsoftware": 3760,
      "mar": 3761,
      "Ġminister": 3762,
      "imum": 3763,
      "Ġcustomers": 3764,
      "field": 3765,
      "ĠAngel": 3766,
      "Ġalone": 3767,
      "Ġguy": 3768,
      "ados": 3769,
      "Ġpropos": 3770,
      "Ġstra": 3771,
      "EL": 3772,
      "ĠMac": 3773,
      "aciÃ³n": 3774,
      "Ġ>": 3775,
      "Ġkids": 3776,
      "cript": 3777,
      "Ġreality": 3778,
      "Ġsusp": 3779,
      "Ġsmart": 3780,
      "Ġthroughout": 3781,
      "Ġspeech": 3782,
      "Ġsle": 3783,
      "ĠEr": 3784,
      "Ġcouldn": 3785,
      "ĠIraq": 3786,
      "FL": 3787,
      "Ġroll": 3788,
      "ura": 3789,
      "Ġlaun": 3790,
      "agon": 3791,
      "Ð»Ð¸": 3792,
      "arent": 3793,
      "arning": 3794,
      "Ġcomplex": 3795,
      "Ġhospital": 3796,
      "Ġscience": 3797,
      "Ġproperty": 3798,
      "Ġchoice": 3799,
      "Ġsched": 3800,
      "ĠMod": 3801,
      "Ġilleg": 3802,
      "Ġdat": 3803,
      "åĲ": 3804,
      "round": 3805,
      "ĠAssoci": 3806,
      "Ġcontinues": 3807,
      "Ġstage": 3808,
      "Ġgone": 3809,
      "Ġau": 3810,
      "ĠWell": 3811,
      "Ġculture": 3812,
      "encies": 3813,
      "Ġscene": 3814,
      "ĠLike": 3815,
      "arian": 3816,
      "Ġdise": 3817,
      "ga": 3818,
      "Ġenfor": 3819,
      "Ġmit": 3820,
      "Ġconference": 3821,
      "Ġselect": 3822,
      "Ġu": 3823,
      "icated": 3824,
      "Ġpus": 3825,
      "ĠMex": 3826,
      "ĠAlex": 3827,
      "Ġwall": 3828,
      "iders": 3829,
      "Ġwriting": 3830,
      "Ġconsist": 3831,
      "Ġcenter": 3832,
      "Ġreceive": 3833,
      "Ġsometimes": 3834,
      "ja": 3835,
      "ĠTod": 3836,
      "Ġrob": 3837,
      "ĠInt": 3838,
      "olute": 3839,
      "aches": 3840,
      "Ġofficer": 3841,
      "rench": 3842,
      "adem": 3843,
      "ita": 3844,
      "Ð°Ðº": 3845,
      "Ġproduc": 3846,
      "Ġsuspect": 3847,
      "Ġbal": 3848,
      "Ġfamilies": 3849,
      "ĠGovern": 3850,
      "acc": 3851,
      "Ġdebate": 3852,
      "ĠTor": 3853,
      "ĠGreen": 3854,
      "Ġcapt": 3855,
      "Ġqual": 3856,
      "Ġcast": 3857,
      "Ġcelebr": 3858,
      "Ġtouch": 3859,
      "ĠRich": 3860,
      "Ġtoward": 3861,
      "ford": 3862,
      "just": 3863,
      "Ġfailed": 3864,
      "erve": 3865,
      "Ġcentral": 3866,
      "Ġremember": 3867,
      "Ġpoor": 3868,
      "Ġmoving": 3869,
      "Ġcounter": 3870,
      "rences": 3871,
      "wise": 3872,
      "Ġanaly": 3873,
      "ĠAustralia": 3874,
      "Ġprojects": 3875,
      "Ġsenior": 3876,
      "....": 3877,
      "Ġpresidential": 3878,
      "Ġencour": 3879,
      "Ġcorpor": 3880,
      "Ġcitizens": 3881,
      "Ġcandidate": 3882,
      "Ġcontribut": 3883,
      "Ġdeg": 3884,
      "Ġhelped": 3885,
      "Ġstandard": 3886,
      "Ġpassed": 3887,
      "ression": 3888,
      "Ġcat": 3889,
      "Ġfigure": 3890,
      "Ġsch": 3891,
      "pre": 3892,
      "Ġdesigned": 3893,
      "Ġpark": 3894,
      "ĠTrans": 3895,
      "ĠGeneral": 3896,
      "Ø¯": 3897,
      "ĠPeople": 3898,
      "ãĥĥ": 3899,
      "Ġorganiz": 3900,
      "rol": 3901,
      "Ġrefer": 3902,
      "Ġhappy": 3903,
      "Ġwrite": 3904,
      "Ġcopy": 3905,
      "Ġdrive": 3906,
      "ĠDef": 3907,
      "ĠMad": 3908,
      "chain": 3909,
      "Ġexecutive": 3910,
      "ufact": 3911,
      "Ġsubst": 3912,
      "Ġperhaps": 3913,
      "ĠÑĥ": 3914,
      "Ġoccur": 3915,
      "Ġestim": 3916,
      "Ġwife": 3917,
      "ester": 3918,
      "text": 3919,
      "AD": 3920,
      "Ġreasons": 3921,
      "aling": 3922,
      "Ġlik": 3923,
      "Ġfootball": 3924,
      "Ġorganization": 3925,
      "ador": 3926,
      "Ġemb": 3927,
      "ughter": 3928,
      "Ġdisapp": 3929,
      "Ġnature": 3930,
      "EM": 3931,
      "Ð¾Ð¹": 3932,
      "venue": 3933,
      "ĠHigh": 3934,
      "Ġfeature": 3935,
      "Ġnamed": 3936,
      "secut": 3937,
      "ĠOp": 3938,
      "Ġnecessary": 3939,
      "ivity": 3940,
      "Ġallows": 3941,
      "Ġod": 3942,
      "Ġtour": 3943,
      "ampions": 3944,
      "Ġign": 3945,
      "Ġrap": 3946,
      "oti": 3947,
      "atever": 3948,
      "Ġdemonstr": 3949,
      "onav": 3950,
      "IL": 3951,
      "Ġconcept": 3952,
      "ĠBill": 3953,
      "Ġblog": 3954,
      "Ġweb": 3955,
      "Ġir": 3956,
      "Ġlargest": 3957,
      "uty": 3958,
      "Ġintegr": 3959,
      "Ġcredit": 3960,
      "Ġmeaning": 3961,
      "Ġdoor": 3962,
      "They": 3963,
      "Ġensure": 3964,
      "Ġpolitics": 3965,
      "Ġarch": 3966,
      "Ġcrow": 3967,
      "Ġsend": 3968,
      "Ġeffects": 3969,
      "Ġpiece": 3970,
      "Ġpowerful": 3971,
      "Ġoption": 3972,
      "wood": 3973,
      "Ġperm": 3974,
      "Ġlic": 3975,
      "ĠPre": 3976,
      "Ġcompared": 3977,
      "ĠFlor": 3978,
      "Ġnote": 3979,
      "ĠDel": 3980,
      "Ġactions": 3981,
      "Ġpreviously": 3982,
      "Ġpatients": 3983,
      "ĠMet": 3984,
      "Ġepis": 3985,
      "Ġbattle": 3986,
      "Ġdecades": 3987,
      "Ġdark": 3988,
      "ilit": 3989,
      "ston": 3990,
      "term": 3991,
      "Ġconfirmed": 3992,
      "Ġpas": 3993,
      "Ġguys": 3994,
      "orks": 3995,
      "Ġant": 3996,
      "Ġmaybe": 3997,
      "ipp": 3998,
      "ota": 3999,
      "Ġappears": 4000,
      "ander": 4001,
      "ĠSuper": 4002,
      "Ġcriminal": 4003,
      "Ġbur": 4004,
      "Ġdin": 4005,
      "Ġshut": 4006,
      "Ġpod": 4007,
      "ustr": 4008,
      "ĠFranc": 4009,
      "Ġwonder": 4010,
      "Ġord": 4011,
      "rav": 4012,
      "Ġpun": 4013,
      "ÏĮ": 4014,
      "ĠInternational": 4015,
      "ĠSyria": 4016,
      "Ġtweet": 4017,
      "ih": 4018,
      "Ġlimited": 4019,
      "ĠStar": 4020,
      "Ġunique": 4021,
      "Ġemployees": 4022,
      "Ġvari": 4023,
      "Ġmer": 4024,
      "hol": 4025,
      "ãĥ«": 4026,
      "æĹ": 4027,
      "Ġincident": 4028,
      "Ġmoved": 4029,
      "Ġsales": 4030,
      "Ġdetail": 4031,
      "ager": 4032,
      "Ġfal": 4033,
      "irth": 4034,
      "Ġeyes": 4035,
      "ĠÄ": 4036,
      "Ġmeant": 4037,
      "Ġoptions": 4038,
      "Ġavoid": 4039,
      "ava": 4040,
      "Ġdigital": 4041,
      "Ġusually": 4042,
      "Ġcrime": 4043,
      "ĠpÃ¥": 4044,
      "ĠMal": 4045,
      "Ġeasily": 4046,
      "roy": 4047,
      "Ġtreatment": 4048,
      "chan": 4049,
      "Ġrelated": 4050,
      "ĠYour": 4051,
      "Ġstreng": 4052,
      "Ġbeginning": 4053,
      "box": 4054,
      "orter": 4055,
      "Ġschools": 4056,
      "more": 4057,
      "Ġconcerns": 4058,
      "Ġom": 4059,
      "Ġgives": 4060,
      "Ġbenefits": 4061,
      "azon": 4062,
      "Ġcorrect": 4063,
      "Ġresources": 4064,
      "band": 4065,
      "Ġrock": 4066,
      "iring": 4067,
      "Ġforced": 4068,
      "Ġadding": 4069,
      "Ġanalysis": 4070,
      "IA": 4071,
      "Ġbudget": 4072,
      "Ġrelative": 4073,
      "ĠCanad": 4074,
      "Ġauthorities": 4075,
      "Ġnuclear": 4076,
      "Ġoverall": 4077,
      "ĠAlso": 4078,
      "ĠUnion": 4079,
      "Ġaltern": 4080,
      "Ġmyself": 4081,
      "Ġbeaut": 4082,
      "Ġlif": 4083,
      "Ġyourself": 4084,
      "Ġdevice": 4085,
      "Ġuns": 4086,
      "Ġsto": 4087,
      "Ġspending": 4088,
      "onavirus": 4089,
      "ãĤ¢": 4090,
      "ocked": 4091,
      "aming": 4092,
      "Ã¡s": 4093,
      "Ġalthough": 4094,
      "ĠJer": 4095,
      "iance": 4096,
      "ĠBen": 4097,
      "wide": 4098,
      "ĠAtt": 4099,
      "Ġdifference": 4100,
      "Ġintelligence": 4101,
      "Ġchallenge": 4102,
      "Ġpros": 4103,
      "Ø©": 4104,
      "Ġbeg": 4105,
      "vere": 4106,
      "Ġessential": 4107,
      "ista": 4108,
      "Ġleague": 4109,
      "rs": 4110,
      "Ġdetermin": 4111,
      "ii": 4112,
      "resh": 4113,
      "Ġcharge": 4114,
      "ĠRob": 4115,
      "Ġspot": 4116,
      "lease": 4117,
      "Ġfeed": 4118,
      "mark": 4119,
      "ãĤĪ": 4120,
      "Ġexpand": 4121,
      "ĠStud": 4122,
      "irt": 4123,
      "23": 4124,
      "Ġbrain": 4125,
      "ategy": 4126,
      "Ġindividuals": 4127,
      "ĠBitcoin": 4128,
      "Ġfully": 4129,
      "Ġseg": 4130,
      "ĠMid": 4131,
      "ĠâĢ¢": 4132,
      "yan": 4133,
      "Ġcu": 4134,
      "Ġnoted": 4135,
      "ĠBecause": 4136,
      "Ġdisplay": 4137,
      "lish": 4138,
      "ĠSchool": 4139,
      "Ġfollowed": 4140,
      "ĠCouncil": 4141,
      "Ġsigned": 4142,
      "Ã¦": 4143,
      "dom": 4144,
      "itely": 4145,
      "Ġgrad": 4146,
      "Ġsan": 4147,
      "ĠLos": 4148,
      "while": 4149,
      "Ġthrow": 4150,
      "Ġresearchers": 4151,
      "ĠDie": 4152,
      "Ġdistrict": 4153,
      "Ġphysical": 4154,
      "ĠÐ³": 4155,
      "Ġcalling": 4156,
      "verse": 4157,
      "Ġprimary": 4158,
      "ĠFrance": 4159,
      "Ġcollege": 4160,
      "sey": 4161,
      "ĠLab": 4162,
      "ĠBel": 4163,
      "Ġpeace": 4164,
      "Ġang": 4165,
      "ressed": 4166,
      "ocks": 4167,
      "Ġcharges": 4168,
      "istry": 4169,
      "ĠSanders": 4170,
      "Ġnormal": 4171,
      "ĠMag": 4172,
      "vest": 4173,
      "Ġ2008": 4174,
      "Ġsave": 4175,
      "ker": 4176,
      "ĠUk": 4177,
      "enty": 4178,
      "ĠPort": 4179,
      "Ġtitle": 4180,
      "Ġrestr": 4181,
      "ÈĽ": 4182,
      "roid": 4183,
      "board": 4184,
      "Ġtruth": 4185,
      "icit": 4186,
      "ĠSecret": 4187,
      "Ġcool": 4188,
      "ias": 4189,
      "Ġfunding": 4190,
      "æĸ": 4191,
      "?\"": 4192,
      "Ġmix": 4193,
      "Ġpolicies": 4194,
      "Ġpromot": 4195,
      "oom": 4196,
      "urance": 4197,
      "bon": 4198,
      "ags": 4199,
      "ev": 4200,
      "ĠArab": 4201,
      "Ġdraft": 4202,
      "Î¿Ïħ": 4203,
      "Ġshown": 4204,
      "Ġincome": 4205,
      "Ġapplication": 4206,
      "Ġagreement": 4207,
      "ãĥª": 4208,
      "Ġrates": 4209,
      "Ch": 4210,
      "Ġadvant": 4211,
      "Ġqui": 4212,
      "Ġrise": 4213,
      "kn": 4214,
      "Ġconflic": 4215,
      "Ġwarn": 4216,
      "Ġstream": 4217,
      "Ġreached": 4218,
      "ĠJustice": 4219,
      "Ġlawy": 4220,
      "Ph": 4221,
      "Ġmanufact": 4222,
      "Ùĩ": 4223,
      "ĠSam": 4224,
      "Ġclaimed": 4225,
      "ĠTwo": 4226,
      "oses": 4227,
      "onents": 4228,
      "):": 4229,
      "ella": 4230,
      "ãĤ¯": 4231,
      "ĠMatt": 4232,
      "Ġhat": 4233,
      "ĠÂ£": 4234,
      "ville": 4235,
      "Ġhighly": 4236,
      "ĠFlorida": 4237,
      "ĠII": 4238,
      "Ġshooting": 4239,
      "Ġrule": 4240,
      "ĠAnother": 4241,
      "iny": 4242,
      "onent": 4243,
      "Ġappeared": 4244,
      "ua": 4245,
      "Ġplant": 4246,
      "Ġuses": 4247,
      "Ġzu": 4248,
      "Ġprotest": 4249,
      "ĠAlthough": 4250,
      "Ġmist": 4251,
      "ĠHam": 4252,
      "udi": 4253,
      "ãĥ©": 4254,
      "ĠTer": 4255,
      "ĠTHE": 4256,
      "Ġstraight": 4257,
      "ĠWind": 4258,
      "Ġideas": 4259,
      "21": 4260,
      "Ġmanager": 4261,
      "Ġnice": 4262,
      ".âĢĻ": 4263,
      "lt": 4264,
      "ĠOh": 4265,
      "ĠGold": 4266,
      "Ġknowledge": 4267,
      "Ġplaces": 4268,
      "Ġminor": 4269,
      "Ġsources": 4270,
      "Ġflow": 4271,
      "ãģĻãĤĭ": 4272,
      "ala": 4273,
      "ĠFrench": 4274,
      "Ġhttp": 4275,
      "Ġgoals": 4276,
      "ĠKorea": 4277,
      "åĽ": 4278,
      "ront": 4279,
      "ĠJohnson": 4280,
      "Ġeventually": 4281,
      "Ġarm": 4282,
      "Ġowners": 4283,
      "duction": 4284,
      "ĠLaw": 4285,
      "Ġcomputer": 4286,
      "ĠSmith": 4287,
      "ifying": 4288,
      "45": 4289,
      "ĠTom": 4290,
      "Ġbed": 4291,
      "ĠImage": 4292,
      "www": 4293,
      "Ġpet": 4294,
      "Ġtrou": 4295,
      "ĠCommittee": 4296,
      "Ġorigin": 4297,
      "ione": 4298,
      "Ġband": 4299,
      "Ġfrequ": 4300,
      "Ġcharacters": 4301,
      "Ġscen": 4302,
      "ĠÐ¿Ð¾": 4303,
      "iled": 4304,
      "Ġstatus": 4305,
      "Ġweekend": 4306,
      "Ġresidents": 4307,
      "éĸ": 4308,
      "ĠScott": 4309,
      "ĠInc": 4310,
      "ĠBrown": 4311,
      "Ġweapons": 4312,
      "Ġamb": 4313,
      "Ġpush": 4314,
      "Ġreform": 4315,
      "ÑģÑı": 4316,
      "ãģĿ": 4317,
      "uman": 4318,
      "lick": 4319,
      "pri": 4320,
      "Ġliter": 4321,
      "Ġemot": 4322,
      "Ġcommit": 4323,
      "Ġspend": 4324,
      "Ġadop": 4325,
      "Ġpartners": 4326,
      "cher": 4327,
      "ĠMo": 4328,
      "Ġaccused": 4329,
      "Ġprices": 4330,
      "Ġactual": 4331,
      "Ġenter": 4332,
      "Ġmeasure": 4333,
      "antly": 4334,
      "Ġ2009": 4335,
      "het": 4336,
      "Ð½Ð°": 4337,
      "ocr": 4338,
      "ãģ£ãģŁ": 4339,
      "Ġkept": 4340,
      "Ġcreating": 4341,
      "Ġvon": 4342,
      "Ġcolor": 4343,
      "Re": 4344,
      "Ġreading": 4345,
      "ancy": 4346,
      "Ġfine": 4347,
      "Ġvirt": 4348,
      "Ġpsych": 4349,
      "Ġraised": 4350,
      "ĠPri": 4351,
      "ĠFBI": 4352,
      "NN": 4353,
      "ula": 4354,
      "Ġclearly": 4355,
      "Ġattract": 4356,
      "sk": 4357,
      "Ġbrand": 4358,
      "Î¬": 4359,
      "Ġparties": 4360,
      "OU": 4361,
      "ĠâĢŀ": 4362,
      "35": 4363,
      "Ġlines": 4364,
      "Ġpow": 4365,
      "ĠMa": 4366,
      "Ġregular": 4367,
      "ĠEarth": 4368,
      "Ġimpl": 4369,
      "Ġdeveloped": 4370,
      "ĠDuring": 4371,
      "Ġsuccessful": 4372,
      "Ġseeing": 4373,
      "Ġcities": 4374,
      "ĠGermany": 4375,
      "Ġbrief": 4376,
      "100": 4377,
      "raz": 4378,
      "Ġreflect": 4379,
      "Ġwel": 4380,
      "Ġinstall": 4381,
      "actions": 4382,
      "ĠEnglish": 4383,
      "ĠUkrain": 4384,
      "Ġinvestment": 4385,
      "Ġarrested": 4386,
      "Ġcaused": 4387,
      "Ġapparent": 4388,
      "Ġrevealed": 4389,
      "ĠEngland": 4390,
      "Ġacqu": 4391,
      "aks": 4392,
      "ito": 4393,
      "27": 4394,
      "inger": 4395,
      "Ġlimit": 4396,
      "earch": 4397,
      "OM": 4398,
      "ĠPet": 4399,
      "Ġfavorite": 4400,
      "Ġos": 4401,
      "ben": 4402,
      "Ġimages": 4403,
      "ils": 4404,
      "ĠBu": 4405,
      "Ġbooks": 4406,
      "Ġprovides": 4407,
      "Ġchoose": 4408,
      "ĠRel": 4409,
      "Ġ31": 4410,
      "Ġknows": 4411,
      "Ġfan": 4412,
      "Ġwilling": 4413,
      "ĠGeorge": 4414,
      "Ġshared": 4415,
      "ĠPhil": 4416,
      "Ġabsolute": 4417,
      "Ġvoice": 4418,
      "Ġsolution": 4419,
      "Ġended": 4420,
      "ÐµÐ½Ð¸": 4421,
      "cing": 4422,
      "Ġhaven": 4423,
      "Ġmassive": 4424,
      "500": 4425,
      "Ġcommer": 4426,
      "Ġstrategy": 4427,
      "Ġactivity": 4428,
      "ĠBay": 4429,
      "Ġrank": 4430,
      "Ġseemed": 4431,
      "ãģĳ": 4432,
      "Ġtend": 4433,
      "acing": 4434,
      "Ġleaving": 4435,
      "Ġlarger": 4436,
      "Ġnegoti": 4437,
      "ĠFollow": 4438,
      "Ġrare": 4439,
      "ĠAmazon": 4440,
      "da": 4441,
      "Ġfat": 4442,
      "Ġassault": 4443,
      "Ġprograms": 4444,
      "ĠCommission": 4445,
      "iced": 4446,
      "ipe": 4447,
      "Ġcomo": 4448,
      "gg": 4449,
      "Ġist": 4450,
      "Ġinternet": 4451,
      "isation": 4452,
      "Ġgreater": 4453,
      "chen": 4454,
      "lo": 4455,
      "Ġspir": 4456,
      "ãģ®å": 4457,
      "GB": 4458,
      "Ġmillions": 4459,
      "ĠChristian": 4460,
      "Ġreligious": 4461,
      "ĠMike": 4462,
      "Ġur": 4463,
      "ati": 4464,
      "Ġmanagement": 4465,
      "Ġhappens": 4466,
      "po": 4467,
      "Ġfeet": 4468,
      "But": 4469,
      "dered": 4470,
      "As": 4471,
      "Ġcritical": 4472,
      "PS": 4473,
      "Ġposted": 4474,
      "Ġhour": 4475,
      "ĠJud": 4476,
      "aby": 4477,
      "Ġ80": 4478,
      "Ġoperations": 4479,
      "26": 4480,
      "add": 4481,
      "ola": 4482,
      "Ġlearning": 4483,
      "ĠSal": 4484,
      "Ġdans": 4485,
      "ĠTy": 4486,
      "Ġjump": 4487,
      "ĠDirect": 4488,
      "met": 4489,
      "Ġbrother": 4490,
      "ho": 4491,
      "ĠUs": 4492,
      "Ġwat": 4493,
      "Ġfol": 4494,
      "Ġswe": 4495,
      "unic": 4496,
      "Ñī": 4497,
      "Ġfighting": 4498,
      "Ġemp": 4499,
      "Ġtrial": 4500,
      "ĠSub": 4501,
      "Ġbusinesses": 4502,
      "vo": 4503,
      "Ġcommunities": 4504,
      "ĠAre": 4505,
      "craft": 4506,
      "Ġoffered": 4507,
      "ĠOffice": 4508,
      "Ġgreen": 4509,
      "ENT": 4510,
      "Ġdaily": 4511,
      "Ġagree": 4512,
      "ribution": 4513,
      "Ġasking": 4514,
      "Ġdevices": 4515,
      "ĠSecurity": 4516,
      "Ġadult": 4517,
      "Ġtesting": 4518,
      "Ġbasic": 4519,
      "è¨": 4520,
      "Ġdefend": 4521,
      "coming": 4522,
      "ĠFox": 4523,
      "ĠOnce": 4524,
      "Ġjoin": 4525,
      "Ġbeat": 4526,
      "ĠPress": 4527,
      "Ġoffers": 4528,
      "ĠImages": 4529,
      "Ġtraditional": 4530,
      "Ġfreedom": 4531,
      "ige": 4532,
      "Ġetc": 4533,
      "Ġvill": 4534,
      "ette": 4535,
      "Ġtil": 4536,
      "hem": 4537,
      "ĠFe": 4538,
      "osing": 4539,
      "ÈĻ": 4540,
      "Ġwild": 4541,
      "è¦": 4542,
      "ĠÂ»": 4543,
      "witch": 4544,
      "Ġpolitic": 4545,
      "Ġhol": 4546,
      "mine": 4547,
      "ption": 4548,
      "Ġfeeling": 4549,
      "uters": 4550,
      "Ġsupposed": 4551,
      "Ġstation": 4552,
      "ĠAc": 4553,
      "Ġmission": 4554,
      "Ġvalues": 4555,
      "70": 4556,
      "azing": 4557,
      "Ġnames": 4558,
      "ictions": 4559,
      "Ġenem": 4560,
      "ĠFound": 4561,
      "ĠAM": 4562,
      "Ġcoronavirus": 4563,
      "And": 4564,
      "Ġsam": 4565,
      "Ġfemale": 4566,
      "Ġcandidates": 4567,
      "Ġfra": 4568,
      "Ġtick": 4569,
      "gency": 4570,
      "Ġhearing": 4571,
      "ĠInstead": 4572,
      "CC": 4573,
      "Ġshowing": 4574,
      "Ġmigr": 4575,
      "Ġadvoc": 4576,
      "Ġpicture": 4577,
      "see": 4578,
      "Ġrecords": 4579,
      "æĹ¥": 4580,
      "ĠYes": 4581,
      "ĠSupreme": 4582,
      "å¹": 4583,
      "cont": 4584,
      "Ġteac": 4585,
      "Ġbehavior": 4586,
      "Ġelectric": 4587,
      "ented": 4588,
      "Ġeye": 4589,
      "Ġopposition": 4590,
      "estic": 4591,
      "Ġentre": 4592,
      "Ġbenefit": 4593,
      "Ġindependent": 4594,
      "Ġ35": 4595,
      "Ġload": 4596,
      "Ġeffective": 4597,
      "ĠUnder": 4598,
      "Ġchair": 4599,
      "Ġsection": 4600,
      "ĠInter": 4601,
      "ength": 4602,
      "Ġhighest": 4603,
      "ĠBank": 4604,
      "bum": 4605,
      "Ġnu": 4606,
      "Ġdrop": 4607,
      "BS": 4608,
      "sen": 4609,
      "ĠOut": 4610,
      "ĠUN": 4611,
      "ãģ¦ãģĦãĤĭ": 4612,
      "Ð»Ð°": 4613,
      "ronic": 4614,
      "What": 4615,
      "Ġlose": 4616,
      "Ã©e": 4617,
      "Ġcrowd": 4618,
      "Ġneighbor": 4619,
      "ï¼ī": 4620,
      "ini": 4621,
      "ĠLeg": 4622,
      "Ġstyle": 4623,
      "That": 4624,
      "ĠBig": 4625,
      "anta": 4626,
      "usive": 4627,
      "igned": 4628,
      "igen": 4629,
      "ĠPak": 4630,
      "Ġmechan": 4631,
      "!!": 4632,
      "TC": 4633,
      "Ġeth": 4634,
      "äºº": 4635,
      "ĠDec": 4636,
      "Ġprint": 4637,
      "uer": 4638,
      "Ġlearned": 4639,
      "Ġcars": 4640,
      "ĠMicro": 4641,
      "ĠCEO": 4642,
      "ï¼Ī": 4643,
      "Ġillegal": 4644,
      "Ġ90": 4645,
      "Ð¾Ð³Ð¾": 4646,
      "Ġslight": 4647,
      "Ġphoto": 4648,
      "point": 4649,
      "Ġcentury": 4650,
      "onn": 4651,
      "28": 4652,
      "Ġera": 4653,
      "Ġdocuments": 4654,
      "Ġclosed": 4655,
      "Ġmostly": 4656,
      "ĠIN": 4657,
      "PA": 4658,
      "Ġwhatever": 4659,
      "tered": 4660,
      "rer": 4661,
      ".'": 4662,
      "ĠCup": 4663,
      "Ġjustice": 4664,
      "ĠLiber": 4665,
      "Ġopening": 4666,
      "Ġtemper": 4667,
      "Ġexchange": 4668,
      "Ġdollars": 4669,
      "eline": 4670,
      "90": 4671,
      "éĢ": 4672,
      "Ġruns": 4673,
      "unn": 4674,
      "ĠThose": 4675,
      "Ġvs": 4676,
      "Ġplease": 4677,
      "ĠFrancis": 4678,
      "ani": 4679,
      "Ġtransport": 4680,
      "Ġtrain": 4681,
      "Ġreduce": 4682,
      "itude": 4683,
      "BA": 4684,
      "Ġstudies": 4685,
      "Ġleadership": 4686,
      "Ġbirth": 4687,
      "Ġcondition": 4688,
      "Ġtypes": 4689,
      "ĠJoe": 4690,
      "Ġinfluence": 4691,
      "Ġlaunched": 4692,
      "going": 4693,
      "Ãµ": 4694,
      "inated": 4695,
      "ora": 4696,
      "Ġdetect": 4697,
      "Ġrestaur": 4698,
      "Ġexplained": 4699,
      "Ġhundreds": 4700,
      "rial": 4701,
      "Ġachieve": 4702,
      "Ġissued": 4703,
      "Ġauf": 4704,
      "ĠInternet": 4705,
      "soft": 4706,
      "Ġagreed": 4707,
      "====": 4708,
      "inter": 4709,
      "Ġ70": 4710,
      "Ġresponsible": 4711,
      "ÑĤÐ¸": 4712,
      "Ġobser": 4713,
      "ĠPrime": 4714,
      "Ġdream": 4715,
      "Ġinterested": 4716,
      "Ġdepartment": 4717,
      "ties": 4718,
      "ST": 4719,
      "Ġpictures": 4720,
      "Ġcoal": 4721,
      "Ġserve": 4722,
      "aked": 4723,
      "elling": 4724,
      "issions": 4725,
      "elle": 4726,
      "Ġdisease": 4727,
      "Ġbelieved": 4728,
      "Ġtransfer": 4729,
      "aren": 4730,
      "Ġbasis": 4731,
      "ĠRobert": 4732,
      "Ġvictims": 4733,
      "Ġcontroll": 4734,
      "ĠLou": 4735,
      "ĠAny": 4736,
      "illing": 4737,
      "rupt": 4738,
      "Ġweight": 4739,
      "Ġexisting": 4740,
      "Ġgold": 4741,
      "formation": 4742,
      "ĠPalest": 4743,
      "ĠMu": 4744,
      "Ġtim": 4745,
      "Äĩ": 4746,
      "icy": 4747,
      "acity": 4748,
      "Ġincred": 4749,
      "odes": 4750,
      "Ġsolid": 4751,
      "Ġworse": 4752,
      "Ġmobile": 4753,
      "ĠToday": 4754,
      "ctors": 4755,
      "ipped": 4756,
      "ÐµÐ¼": 4757,
      "Ġded": 4758,
      "Ġcommittee": 4759,
      "Ð¾Ð½": 4760,
      "è¡": 4761,
      "agn": 4762,
      "ÄĻ": 4763,
      "house": 4764,
      "ania": 4765,
      "ĠMer": 4766,
      "ĠChic": 4767,
      "rey": 4768,
      "Ġframe": 4769,
      "Ġharm": 4770,
      "Ġunderstanding": 4771,
      "ĠJo": 4772,
      "Ġmeasures": 4773,
      "OL": 4774,
      "eller": 4775,
      "ĠMP": 4776,
      "ĠPhoto": 4777,
      "Ġstre": 4778,
      "ãģĹãģ¦": 4779,
      "Ġvehicle": 4780,
      "ĠFore": 4781,
      "ĠQue": 4782,
      "Ġproduce": 4783,
      "Ġstreet": 4784,
      "ãģĵãģ¨": 4785,
      "ko": 4786,
      "Ġmount": 4787,
      "Ġdeliver": 4788,
      "Ġfit": 4789,
      "ãģªãģĦ": 4790,
      "Ġprofessional": 4791,
      "rig": 4792,
      "burg": 4793,
      "ĠVir": 4794,
      "vis": 4795,
      "rad": 4796,
      "Ġlegislation": 4797,
      "ĠWall": 4798,
      "ĠWil": 4799,
      "ĠSil": 4800,
      "orthern": 4801,
      "Ġonto": 4802,
      "Ġstrateg": 4803,
      "Ġma": 4804,
      "Ġwitness": 4805,
      "ira": 4806,
      "ĠEv": 4807,
      "ĠProf": 4808,
      "SA": 4809,
      "know": 4810,
      "iful": 4811,
      "ÑĢÑĥ": 4812,
      "!âĢĿ": 4813,
      "ĠBritain": 4814,
      "ima": 4815,
      "Ġrefe": 4816,
      "Ġadvantage": 4817,
      "Ġtelev": 4818,
      "Ġproposed": 4819,
      "ĠBoth": 4820,
      "Ġeasier": 4821,
      "Ġtools": 4822,
      "Ġcommercial": 4823,
      "ĠÙħ": 4824,
      "ĠCur": 4825,
      "Ġcash": 4826,
      "ords": 4827,
      "iliar": 4828,
      "Ġwhom": 4829,
      "Äħ": 4830,
      "Ġnotice": 4831,
      "Ġactive": 4832,
      "ĠStr": 4833,
      "makers": 4834,
      "annel": 4835,
      "umn": 4836,
      "Ġlocation": 4837,
      "Ġreject": 4838,
      "Ġstock": 4839,
      "Ġnicht": 4840,
      "ariju": 4841,
      "Ġopinion": 4842,
      "zer": 4843,
      "Ġcomfort": 4844,
      "Ġviews": 4845,
      "ĠST": 4846,
      "vant": 4847,
      "Ġbecoming": 4848,
      "Ġfalse": 4849,
      "Ġupdate": 4850,
      "ĠRa": 4851,
      "Ġmax": 4852,
      "arijuana": 4853,
      "Ġjudge": 4854,
      "semb": 4855,
      "29": 4856,
      "ĠChris": 4857,
      "Ġmachine": 4858,
      "Ġinfect": 4859,
      "Ġcontrovers": 4860,
      "Ġpattern": 4861,
      "Ġfo": 4862,
      "osh": 4863,
      "Ġkick": 4864,
      "ĠGreat": 4865,
      "ĠPakistan": 4866,
      "Ġresist": 4867,
      "ĠRE": 4868,
      "ingly": 4869,
      "iller": 4870,
      "outhern": 4871,
      "Ġiniti": 4872,
      "anda": 4873,
      "Ġfarm": 4874,
      "ĠSur": 4875,
      "arant": 4876,
      "stein": 4877,
      "Ġrat": 4878,
      "Ġopened": 4879,
      "33": 4880,
      "Ġ;": 4881,
      "ÃŁ": 4882,
      "Ġsleep": 4883,
      "ĠVe": 4884,
      "uries": 4885,
      "Ġdrink": 4886,
      "riage": 4887,
      "Ġspoke": 4888,
      "ĠChicago": 4889,
      "ĠGame": 4890,
      "works": 4891,
      "Ġsyn": 4892,
      "resp": 4893,
      "Ġcommand": 4894,
      "ali": 4895,
      "Ġdecade": 4896,
      "Ġlabor": 4897,
      "Ġheavy": 4898,
      "Ġprime": 4899,
      "Ġattend": 4900,
      "atically": 4901,
      "Ġmap": 4902,
      "how": 4903,
      "ĠÏĢ": 4904,
      "Ġcharged": 4905,
      "Ġcontain": 4906,
      "Ġnegative": 4907,
      "Ġcore": 4908,
      "Ġdefinitely": 4909,
      "Ġmiles": 4910,
      "ĠÐ·Ð°": 4911,
      "ĠDen": 4912,
      "Ġextremely": 4913,
      "Ġspl": 4914,
      "Ġhero": 4915,
      "Ġdouble": 4916,
      "Ġ196": 4917,
      "Ġcamera": 4918,
      "ĠAN": 4919,
      "Ġnine": 4920,
      "Ġconfirm": 4921,
      "Ġrepeated": 4922,
      "Ġchem": 4923,
      "Ġargument": 4924,
      "ĠJeff": 4925,
      "ĠDespite": 4926,
      "Ġdriver": 4927,
      "oms": 4928,
      "ĠInstitute": 4929,
      "Ġmemory": 4930,
      "Ġfresh": 4931,
      "Ġcann": 4932,
      "Ġimmigration": 4933,
      "Ġsites": 4934,
      "iro": 4935,
      "twitter": 4936,
      "ding": 4937,
      "ĠJones": 4938,
      "ĠSol": 4939,
      "Ġputting": 4940,
      "ÅŁ": 4941,
      "ĠSing": 4942,
      "Ġabuse": 4943,
      "Ġbecomes": 4944,
      "lands": 4945,
      "ĠCle": 4946,
      "Ġpurpose": 4947,
      "ĠConst": 4948,
      "ĠHillary": 4949,
      "Ġwealth": 4950,
      "Ġdism": 4951,
      "Ġcateg": 4952,
      "Ġdangerous": 4953,
      "Ġunlike": 4954,
      "ĠGroup": 4955,
      "Ġdefe": 4956,
      "ĠPM": 4957,
      "known": 4958,
      "Ġitems": 4959,
      "Ġscientists": 4960,
      "Ġafford": 4961,
      "ãģ®æ": 4962,
      "ortunately": 4963,
      "ĠAngeles": 4964,
      "Ġdebt": 4965,
      "ĠThom": 4966,
      "ef": 4967,
      "Ġmo": 4968,
      "Ġsupporters": 4969,
      "ĠWestern": 4970,
      "Ġfunds": 4971,
      "iling": 4972,
      "olf": 4973,
      "Ġdisco": 4974,
      "Ġproviding": 4975,
      "Ġexcl": 4976,
      "Ġmal": 4977,
      "Ġhousing": 4978,
      "Ġaudience": 4979,
      "ãģ©": 4980,
      "asy": 4981,
      "Ġactivities": 4982,
      "ĠCarol": 4983,
      "ĠTim": 4984,
      "Ã¡n": 4985,
      "ĠBern": 4986,
      "ĠRem": 4987,
      "era": 4988,
      "SP": 4989,
      "Ġworst": 4990,
      "asion": 4991,
      "Ġinstance": 4992,
      "ĠÐ°": 4993,
      "Ġpurs": 4994,
      "illa": 4995,
      "NA": 4996,
      "Ġassum": 4997,
      "person": 4998,
      "Ġhus": 4999,
      "ĠMexico": 5000,
      "Ġexerc": 5001,
      "Ð¾Ð±": 5002,
      "Ġwinning": 5003,
      "Ġcoverage": 5004,
      "ĠHall": 5005,
      "DA": 5006,
      "ghan": 5007,
      "but": 5008,
      "Ġaware": 5009,
      "Ġvictory": 5010,
      "Ïī": 5011,
      "ĠrÃ©": 5012,
      "Ġalbum": 5013,
      "Ġappl": 5014,
      "Ġrecommend": 5015,
      "orrow": 5016,
      "Ġserved": 5017,
      "ena": 5018,
      "kl": 5019,
      "Ġdecisions": 5020,
      "Ġhomes": 5021,
      "Ġship": 5022,
      "Ġtask": 5023,
      "ĠCanadian": 5024,
      "ÛĮ": 5025,
      "Ġcrypt": 5026,
      "ĠnÃ£o": 5027,
      "Ġseparate": 5028,
      "Ġtraffic": 5029,
      "icon": 5030,
      "ĠMur": 5031,
      "ĠPut": 5032,
      "Ġtelling": 5033,
      "Ð²Ð°": 5034,
      "Ġfloor": 5035,
      "well": 5036,
      "ĠTheir": 5037,
      "edy": 5038,
      "ĠNFL": 5039,
      "Ġequip": 5040,
      "RA": 5041,
      "Ġdriving": 5042,
      "vention": 5043,
      "Ġdaughter": 5044,
      "Ġsurround": 5045,
      "ãĤ¿": 5046,
      "Ġhack": 5047,
      "Ġran": 5048,
      "Ġsust": 5049,
      "Ġmale": 5050,
      "Ġplanning": 5051,
      "mo": 5052,
      "Ġsun": 5053,
      "Ġdirection": 5054,
      "Ġassociated": 5055,
      "Ġassess": 5056,
      "Ġconcerned": 5057,
      "FC": 5058,
      "ĠYet": 5059,
      "endo": 5060,
      "Ġsupply": 5061,
      "Ġvul": 5062,
      "Ġcompetition": 5063,
      "Ġelections": 5064,
      "ears": 5065,
      "ĠPC": 5066,
      "Ġexplain": 5067,
      "éģ": 5068,
      "Ġwatching": 5069,
      "Ġinstit": 5070,
      "Å¡": 5071,
      "ĠEs": 5072,
      "rim": 5073,
      "Ġdos": 5074,
      "ĠGood": 5075,
      "ÑĨÐ¸": 5076,
      "istics": 5077,
      "ĠWho": 5078,
      "Ġproduced": 5079,
      "Ġja": 5080,
      "Ġdownload": 5081,
      "ocol": 5082,
      "Ġannual": 5083,
      "Ġpartner": 5084,
      "anted": 5085,
      "Ġaspect": 5086,
      "Ġenforcement": 5087,
      "Ġice": 5088,
      "Ġsteps": 5089,
      "Ġmurder": 5090,
      "ĠBet": 5091,
      "Ġscore": 5092,
      "ĠBack": 5093,
      "Ġbottom": 5094,
      "Ġdoubt": 5095,
      "Ġconsequ": 5096,
      "Ġdestroy": 5097,
      "ribute": 5098,
      "onto": 5099,
      "ION": 5100,
      "Ġaccur": 5101,
      "ĠMiss": 5102,
      "Ġho": 5103,
      "Ġholding": 5104,
      "Ġkid": 5105,
      "Ġrequires": 5106,
      "eless": 5107,
      "Ġsuggested": 5108,
      "ĠÎ±": 5109,
      "Äį": 5110,
      "ela": 5111,
      "ĠIsraeli": 5112,
      "Ġnotes": 5113,
      "ĠJim": 5114,
      "Ġconservative": 5115,
      "Ġtruly": 5116,
      "ocracy": 5117,
      "ading": 5118,
      "Ġstructure": 5119,
      "Ġmedic": 5120,
      "Ġfinding": 5121,
      "ĠSecretary": 5122,
      "Ġuma": 5123,
      "aine": 5124,
      "vi": 5125,
      "itable": 5126,
      "Ġallowing": 5127,
      "ĠFrank": 5128,
      "Ãµes": 5129,
      "mas": 5130,
      "Ġfocused": 5131,
      "xit": 5132,
      "itation": 5133,
      "Ġtalks": 5134,
      "Ġphotos": 5135,
      "real": 5136,
      "lege": 5137,
      "gn": 5138,
      "AA": 5139,
      "kes": 5140,
      "Ġfaith": 5141,
      "Ġconversation": 5142,
      "aÃ§Ã£o": 5143,
      "ishment": 5144,
      "ĠTre": 5145,
      "ĠMO": 5146,
      "Ġbelieves": 5147,
      "Ġreturned": 5148,
      "ĠZe": 5149,
      "Ġcontext": 5150,
      "Ġconstruction": 5151,
      "iser": 5152,
      "ady": 5153,
      "rastructure": 5154,
      "urd": 5155,
      "Ġcommitted": 5156,
      "Ġwaiting": 5157,
      "Ġmissing": 5158,
      "ĠMont": 5159,
      "friend": 5160,
      "cho": 5161,
      "ĠFire": 5162,
      "ãģĪ": 5163,
      "ulf": 5164,
      "ĠAtl": 5165,
      "Ùĥ": 5166,
      "abis": 5167,
      "ĠPublic": 5168,
      "ĠEst": 5169,
      "Ġexperts": 5170,
      "ym": 5171,
      "Ġgeneration": 5172,
      "Ġfant": 5173,
      "ĠÙĪ": 5174,
      "CH": 5175,
      "VER": 5176,
      "izes": 5177,
      "Ġraise": 5178,
      "Ġfuel": 5179,
      "ĠÎº": 5180,
      "ãģ¾ãģĻ": 5181,
      "Ø¹": 5182,
      "ÐºÐ°": 5183,
      "Ġnor": 5184,
      "Ġcaught": 5185,
      "Ġunit": 5186,
      "ossible": 5187,
      "night": 5188,
      "Å£": 5189,
      "Ġanimals": 5190,
      "Ġcards": 5191,
      "kin": 5192,
      "olic": 5193,
      "Ġepisode": 5194,
      "Ġdrugs": 5195,
      "ãĥ»": 5196,
      "Ð¾ÑĢ": 5197,
      "Ġtheory": 5198,
      "Ġcompar": 5199,
      "Ġprotection": 5200,
      "Ġbul": 5201,
      "Ġremoved": 5202,
      "Ġscale": 5203,
      "Ġfle": 5204,
      "oman": 5205,
      "ãĤģ": 5206,
      "75": 5207,
      "lor": 5208,
      "Ġgenerally": 5209,
      "Ġrough": 5210,
      "lich": 5211,
      "Ġcommission": 5212,
      "Ġchurch": 5213,
      "Ġidentified": 5214,
      "FP": 5215,
      "ĠMil": 5216,
      "ĠGovernment": 5217,
      "andon": 5218,
      "ĠMicrosoft": 5219,
      "ĠÏĥ": 5220,
      "ĠPlease": 5221,
      "anging": 5222,
      "andom": 5223,
      "Ġmental": 5224,
      "Ġmarkets": 5225,
      "Ġhasn": 5226,
      "Ġconsult": 5227,
      "oyal": 5228,
      "agement": 5229,
      "Ġclick": 5230,
      "wing": 5231,
      "ĠSee": 5232,
      "Ġobs": 5233,
      "cia": 5234,
      "ĠIr": 5235,
      "Ġmentioned": 5236,
      "ĠTeam": 5237,
      "anche": 5238,
      "uration": 5239,
      "Ġteach": 5240,
      "ipl": 5241,
      "ups": 5242,
      "Ġmarijuana": 5243,
      "phone": 5244,
      "Ġspecies": 5245,
      "ĠTO": 5246,
      "Ġalt": 5247,
      "ĠStep": 5248,
      "Ġcook": 5249,
      "Ġfiled": 5250,
      "Ġentirely": 5251,
      "Ġamazing": 5252,
      "prof": 5253,
      "ĠAfrica": 5254,
      "osure": 5255,
      "Ġaccounts": 5256,
      "Ġolder": 5257,
      "Ġborn": 5258,
      "ÎŃ": 5259,
      "Ġattorney": 5260,
      "ĠSl": 5261,
      "ĠResearch": 5262,
      "ĠWindows": 5263,
      "Ġstrength": 5264,
      "Ġblockchain": 5265,
      "ĠGOP": 5266,
      "inct": 5267,
      "uts": 5268,
      "Ġthus": 5269,
      "Ġlargely": 5270,
      "Ġsmaller": 5271,
      "Ġdiscovered": 5272,
      "Ġnorth": 5273,
      "Ġfeels": 5274,
      "ãĤĦ": 5275,
      "ĠWatch": 5276,
      "ĠService": 5277,
      "Ġstrike": 5278,
      "________": 5279,
      "cks": 5280,
      "Ġ45": 5281,
      "ĠVirgin": 5282,
      "scrib": 5283,
      "enses": 5284,
      "Ġinterests": 5285,
      "Ġtrip": 5286,
      "pective": 5287,
      "hand": 5288,
      "Ġdepend": 5289,
      "Ġdeploy": 5290,
      "Ġanc": 5291,
      "Ġpresence": 5292,
      "Ġcatch": 5293,
      "ĠSocial": 5294,
      "Ġunivers": 5295,
      "ĠAssociation": 5296,
      "LE": 5297,
      "IM": 5298,
      "ampionship": 5299,
      "Ġidentity": 5300,
      "ulated": 5301,
      "Ġbelief": 5302,
      "Ã©n": 5303,
      "ĠDown": 5304,
      "ĠChief": 5305,
      "elled": 5306,
      "Ġapply": 5307,
      "Ġjoined": 5308,
      "uct": 5309,
      "iger": 5310,
      "ĠFederal": 5311,
      "eah": 5312,
      "Ġplays": 5313,
      "Ġvast": 5314,
      "ĠIslamic": 5315,
      "Ġkeeping": 5316,
      "Ġstated": 5317,
      "Ġsupported": 5318,
      "ĠArt": 5319,
      "eed": 5320,
      "antic": 5321,
      "Ġsector": 5322,
      "Ġsud": 5323,
      "Ġuseful": 5324,
      "Ġmut": 5325,
      "ĠCamp": 5326,
      "Ġrefuge": 5327,
      "ibrary": 5328,
      "Ġinsurance": 5329,
      "igan": 5330,
      "Ġseek": 5331,
      "Ġfiles": 5332,
      "ĠAndroid": 5333,
      "ĠBush": 5334,
      "Ġacknow": 5335,
      "ĠUSA": 5336,
      "itutional": 5337,
      "tained": 5338,
      "Ġ2007": 5339,
      "Ġmodels": 5340,
      "imb": 5341,
      "Ġbomb": 5342,
      "Ġappropri": 5343,
      "Ġhair": 5344,
      "Ġoperation": 5345,
      "isf": 5346,
      "Ġapplications": 5347,
      "36": 5348,
      "ĠMel": 5349,
      "Ġoptim": 5350,
      "uled": 5351,
      "Ġsports": 5352,
      "ente": 5353,
      "Ġconflict": 5354,
      "Ġgain": 5355,
      "Ġhappening": 5356,
      "44": 5357,
      "VID": 5358,
      "Ġcancer": 5359,
      "amente": 5360,
      "ĠPalestin": 5361,
      "Ġprefer": 5362,
      "Ġveter": 5363,
      "Ġmanaged": 5364,
      "Ġgirls": 5365,
      "Ġsetting": 5366,
      "Ð¼Ð¸": 5367,
      "Ġmas": 5368,
      "Ġeditor": 5369,
      "Ġskills": 5370,
      "ĠRyan": 5371,
      "ĠChar": 5372,
      "Ġtests": 5373,
      "Ġnovel": 5374,
      "Ġblue": 5375,
      "ĠAfrican": 5376,
      "ĠPhot": 5377,
      "Ġsurvey": 5378,
      "Ġhelping": 5379,
      "Ġstopped": 5380,
      "ĠÑį": 5381,
      "iest": 5382,
      "onom": 5383,
      "Ġpic": 5384,
      "ãģĭãĤī": 5385,
      "Ġvulner": 5386,
      "ially": 5387,
      "Ġemergency": 5388,
      "ĠJon": 5389,
      "Ġconnection": 5390,
      "olit": 5391,
      "alu": 5392,
      "Ġfamiliar": 5393,
      "Ġexperiment": 5394,
      "Ġinjury": 5395,
      "ĠRichard": 5396,
      "ulate": 5397,
      "ĠMos": 5398,
      "ĠAfghan": 5399,
      "Ġfigures": 5400,
      "\":": 5401,
      "ĠMean": 5402,
      "abb": 5403,
      "win": 5404,
      "Ġmicro": 5405,
      "gers": 5406,
      "Ġdecide": 5407,
      "ocur": 5408,
      "ĠOpen": 5409,
      "riz": 5410,
      "ĠCheck": 5411,
      "Ġprosecut": 5412,
      "ocal": 5413,
      "idad": 5414,
      "Ġsich": 5415,
      "Ġinnov": 5416,
      "Ġsho": 5417,
      "Ġseeking": 5418,
      "Ġguess": 5419,
      "Ġappre": 5420,
      "Ġ32": 5421,
      "Ġvideos": 5422,
      "æĢ": 5423,
      "Ġrid": 5424,
      "No": 5425,
      "Ġterrit": 5426,
      "Ġfourth": 5427,
      "Ġmais": 5428,
      "Ġsurface": 5429,
      "å¹´": 5430,
      "ader": 5431,
      "arks": 5432,
      "jo": 5433,
      "Ġwish": 5434,
      "Ġowner": 5435,
      "âĢĶâĢĶ": 5436,
      "ĠPeter": 5437,
      "ĠTime": 5438,
      "ĠCentral": 5439,
      "Ġplaced": 5440,
      "æ°": 5441,
      "ologies": 5442,
      "Ġvirus": 5443,
      "Ġspokesman": 5444,
      "Ġhate": 5445,
      "IP": 5446,
      "Ġtells": 5447,
      "ĠKim": 5448,
      "col": 5449,
      "Ġmere": 5450,
      "arp": 5451,
      "Ġtough": 5452,
      "ĠThomas": 5453,
      "Ġplanned": 5454,
      "ius": 5455,
      "When": 5456,
      "Ġing": 5457,
      "ĠJose": 5458,
      "Ġdevelopers": 5459,
      "inte": 5460,
      "Ġcanc": 5461,
      "Ġprofessor": 5462,
      "Ġhelps": 5463,
      "ĠShow": 5464,
      "ĠDistrict": 5465,
      "Ġarrived": 5466,
      "ĠfÃ¼r": 5467,
      "ĠRock": 5468,
      "ĠMartin": 5469,
      "aron": 5470,
      "Ġthanks": 5471,
      "ĠParis": 5472,
      "ĠRo": 5473,
      "lets": 5474,
      "Ġradio": 5475,
      "enda": 5476,
      "pper": 5477,
      "Ġexpert": 5478,
      "agues": 5479,
      "Ġstick": 5480,
      "stream": 5481,
      "Ġhusband": 5482,
      "Ġspeaking": 5483,
      "Ġconclud": 5484,
      "run": 5485,
      "Ø¨": 5486,
      "Ġinfrastructure": 5487,
      "Ġvotes": 5488,
      "èª": 5489,
      "Ġdiscussion": 5490,
      "ĠMs": 5491,
      "season": 5492,
      "Ġsecure": 5493,
      "38": 5494,
      "ortion": 5495,
      "Ġcapacity": 5496,
      "ynam": 5497,
      "which": 5498,
      "Ġoffensive": 5499,
      "Ġbackground": 5500,
      "care": 5501,
      "under": 5502,
      "ĠLat": 5503,
      "ĠChurch": 5504,
      "itz": 5505,
      "Ġaggress": 5506,
      "ÐµÐ¹": 5507,
      "Ġorganizations": 5508,
      "UT": 5509,
      "Ġsea": 5510,
      "Ġbes": 5511,
      "osen": 5512,
      "Ġenvironmental": 5513,
      "Ġtelevision": 5514,
      "Ġintroduced": 5515,
      "outs": 5516,
      "ĠSaudi": 5517,
      "Ġtack": 5518,
      "ĠBiden": 5519,
      "Ġcells": 5520,
      "rid": 5521,
      "ception": 5522,
      "Ġoccup": 5523,
      "Tr": 5524,
      "Ġeat": 5525,
      "32": 5526,
      "Ġgraph": 5527,
      "onym": 5528,
      "ĠSupp": 5529,
      "ĠTra": 5530,
      "Ġplanet": 5531,
      "Ġotherwise": 5532,
      "look": 5533,
      "Ġguard": 5534,
      "oted": 5535,
      "Ġbanks": 5536,
      "Ġincreasingly": 5537,
      "Tube": 5538,
      "ĠIl": 5539,
      "Ġregarding": 5540,
      "Ġstarts": 5541,
      "Ġbigger": 5542,
      "Ġlength": 5543,
      "Ġpair": 5544,
      "ãĤĴæ": 5545,
      "Ġbatter": 5546,
      "Ġgender": 5547,
      "Is": 5548,
      "atures": 5549,
      "ĠJournal": 5550,
      "Ġobvious": 5551,
      "ras": 5552,
      "Ġshares": 5553,
      "IG": 5554,
      "ãģ¤": 5555,
      "alls": 5556,
      "Ġboost": 5557,
      "ãĤ·": 5558,
      "48": 5559,
      "ĠBur": 5560,
      "Ġid": 5561,
      "Ġdomestic": 5562,
      "Ġmand": 5563,
      "Ã´": 5564,
      "ography": 5565,
      "ĠCommun": 5566,
      "Ġ500": 5567,
      "Ġsequ": 5568,
      "Ġunion": 5569,
      "ĠAndrew": 5570,
      "Ġalg": 5571,
      "Ġsides": 5572,
      "Ġcircum": 5573,
      "ĠGuard": 5574,
      "ĠBus": 5575,
      "Ġkilling": 5576,
      "Ġstruct": 5577,
      "Ġfundament": 5578,
      "bour": 5579,
      "ĠCNN": 5580,
      "equ": 5581,
      "ãĥ³ãĥ": 5582,
      "itors": 5583,
      "Ġpit": 5584,
      "ĠLabour": 5585,
      "Ġagencies": 5586,
      "Ġsouth": 5587,
      "Ġretail": 5588,
      "orage": 5589,
      "Ġbeautiful": 5590,
      "Ġserver": 5591,
      "Ùģ": 5592,
      "Ġcollection": 5593,
      "ĠØ¨": 5594,
      "Ġstandards": 5595,
      "ket": 5596,
      "Ġvehicles": 5597,
      "Ġmarriage": 5598,
      "Ġgar": 5599,
      "Ġspirit": 5600,
      "ĠLouis": 5601,
      "ucky": 5602,
      "37": 5603,
      "ĠJewish": 5604,
      "ĠÃ¥": 5605,
      "tre": 5606,
      "iot": 5607,
      "Ġtherefore": 5608,
      "ĠSign": 5609,
      "Ġoffering": 5610,
      "Ġì": 5611,
      "ĠÎµ": 5612,
      "Ġapart": 5613,
      "Ġchanging": 5614,
      "ipal": 5615,
      "odies": 5616,
      "Ġfinished": 5617,
      "Ġmonitor": 5618,
      "Ġsudden": 5619,
      "Ġworry": 5620,
      "Ġhun": 5621,
      "Ġchallenges": 5622,
      "ĠBrexit": 5623,
      "iat": 5624,
      "ban": 5625,
      "ĠÑĢÐ°": 5626,
      "Ġton": 5627,
      "OW": 5628,
      "ez": 5629,
      "ä¼": 5630,
      "aded": 5631,
      "ãģķãĤĮ": 5632,
      "Ġfacing": 5633,
      "Ġtransl": 5634,
      "sa": 5635,
      "owl": 5636,
      "lyn": 5637,
      "ĠWeb": 5638,
      "ĠFree": 5639,
      "icide": 5640,
      "iques": 5641,
      "ĠFoundation": 5642,
      "Ġquant": 5643,
      "Î³": 5644,
      "orial": 5645,
      "IV": 5646,
      "ãģ§ãģĻ": 5647,
      "ĠMem": 5648,
      "Ġhealthy": 5649,
      "Ġstanding": 5650,
      "Ġvision": 5651,
      "Ġsuggests": 5652,
      "Ġoperating": 5653,
      "Î®": 5654,
      "Ġpotentially": 5655,
      "Ġreporters": 5656,
      "Ġdropped": 5657,
      "Ġcorner": 5658,
      "ruption": 5659,
      "Ġhonest": 5660,
      "ĠMedia": 5661,
      "åŃ": 5662,
      "Ġ36": 5663,
      "Ġbalance": 5664,
      "pm": 5665,
      "ĠMary": 5666,
      "ĠOffic": 5667,
      "ruit": 5668,
      "Ġfailure": 5669,
      "hens": 5670,
      "Ġweak": 5671,
      "Ġdeveloping": 5672,
      "what": 5673,
      "ĠToronto": 5674,
      "Ġspect": 5675,
      "icient": 5676,
      "mm": 5677,
      "Ġabsolutely": 5678,
      "pet": 5679,
      "Ġvoting": 5680,
      "rd": 5681,
      "ĠNor": 5682,
      "Ġestablished": 5683,
      "Ġwindow": 5684,
      "ĠLu": 5685,
      "elly": 5686,
      "ighter": 5687,
      "Ġrapid": 5688,
      "ĠSpace": 5689,
      "Ġbrow": 5690,
      "rick": 5691,
      "55": 5692,
      "ĠConserv": 5693,
      "ĠHa": 5694,
      "ĠHy": 5695,
      "Ġtech": 5696,
      "Ġultimately": 5697,
      "Ġdies": 5698,
      "èĢ": 5699,
      "ĠBefore": 5700,
      "ache": 5701,
      "place": 5702,
      "Un": 5703,
      "related": 5704,
      "Ġgra": 5705,
      "Ġrelatively": 5706,
      "Ġproced": 5707,
      "Ġvariety": 5708,
      "47": 5709,
      "oving": 5710,
      "cha": 5711,
      "agram": 5712,
      "Ġaffected": 5713,
      "Ġalternative": 5714,
      "Ġgay": 5715,
      "itect": 5716,
      "].": 5717,
      "ĠJapanese": 5718,
      "Ġbringing": 5719,
      "eler": 5720,
      "å¤§": 5721,
      "Ġphil": 5722,
      "ĠMass": 5723,
      "Ġnewsp": 5724,
      "Ġpaying": 5725,
      "Ġappoint": 5726,
      "ca": 5727,
      "ĠUkraine": 5728,
      "Ġmotiv": 5729,
      "=\"": 5730,
      "ĠWhe": 5731,
      "Ġslightly": 5732,
      "Ġfellow": 5733,
      "Ġlock": 5734,
      "Ġpil": 5735,
      "ĠDaily": 5736,
      "ĠDirector": 5737,
      "Ġcloser": 5738,
      "Ġearth": 5739,
      "Ġnone": 5740,
      "udd": 5741,
      "ĠYouTube": 5742,
      "Ġelements": 5743,
      "Ġallegations": 5744,
      "DP": 5745,
      "Ġrich": 5746,
      "Ġimpossible": 5747,
      "Ġsale": 5748,
      "lines": 5749,
      "ĠLee": 5750,
      "Ġcarried": 5751,
      "For": 5752,
      "ĠGal": 5753,
      "Ġresponsibility": 5754,
      "Ġacadem": 5755,
      "Ġflight": 5756,
      "ĠTechn": 5757,
      "49": 5758,
      "Ġcrew": 5759,
      "Ġreportedly": 5760,
      "Ġlosing": 5761,
      "esters": 5762,
      "Ġou": 5763,
      "amm": 5764,
      "Ġdomin": 5765,
      "Ð´Ð°": 5766,
      "Ġinternal": 5767,
      "ĠPS": 5768,
      "Ġprivacy": 5769,
      "ĠGetty": 5770,
      "Ġadjust": 5771,
      "icious": 5772,
      "Ġgovernments": 5773,
      "ĠWork": 5774,
      "Ġarr": 5775,
      "Ġteen": 5776,
      "ĠRad": 5777,
      "iler": 5778,
      "Î±Î¹": 5779,
      "ĠNov": 5780,
      "Ġequipment": 5781,
      "ĠSyrian": 5782,
      "Ġdefensive": 5783,
      "ĠFrancisco": 5784,
      "Ġpossibility": 5785,
      "iams": 5786,
      "Ġtight": 5787,
      "Ġsitting": 5788,
      "Ġjail": 5789,
      "yr": 5790,
      "Ġproposal": 5791,
      "iner": 5792,
      "Ġanimal": 5793,
      "Ã¤t": 5794,
      "ĠCollege": 5795,
      "Ġskin": 5796,
      "Ġsurprise": 5797,
      "çļ": 5798,
      "Ġseconds": 5799,
      "ĠPower": 5800,
      "kins": 5801,
      "ĠCarolina": 5802,
      "Ġta": 5803,
      "Ġcouncil": 5804,
      "ancing": 5805,
      "ucks": 5806,
      "idel": 5807,
      "Ġcarbon": 5808,
      "Ġaward": 5809,
      "Ġopportunities": 5810,
      "ba": 5811,
      "çĻ": 5812,
      "Ð¾Ñģ": 5813,
      "Ġturns": 5814,
      "Ġcryptocur": 5815,
      "ipping": 5816,
      "ĠSu": 5817,
      "Ġvalid": 5818,
      "Ġremove": 5819,
      "****": 5820,
      "Ġped": 5821,
      "Ġsport": 5822,
      "ĠMars": 5823,
      "ĠÐŁ": 5824,
      "rier": 5825,
      "Ġcorporate": 5826,
      "Ġheat": 5827,
      "Ġtaxes": 5828,
      "Ġpurchase": 5829,
      "ivered": 5830,
      "ni": 5831,
      "ĠOl": 5832,
      "isted": 5833,
      "Ġauthority": 5834,
      "Ġ//": 5835,
      "SS": 5836,
      "ĠPrem": 5837,
      "ĠÐĴ": 5838,
      "ĠMeanwhile": 5839,
      "onald": 5840,
      "erous": 5841,
      "Ġprepared": 5842,
      "ãģ£ãģ¦": 5843,
      "inder": 5844,
      "Ġtwice": 5845,
      "Ġconcl": 5846,
      "ĠHaw": 5847,
      "acks": 5848,
      "eds": 5849,
      "ĠDevelop": 5850,
      "âĸ": 5851,
      "Ġrevolution": 5852,
      "ĠDer": 5853,
      "Ġscript": 5854,
      "Ġhumans": 5855,
      "Ġtempor": 5856,
      "ĠBol": 5857,
      "Ġdeaths": 5858,
      "ĠJes": 5859,
      "ĠAustralian": 5860,
      "Ġbreat": 5861,
      "ansion": 5862,
      "oken": 5863,
      "ĠÃ¨": 5864,
      "ĠTop": 5865,
      "ye": 5866,
      "aste": 5867,
      "Ġmarg": 5868,
      "Ġbaby": 5869,
      "Ġdetermine": 5870,
      "azine": 5871,
      "Ġec": 5872,
      "ordin": 5873,
      "çµ": 5874,
      "rog": 5875,
      "Ġreporting": 5876,
      "Ġinvestors": 5877,
      "Ġruling": 5878,
      "ĠSpr": 5879,
      "ĠTurkey": 5880,
      "noon": 5881,
      "Ġstreets": 5882,
      "39": 5883,
      "Ġexpensive": 5884,
      "Ġlie": 5885,
      "Ġmort": 5886,
      "Ġrevenue": 5887,
      "bec": 5888,
      "ĠVol": 5889,
      "ĠJul": 5890,
      "Ġcollabor": 5891,
      "Ġcold": 5892,
      "Ġclient": 5893,
      "Ġsounds": 5894,
      "Ġtele": 5895,
      "Ġstress": 5896,
      "uster": 5897,
      "Ġast": 5898,
      "Ġfired": 5899,
      "()": 5900,
      "Ġexpressed": 5901,
      "Ġaid": 5902,
      "Ġvoted": 5903,
      "Ġprove": 5904,
      "iva": 5905,
      "adium": 5906,
      "Ġmaintain": 5907,
      "pto": 5908,
      "Ġath": 5909,
      "Ġseat": 5910,
      "Ð¸Ð½": 5911,
      "Ġtrig": 5912,
      "ĠSecond": 5913,
      "reens": 5914,
      "Ġapps": 5915,
      "Ġclin": 5916,
      "oral": 5917,
      "ÑģÑĤÐ²": 5918,
      "ĠProject": 5919,
      "Ġnar": 5920,
      "ĠOnly": 5921,
      "ayer": 5922,
      "Ġfaster": 5923,
      "Ġneighborhood": 5924,
      "ãģ¨ãģĦ": 5925,
      "Ġcovered": 5926,
      "Ġongoing": 5927,
      "Ġunits": 5928,
      "Ġben": 5929,
      "Ġpossibly": 5930,
      "oles": 5931,
      "ĠBBC": 5932,
      "Ġsolar": 5933,
      "with": 5934,
      "Ġcart": 5935,
      "iverse": 5936,
      "Ġburn": 5937,
      "hal": 5938,
      "ĠAT": 5939,
      "Ġunless": 5940,
      "ĠColor": 5941,
      "ĠSum": 5942,
      "Ġagent": 5943,
      "Ġherself": 5944,
      "Ġscientific": 5945,
      "Ġlob": 5946,
      "Ġpackage": 5947,
      "ews": 5948,
      "ĠAbout": 5949,
      "Ġimagine": 5950,
      "Ġfactors": 5951,
      "emic": 5952,
      "Ġresol": 5953,
      "ĠVirginia": 5954,
      "Ġdepart": 5955,
      "Ð¾Ðº": 5956,
      "abin": 5957,
      "ĠRod": 5958,
      "Ġyards": 5959,
      "Ġthank": 5960,
      "Ġ2000": 5961,
      "ĠPolit": 5962,
      "Ġplenty": 5963,
      "ĠNH": 5964,
      "ĠBest": 5965,
      "bert": 5966,
      "ĠStill": 5967,
      "ĠDaniel": 5968,
      "Ġlived": 5969,
      "Ġsurve": 5970,
      "Ġspecifically": 5971,
      "Ġwa": 5972,
      "ĠBob": 5973,
      "ĠSteve": 5974,
      "!\"": 5975,
      "Ġevening": 5976,
      "Ġregime": 5977,
      "Ġselling": 5978,
      "Ġdenied": 5979,
      "ĠNAS": 5980,
      "cious": 5981,
      "isher": 5982,
      "ĠEach": 5983,
      "athe": 5984,
      "ĠBook": 5985,
      "Ġ2006": 5986,
      "urban": 5987,
      "ensions": 5988,
      "ĠMiddle": 5989,
      "ĠForce": 5990,
      "ĠMen": 5991,
      "Ġuniversity": 5992,
      "ĠWilliams": 5993,
      "Ġdegree": 5994,
      "Ġbroken": 5995,
      "Ġexcited": 5996,
      "Ġsigns": 5997,
      "ãģĬ": 5998,
      "Ġelected": 5999,
      "ĠHuman": 6000,
      "åĬ": 6001,
      "Ġgod": 6002,
      "Ġjour": 6003,
      "abilities": 6004,
      "Ġconsidering": 6005,
      "rible": 6006,
      "ĠÄĳ": 6007,
      "Ġappreci": 6008,
      "Ĥ¬": 6009,
      "ĠArmy": 6010,
      "Ġdipl": 6011,
      "town": 6012,
      "life": 6013,
      "Ġhandle": 6014,
      "zi": 6015,
      "ĠHarr": 6016,
      "Ġapparently": 6017,
      "esterday": 6018,
      "wers": 6019,
      "Ġpointed": 6020,
      "Ġwal": 6021,
      "##": 6022,
      "Ġfort": 6023,
      "ãĥ¬": 6024,
      "press": 6025,
      "bu": 6026,
      "ĠIns": 6027,
      "Ġmode": 6028,
      "Ġidentify": 6029,
      "Ġcooper": 6030,
      "Ġproceed": 6031,
      "Ġcriticism": 6032,
      "Ïĩ": 6033,
      "å¾": 6034,
      "oston": 6035,
      "Ġcrimes": 6036,
      "och": 6037,
      "Ġ]": 6038,
      "Ġdram": 6039,
      "Ġexperienced": 6040,
      "Ġpredict": 6041,
      "ĠCarl": 6042,
      "46": 6043,
      "ĠWhere": 6044,
      "PD": 6045,
      "Ġafternoon": 6046,
      "Ġaus": 6047,
      "inent": 6048,
      "imal": 6049,
      "×Ļ": 6050,
      "Ġgather": 6051,
      "Ġerror": 6052,
      "apers": 6053,
      "cean": 6054,
      "Ġlawyer": 6055,
      "Ø³": 6056,
      "ãĤı": 6057,
      "war": 6058,
      "Ġbroke": 6059,
      "redit": 6060,
      "Ġestimated": 6061,
      "Ġupdated": 6062,
      "Ġrally": 6063,
      "aza": 6064,
      "Ġprotests": 6065,
      "Ġconducted": 6066,
      "Ġarms": 6067,
      "Ġdiplom": 6068,
      "Ġcert": 6069,
      "hab": 6070,
      "Ġcannabis": 6071,
      "Get": 6072,
      "Ġmatters": 6073,
      "ere": 6074,
      "Ġcro": 6075,
      "standing": 6076,
      "sell": 6077,
      "Ġstars": 6078,
      "Ġtrading": 6079,
      "ĠGree": 6080,
      "iones": 6081,
      "Ġsubm": 6082,
      "Ġpresented": 6083,
      "ashion": 6084,
      "Ġpra": 6085,
      "Ġpoliticians": 6086,
      "Ġwearing": 6087,
      "ĠSystem": 6088,
      "Ġhurt": 6089,
      "Ġpanel": 6090,
      "Ġsad": 6091,
      "Ġprospect": 6092,
      "Ġtourn": 6093,
      "ĠIC": 6094,
      "Ġsupporting": 6095,
      "Ġheav": 6096,
      "Ġcuts": 6097,
      "Ġstatements": 6098,
      "Ġpal": 6099,
      "Ġdelay": 6100,
      "ducing": 6101,
      "Ġannouncement": 6102,
      "ĠCharl": 6103,
      "Ġimpress": 6104,
      "ĠVide": 6105,
      "essions": 6106,
      "åº": 6107,
      "Ġresponded": 6108,
      "Le": 6109,
      "Ġcopyright": 6110,
      "LA": 6111,
      "Ġinsp": 6112,
      "Ġfamous": 6113,
      "Ġminimum": 6114,
      "ĠRoad": 6115,
      "ÙĤ": 6116,
      "Ġcombat": 6117,
      "obe": 6118,
      "Ġcra": 6119,
      "Ġmulti": 6120,
      "Ġclot": 6121,
      "ĠInf": 6122,
      "ĠGen": 6123,
      "Ġfly": 6124,
      "Americ": 6125,
      "ãĥŃ": 6126,
      "endment": 6127,
      "Ġlisten": 6128,
      "Ġreact": 6129,
      "çĽ": 6130,
      "Ġperman": 6131,
      "Ġintended": 6132,
      "Ġelement": 6133,
      "Ġshift": 6134,
      "Ġwarned": 6135,
      "Ġconsumers": 6136,
      "Ġsymb": 6137,
      "Ġrefused": 6138,
      "Ġoch": 6139,
      "ĠVict": 6140,
      "ĠÐ¡": 6141,
      "TS": 6142,
      "Ġyouth": 6143,
      "Ġsubs": 6144,
      "ĠWal": 6145,
      "onna": 6146,
      "ji": 6147,
      "Ġleads": 6148,
      "phas": 6149,
      "ĠGrand": 6150,
      "Ġgradu": 6151,
      "Ġmessages": 6152,
      "ĠNE": 6153,
      "Ð¾ÑĤ": 6154,
      "pret": 6155,
      "Ġapproved": 6156,
      "Ġadvice": 6157,
      "Ġweren": 6158,
      "Ġwriter": 6159,
      "Ġhur": 6160,
      "Ġeste": 6161,
      "Ġinstitutions": 6162,
      "Ġinvolve": 6163,
      "Ġseasons": 6164,
      "sts": 6165,
      "ogue": 6166,
      "ilty": 6167,
      "çļĦ": 6168,
      "ĠHel": 6169,
      "ĠThough": 6170,
      ",'": 6171,
      "ĠAC": 6172,
      "iti": 6173,
      "ĠEp": 6174,
      "Ġcultural": 6175,
      "ĠWeek": 6176,
      "Ã©m": 6177,
      "estival": 6178,
      "ĠHome": 6179,
      "Ġpositions": 6180,
      "Ġfinish": 6181,
      "Ġforms": 6182,
      "Ġconfident": 6183,
      "ĠJackson": 6184,
      "nel": 6185,
      "ĠÑĩÑĤÐ¾": 6186,
      "Ġmethods": 6187,
      "Ġweapon": 6188,
      "Ġwithd": 6189,
      "Ġrenew": 6190,
      "iable": 6191,
      "Ġhopes": 6192,
      "Ġmes": 6193,
      "So": 6194,
      "Ġtrend": 6195,
      "Ġeine": 6196,
      "ĠDa": 6197,
      "istered": 6198,
      "ãĤ¸": 6199,
      "Ġtransition": 6200,
      "ĠIsland": 6201,
      "Ġsac": 6202,
      "Ġshall": 6203,
      "Ġrandom": 6204,
      "My": 6205,
      "ĠÐµ": 6206,
      "ĠFer": 6207,
      "Ġvac": 6208,
      "Ġlocated": 6209,
      "Ġpieces": 6210,
      "cohol": 6211,
      "ads": 6212,
      "Ġstorm": 6213,
      "Ġpatient": 6214,
      "Ġdiscl": 6215,
      "gypt": 6216,
      "ĠRub": 6217,
      "ulture": 6218,
      "MA": 6219,
      "Ġfif": 6220,
      "Ġarmy": 6221,
      "ĠÎ¼": 6222,
      "Ġbon": 6223,
      "Ġliberal": 6224,
      "ãĥĹ": 6225,
      "owa": 6226,
      "rip": 6227,
      "ĠRam": 6228,
      "LS": 6229,
      "Ġgiant": 6230,
      "Ġconfidence": 6231,
      "PU": 6232,
      "ĠLook": 6233,
      "Ġsecretary": 6234,
      "isk": 6235,
      "Å¾": 6236,
      "aire": 6237,
      "IR": 6238,
      "ĠBoston": 6239,
      "useum": 6240,
      "ĠID": 6241,
      "Ġremaining": 6242,
      "Ġhet": 6243,
      "Ġdelivered": 6244,
      "ãģ¡": 6245,
      "åĨ": 6246,
      "Ġju": 6247,
      "ĠÑģÑĤ": 6248,
      "bar": 6249,
      "Ġpulled": 6250,
      "ĠMarc": 6251,
      "ternal": 6252,
      "Ġprompt": 6253,
      "Ã©r": 6254,
      "Ġswitch": 6255,
      "Ġobviously": 6256,
      "Ġdismiss": 6257,
      "ĠFar": 6258,
      "Ġals": 6259,
      "Ġsignificantly": 6260,
      "Ġargued": 6261,
      "Ġdetermined": 6262,
      "ĠHo": 6263,
      "Ġsym": 6264,
      "Ġexplo": 6265,
      "oria": 6266,
      "Ġseriously": 6267,
      "Ġtechnical": 6268,
      "ĠMake": 6269,
      "ĠLong": 6270,
      "Ġadvance": 6271,
      "Ġmaster": 6272,
      "Ġphilos": 6273,
      "Ġequal": 6274,
      "Ġupgr": 6275,
      "ĠPac": 6276,
      "Ġbelong": 6277,
      "reland": 6278,
      "ĠInvest": 6279,
      "Ġshel": 6280,
      "rum": 6281,
      "Ġfaces": 6282,
      "Ġpublicly": 6283,
      "ĠScience": 6284,
      "Ġgro": 6285,
      "isters": 6286,
      "ĠThank": 6287,
      "Ġstruggle": 6288,
      "ĠRiver": 6289,
      "Ġfrustr": 6290,
      "Ġtransform": 6291,
      "Ġtreated": 6292,
      "ãĥķ": 6293,
      "Ġpercentage": 6294,
      "Ġproud": 6295,
      "Ġstands": 6296,
      "Ġtroops": 6297,
      "Ġ33": 6298,
      "Ġweather": 6299,
      "Ġsatisf": 6300,
      "ĠWood": 6301,
      "respond": 6302,
      "agen": 6303,
      ",âĢĻ": 6304,
      "Ġscheduled": 6305,
      "asp": 6306,
      "Ġexplos": 6307,
      "Ġshape": 6308,
      "ĠLin": 6309,
      "Ġparli": 6310,
      "Ġelimin": 6311,
      "ĠiPh": 6312,
      "Ġminute": 6313,
      "Ġstret": 6314,
      "ĠÐ»": 6315,
      "date": 6316,
      "Ġappearance": 6317,
      "unte": 6318,
      "Ġinstruct": 6319,
      "Ġbasically": 6320,
      "Ġtom": 6321,
      "Ġchemical": 6322,
      "Ġallegedly": 6323,
      "centr": 6324,
      "ĠNa": 6325,
      "Ġsevere": 6326,
      "Ġassets": 6327,
      "ashed": 6328,
      "Ġcalcul": 6329,
      "amin": 6330,
      "TA": 6331,
      "Ġviolent": 6332,
      "ĠMax": 6333,
      "Ġbid": 6334,
      "Ġthr": 6335,
      "Ġyes": 6336,
      "Ġcentre": 6337,
      "icial": 6338,
      "ĠMichigan": 6339,
      "aria": 6340,
      "Ġzone": 6341,
      "Ġloved": 6342,
      "ĠThanks": 6343,
      "Ġsin": 6344,
      "ÑĦ": 6345,
      "ĠAuthor": 6346,
      "Î¹Îº": 6347,
      "ĠÃ©t": 6348,
      "Ġvisual": 6349,
      "word": 6350,
      "Ġreligion": 6351,
      "ÐºÐ¸": 6352,
      "Ġcustomer": 6353,
      "ĠAv": 6354,
      "there": 6355,
      "Ġaccident": 6356,
      "Ġprotected": 6357,
      "ĠÐ¾ÑĤ": 6358,
      "Ġcompleted": 6359,
      "ĠMaybe": 6360,
      "Ġsession": 6361,
      "Ġutil": 6362,
      "Ġtested": 6363,
      "uzz": 6364,
      "Ġurg": 6365,
      "oty": 6366,
      "pass": 6367,
      "Ġgrew": 6368,
      "Ġvice": 6369,
      "Ġmir": 6370,
      "Ġmarketing": 6371,
      "mail": 6372,
      "ns": 6373,
      "PR": 6374,
      "Ġgreatest": 6375,
      "Ġspring": 6376,
      "Ġtact": 6377,
      "Ġpassing": 6378,
      "Ġends": 6379,
      "Ġsoldiers": 6380,
      "long": 6381,
      "Ġbeer": 6382,
      "class": 6383,
      "Ġsie": 6384,
      "ĠOs": 6385,
      "ĠMORE": 6386,
      "Ġdiss": 6387,
      "ĠRight": 6388,
      "ĠLand": 6389,
      "ĠBraz": 6390,
      "Ġpages": 6391,
      "Ġflag": 6392,
      "can": 6393,
      "gl": 6394,
      "ĠIreland": 6395,
      "ĠCath": 6396,
      "Ġdeclined": 6397,
      "Ġble": 6398,
      "amento": 6399,
      "ighters": 6400,
      "ĠPR": 6401,
      "Ġlots": 6402,
      "adow": 6403,
      "yth": 6404,
      "ĠOF": 6405,
      "Ġinjured": 6406,
      "idden": 6407,
      "Ġtermin": 6408,
      "gas": 6409,
      "ĠCru": 6410,
      "Ġdefault": 6411,
      "Ġsurprising": 6412,
      "apped": 6413,
      "34": 6414,
      "åĭ": 6415,
      "Ġparliament": 6416,
      "Ġblow": 6417,
      "Ġbra": 6418,
      "ĠWilliam": 6419,
      "ĠPenn": 6420,
      "ĠPutin": 6421,
      "Ġplants": 6422,
      "Ġik": 6423,
      "TV": 6424,
      "Ġdeclared": 6425,
      "ĠGeorg": 6426,
      "Ġagents": 6427,
      "Ġdoctor": 6428,
      "Ġadmitted": 6429,
      "Ġconvention": 6430,
      "Ġrain": 6431,
      "Ġconnected": 6432,
      "à¤¾": 6433,
      "Ġbug": 6434,
      "Ġ?": 6435,
      "Ġbought": 6436,
      "Ġpopul": 6437,
      "ĠCOVID": 6438,
      "Ð¾Ð¶": 6439,
      "Ġconfig": 6440,
      "ĠEgypt": 6441,
      "apter": 6442,
      "Ġreduced": 6443,
      "ĠÃ¼": 6444,
      "ĠPlan": 6445,
      "aints": 6446,
      "ĠCard": 6447,
      "oves": 6448,
      "Ġremained": 6449,
      "uls": 6450,
      "spe": 6451,
      "ĠSk": 6452,
      "Ġ2005": 6453,
      "Ãªn": 6454,
      "ĠKorean": 6455,
      "Ġ38": 6456,
      "dit": 6457,
      "Ġsche": 6458,
      "ĠEner": 6459,
      "host": 6460,
      "Ġflood": 6461,
      "ĠSC": 6462,
      "ĠNote": 6463,
      "imp": 6464,
      "Ġindeed": 6465,
      "Ġquiet": 6466,
      "Ġactivists": 6467,
      "Ġcontrast": 6468,
      "ðŁ": 6469,
      "Ġbound": 6470,
      "sembly": 6471,
      "ĠOrgan": 6472,
      "isa": 6473,
      "ĠElect": 6474,
      "ributed": 6475,
      "Ġunable": 6476,
      "Ġcoast": 6477,
      "Ġchain": 6478,
      "abled": 6479,
      "anged": 6480,
      "éĩ": 6481,
      "Ġturning": 6482,
      "orry": 6483,
      "åľ": 6484,
      "Ġdrivers": 6485,
      "Ġfacility": 6486,
      "ãĤ³": 6487,
      "Ġsuit": 6488,
      "Ġappeal": 6489,
      "ĠEconom": 6490,
      "Ġrecorded": 6491,
      "Ġlawsuit": 6492,
      "Ġforget": 6493,
      "ĠIts": 6494,
      "Ġfactor": 6495,
      "ompl": 6496,
      "Ġdisappoint": 6497,
      "Ġ\\": 6498,
      "On": 6499,
      "itu": 6500,
      "free": 6501,
      "Ġbare": 6502,
      "ĠGi": 6503,
      "Ġfaced": 6504,
      "oma": 6505,
      "Ġhyp": 6506,
      "ĠmÃ¡s": 6507,
      "Ġwaste": 6508,
      "ÑģÐ¸": 6509,
      "Ġexcell": 6510,
      "Ġtalked": 6511,
      "Ġ37": 6512,
      "eld": 6513,
      "rio": 6514,
      "Ġpool": 6515,
      "Ġ300": 6516,
      "inem": 6517,
      "Ġencoun": 6518,
      "Ġresident": 6519,
      "Ġexperiences": 6520,
      "ĠAff": 6521,
      "etic": 6522,
      "Sh": 6523,
      "ĠGra": 6524,
      "æĺ": 6525,
      "Ġguilty": 6526,
      "Ġcircumst": 6527,
      "ende": 6528,
      "Ġcombined": 6529,
      "ocking": 6530,
      "osite": 6531,
      "Ġfindings": 6532,
      "Ġattempts": 6533,
      "enture": 6534,
      "Ġnav": 6535,
      "irms": 6536,
      "Ġdatab": 6537,
      "Ġshouldn": 6538,
      "Ġevalu": 6539,
      "Ġordered": 6540,
      "ĠInde": 6541,
      "95": 6542,
      "tes": 6543,
      "rees": 6544,
      "Ġjoint": 6545,
      "Ġconstruct": 6546,
      "Ġauch": 6547,
      "Ġoccurred": 6548,
      "nic": 6549,
      "MP": 6550,
      "ĠEll": 6551,
      "ĠAgain": 6552,
      "ĠSky": 6553,
      "ĠReuters": 6554,
      "Ġreplace": 6555,
      "Ð°ÑĤÑĮ": 6556,
      "ĠOhio": 6557,
      "Ġthoughts": 6558,
      "Ġcontest": 6559,
      "Ġlinked": 6560,
      "Ġgovernor": 6561,
      "OC": 6562,
      "Ġperspective": 6563,
      "Ġ34": 6564,
      "×ķ": 6565,
      "Ġpractices": 6566,
      "Ġwer": 6567,
      "Ġbodies": 6568,
      "Ð»Ñı": 6569,
      "aro": 6570,
      "ĠAnn": 6571,
      "Ġlegit": 6572,
      "essor": 6573,
      "æī": 6574,
      "Ġstorage": 6575,
      "ĠFord": 6576,
      "Ġoriginally": 6577,
      "Ġhighlight": 6578,
      "zo": 6579,
      "Ġtrib": 6580,
      "ĠLife": 6581,
      "Ġcongress": 6582,
      "ĠLes": 6583,
      "Ġcolumn": 6584,
      "Ġsuppl": 6585,
      "Ġisol": 6586,
      "Ġ48": 6587,
      "Ġpowers": 6588,
      "Ġdistance": 6589,
      "ĠSher": 6590,
      "Ġthreats": 6591,
      "Ġwarning": 6592,
      "oking": 6593,
      "ãģĤãĤĭ": 6594,
      "auc": 6595,
      "Ġinqu": 6596,
      "Ġglass": 6597,
      "Ġtalent": 6598,
      "Ġappropriate": 6599,
      "ription": 6600,
      "mes": 6601,
      "rawn": 6602,
      "Ġdecent": 6603,
      "Ġwidely": 6604,
      "¿½": 6605,
      "Ġdemocracy": 6606,
      "å½": 6607,
      "Ġfraud": 6608,
      "Ġroute": 6609,
      "abil": 6610,
      "ĠPo": 6611,
      "ordan": 6612,
      "ĠFam": 6613,
      "Ġfill": 6614,
      "ÐµÐ´": 6615,
      "Ġrising": 6616,
      "ĠSar": 6617,
      "anges": 6618,
      "Ġlinks": 6619,
      "unction": 6620,
      "],": 6621,
      "ello": 6622,
      "ffee": 6623,
      "Ġreaction": 6624,
      "Ġresolution": 6625,
      "Ġpushed": 6626,
      "andal": 6627,
      "osa": 6628,
      "An": 6629,
      "Ġentry": 6630,
      "ãģ¨ãģĦãģĨ": 6631,
      "ĠRev": 6632,
      "Ġave": 6633,
      "itÃ©": 6634,
      "omin": 6635,
      "Ġtrouble": 6636,
      "ĠAsia": 6637,
      "alle": 6638,
      "Ġdynam": 6639,
      "oung": 6640,
      "Ġreference": 6641,
      "Ġmanage": 6642,
      "ey": 6643,
      "Ġzero": 6644,
      "ĠSomet": 6645,
      "Ġupcoming": 6646,
      "64": 6647,
      "ĠSqu": 6648,
      "Ġinjuries": 6649,
      "Ġremind": 6650,
      "mosp": 6651,
      "ĠÐ¾Ð±": 6652,
      "åł": 6653,
      "Ġreceiving": 6654,
      "athan": 6655,
      "ĠParl": 6656,
      "Ġshop": 6657,
      "ĠItal": 6658,
      "Ġstores": 6659,
      "Ġforg": 6660,
      "01": 6661,
      "ĠNext": 6662,
      "level": 6663,
      "ampion": 6664,
      "Ġeffectively": 6665,
      "Ġwood": 6666,
      "Ġrestaurant": 6667,
      "lymp": 6668,
      "Ġcontinu": 6669,
      "Ġtypically": 6670,
      "Ġsets": 6671,
      "enger": 6672,
      "ĠHist": 6673,
      "mond": 6674,
      "def": 6675,
      "ĠEnter": 6676,
      "Ġcapable": 6677,
      "Al": 6678,
      "ĠBusiness": 6679,
      "ĠStory": 6680,
      "ĠMic": 6681,
      "ĠReal": 6682,
      "acter": 6683,
      "Ġexplains": 6684,
      "ĠTay": 6685,
      "Ġmu": 6686,
      "05": 6687,
      "Ïį": 6688,
      "Ġsuffered": 6689,
      "Ġcrack": 6690,
      "Ġwalking": 6691,
      "Ġgi": 6692,
      "Ġconcentr": 6693,
      "abe": 6694,
      "Ġresc": 6695,
      "ĠIP": 6696,
      "Ã¶n": 6697,
      "Ġlisted": 6698,
      "ĠChristmas": 6699,
      "ellow": 6700,
      "0000": 6701,
      "Ġfilms": 6702,
      "Ġhell": 6703,
      "Å¼": 6704,
      "ois": 6705,
      "Ġdifferences": 6706,
      "ĠBrazil": 6707,
      "ishes": 6708,
      "apping": 6709,
      "Ġdebut": 6710,
      "ĠClick": 6711,
      "Ġpitch": 6712,
      "eland": 6713,
      "called": 6714,
      "Ġenh": 6715,
      "Ġsought": 6716,
      "Ġmayor": 6717,
      "ĠfÃ¶r": 6718,
      "ĠIll": 6719,
      "Ġadvanced": 6720,
      "Ġmovies": 6721,
      "Ġmaterials": 6722,
      "Ġdial": 6723,
      "Ġedge": 6724,
      "Ġpicked": 6725,
      "ÎµÎ¹": 6726,
      "Ġexercise": 6727,
      "Ġnumerous": 6728,
      "enez": 6729,
      "ĠView": 6730,
      "ERS": 6731,
      "Ġopposed": 6732,
      "ĠHou": 6733,
      "ĠVan": 6734,
      "ivo": 6735,
      "that": 6736,
      "UR": 6737,
      "Ġadvert": 6738,
      "ĠBlue": 6739,
      "Ġconsequences": 6740,
      "rant": 6741,
      "Ġbond": 6742,
      "Ġrelevant": 6743,
      "Ġsubstant": 6744,
      "ĠWomen": 6745,
      "asure": 6746,
      "elo": 6747,
      "Ġartist": 6748,
      "Ġarticles": 6749,
      "31": 6750,
      "acement": 6751,
      "employ": 6752,
      "Ġarchitect": 6753,
      "orders": 6754,
      "dem": 6755,
      "65": 6756,
      "Ġupdates": 6757,
      "ĠØ§ÙĦØ": 6758,
      "resents": 6759,
      "Ġsolutions": 6760,
      "Ġmissed": 6761,
      "æľ¬": 6762,
      "Ġbrings": 6763,
      "ĠAfghanistan": 6764,
      "ĠKenn": 6765,
      "Ġdiscussed": 6766,
      "Ã©t": 6767,
      "Ġdoctors": 6768,
      "Ġsick": 6769,
      "ĠLoad": 6770,
      "Ġourselves": 6771,
      "Ġeen": 6772,
      "Ġhotel": 6773,
      "Ġleaves": 6774,
      "Ġ%": 6775,
      "state": 6776,
      "Ġfacts": 6777,
      "----------------": 6778,
      "Ġinput": 6779,
      "encing": 6780,
      "Ġterrorist": 6781,
      "ĠDi": 6782,
      "Ġwear": 6783,
      "cht": 6784,
      "ĠBoard": 6785,
      "Ġaircraft": 6786,
      "Ġemphas": 6787,
      "ĠØª": 6788,
      "ĠCam": 6789,
      "Ġaccompl": 6790,
      "Ġchannel": 6791,
      "Ġbuying": 6792,
      "ĠCast": 6793,
      "Ġrequirements": 6794,
      "icing": 6795,
      "Ġsup": 6796,
      "Ġcolleagues": 6797,
      "Ġadds": 6798,
      "ĠLib": 6799,
      "ika": 6800,
      "Ġacknowled": 6801,
      "Ġcurrency": 6802,
      "ĠFil": 6803,
      "Ġentertain": 6804,
      "Ġplane": 6805,
      "mates": 6806,
      "law": 6807,
      "Ġvacc": 6808,
      "achment": 6809,
      "kay": 6810,
      "whel": 6811,
      "lywood": 6812,
      "ĠHen": 6813,
      "Ġrent": 6814,
      "una": 6815,
      "ãĤ«": 6816,
      "ĠAriz": 6817,
      "ÈĻi": 6818,
      "dy": 6819,
      "Ġmoves": 6820,
      "Ġmanufacture": 6821,
      "Ġorders": 6822,
      "ĠAttorney": 6823,
      "Ġregulations": 6824,
      "Ġmoments": 6825,
      "Ġflo": 6826,
      "ded": 6827,
      "Ġupp": 6828,
      "angers": 6829,
      "ĠStan": 6830,
      "ĠDC": 6831,
      "Ġcreation": 6832,
      "Ġinitially": 6833,
      "Ġcruc": 6834,
      "ensus": 6835,
      "ĠFre": 6836,
      "ĠDu": 6837,
      "Ġfilled": 6838,
      "ĠÐ¿ÑĢÐ¸": 6839,
      "Ġmoral": 6840,
      "Pro": 6841,
      "IF": 6842,
      "hors": 6843,
      "ĠKn": 6844,
      "Ġfollows": 6845,
      "ĠLake": 6846,
      "Ġoutput": 6847,
      "Ġnetworks": 6848,
      "dr": 6849,
      "åĩ": 6850,
      "Ġtradition": 6851,
      "ĠKen": 6852,
      "Ġbag": 6853,
      "Ġposts": 6854,
      "Ġimpe": 6855,
      "Ġfacilities": 6856,
      "ican": 6857,
      "ĠCy": 6858,
      "ĠInstagram": 6859,
      "Ġtweeted": 6860,
      "ĠOlymp": 6861,
      "ĠiPhone": 6862,
      "Ġflat": 6863,
      "Ġmotor": 6864,
      "ä¸Ń": 6865,
      "Ġpayment": 6866,
      "Ġradical": 6867,
      "Ġtargets": 6868,
      "adas": 6869,
      "Ġenemy": 6870,
      "Ġchart": 6871,
      "Ġentered": 6872,
      "Ġnations": 6873,
      "Ġimmigrants": 6874,
      "Ġsharing": 6875,
      "Ġconfront": 6876,
      "Ġwarm": 6877,
      "ĠFour": 6878,
      "active": 6879,
      "cons": 6880,
      "arden": 6881,
      "æĿ": 6882,
      "ĠTake": 6883,
      "Ġincor": 6884,
      "ĠAdmin": 6885,
      "Ġdecre": 6886,
      "Ġguide": 6887,
      "Ġcraft": 6888,
      "illance": 6889,
      "ĠÐļ": 6890,
      "Ġincl": 6891,
      "Ã¨re": 6892,
      "Ġdass": 6893,
      "åĽ½": 6894,
      "Ġroughly": 6895,
      "Ġcauses": 6896,
      "ĠThree": 6897,
      "Ġtar": 6898,
      "wan": 6899,
      "ĠAR": 6900,
      "ĠMount": 6901,
      "hus": 6902,
      "Ġrepresents": 6903,
      "Ġthinks": 6904,
      "water": 6905,
      "Ġven": 6906,
      "Ġnecessarily": 6907,
      "Ġbreaking": 6908,
      "ubb": 6909,
      "Ġrisks": 6910,
      "Ġyesterday": 6911,
      "isan": 6912,
      "Ġcorrespond": 6913,
      "Ġprotesters": 6914,
      "astern": 6915,
      "Ġeverybody": 6916,
      "ĠCD": 6917,
      "Ġrealize": 6918,
      "âĢĻ.": 6919,
      "Ġoblig": 6920,
      "Ġunderst": 6921,
      "Ġlawmakers": 6922,
      "ĠMat": 6923,
      "Ġconsumer": 6924,
      "Ð¾Ð·": 6925,
      "Ġeuro": 6926,
      "Ġessentially": 6927,
      "Ġabandon": 6928,
      "ä¸Ģ": 6929,
      "ĠDefense": 6930,
      "Ġrepeatedly": 6931,
      "ĠServices": 6932,
      "Ġtut": 6933,
      "Ġ1990": 6934,
      "Ġpure": 6935,
      "ĠMot": 6936,
      "Ġstood": 6937,
      "acle": 6938,
      "Ã¨s": 6939,
      "Ġincreases": 6940,
      "Ġrail": 6941,
      "ĠScot": 6942,
      "ules": 6943,
      "Ġmi": 6944,
      "Ġarmed": 6945,
      "Ġrot": 6946,
      "Ġintent": 6947,
      "Ġclients": 6948,
      "Ġshif": 6949,
      "All": 6950,
      "comm": 6951,
      "Ġregional": 6952,
      "ĠValley": 6953,
      "Ġexamples": 6954,
      "ĠYear": 6955,
      "sex": 6956,
      "izz": 6957,
      "Ġquarterback": 6958,
      "Ġride": 6959,
      "Ġreturns": 6960,
      "Ġfranch": 6961,
      "Ġexpansion": 6962,
      "ĠNBA": 6963,
      "Ġmyster": 6964,
      "Ġnative": 6965,
      "aa": 6966,
      "Ġhall": 6967,
      "Ġbat": 6968,
      "ĠDam": 6969,
      "ĠColorado": 6970,
      "Ġgrab": 6971,
      "Ġalcohol": 6972,
      "TH": 6973,
      "Ġspons": 6974,
      "rive": 6975,
      "ãģĽ": 6976,
      "Ġnarr": 6977,
      "ĠSports": 6978,
      "Ġbehavi": 6979,
      "Ġdesire": 6980,
      "ĠMueller": 6981,
      "ĠLight": 6982,
      "Ġrein": 6983,
      "ounded": 6984,
      "Ġalongside": 6985,
      "Ġapprox": 6986,
      "Ġboss": 6987,
      "imm": 6988,
      "Ġimmediate": 6989,
      "Ġ49": 6990,
      "Ġpenal": 6991,
      "Ġisland": 6992,
      "ĠDev": 6993,
      "Ġtree": 6994,
      "Ġjourney": 6995,
      "west": 6996,
      "ĠGlobal": 6997,
      "ĠÐ¿ÑĢÐ¾": 6998,
      "aped": 6999,
      "bro": 7000,
      "ĠMarket": 7001,
      "ooth": 7002,
      "Ġtargeted": 7003,
      "awa": 7004,
      "Ġnewspaper": 7005,
      "Ġimproved": 7006,
      "ivery": 7007,
      "ĠClub": 7008,
      "Ġpromise": 7009,
      "ĠMS": 7010,
      "ĠKevin": 7011,
      "acht": 7012,
      "ogan": 7013,
      "usal": 7014,
      "Ã§Ãµes": 7015,
      "Ġimportance": 7016,
      "ĠFig": 7017,
      "Ġtill": 7018,
      "Ġcontains": 7019,
      "ĠShare": 7020,
      "æľĪ": 7021,
      "Ġpayments": 7022,
      "cies": 7023,
      "Ġnearby": 7024,
      "Ġbuildings": 7025,
      "%.": 7026,
      "ĠBoy": 7027,
      "Ġlit": 7028,
      "Ġargue": 7029,
      "ansas": 7030,
      "ĠTest": 7031,
      "Ġwrites": 7032,
      "Ġanywhere": 7033,
      "Ġ75": 7034,
      "ĠTal": 7035,
      "ocratic": 7036,
      "ele": 7037,
      "Ġfavour": 7038,
      "Ġsurprised": 7039,
      "ĠLuc": 7040,
      "Ġbutton": 7041,
      "arters": 7042,
      "å¼": 7043,
      "ĠItaly": 7044,
      "Ġunlikely": 7045,
      "Ã§a": 7046,
      "Ar": 7047,
      "lv": 7048,
      "fficient": 7049,
      "otic": 7050,
      "Ġdistribution": 7051,
      "II": 7052,
      "ãĥ¡": 7053,
      "Ġoffense": 7054,
      "Ġvirtual": 7055,
      "æĻ": 7056,
      "erved": 7057,
      "Ã©d": 7058,
      "ĠâĢĿ": 7059,
      "Ġlabel": 7060,
      "ĠWat": 7061,
      "ĠTem": 7062,
      "Ġflu": 7063,
      "ĠsÄĥ": 7064,
      "Ġpushing": 7065,
      "Ġbright": 7066,
      "Ġconsistent": 7067,
      "Ġparticipants": 7068,
      "Ġclasses": 7069,
      "Ġholds": 7070,
      "Ġfunctions": 7071,
      "Ġreaders": 7072,
      "Ġheavily": 7073,
      "ĠAdam": 7074,
      "Ġguns": 7075,
      "mann": 7076,
      "Ġrum": 7077,
      "ĠNetwork": 7078,
      "Ġstring": 7079,
      "Ġfish": 7080,
      "ml": 7081,
      "Ġabortion": 7082,
      "Ġagenda": 7083,
      "ĠAI": 7084,
      "Ġdetailed": 7085,
      "Ġsympt": 7086,
      "ĠPan": 7087,
      "ĠArizona": 7088,
      "ĠHun": 7089,
      "Ġefficient": 7090,
      "Ġsuc": 7091,
      "Ġske": 7092,
      "vell": 7093,
      "Ġ2004": 7094,
      "Ġallies": 7095,
      "ãģ§ãģ¯": 7096,
      "å¯": 7097,
      "ĠLo": 7098,
      "ĠHor": 7099,
      "Ġvalu": 7100,
      "ĠEnergy": 7101,
      "irds": 7102,
      "Ġvor": 7103,
      "ĠWalk": 7104,
      "Ġlibrary": 7105,
      "mente": 7106,
      "ĠBas": 7107,
      "Ġcommitment": 7108,
      "Ġsuffering": 7109,
      "ĠChild": 7110,
      "irty": 7111,
      "Ġapproval": 7112,
      "Ġmai": 7113,
      "Ġobjects": 7114,
      "ĠVi": 7115,
      "writ": 7116,
      "ĠNY": 7117,
      "Ġfuck": 7118,
      "ĠKh": 7119,
      "Ġemissions": 7120,
      "Ġclosely": 7121,
      "Ġapplied": 7122,
      "ĠHouston": 7123,
      "Ġsav": 7124,
      "oked": 7125,
      "ĠDig": 7126,
      "Ġtotally": 7127,
      "Ġatmosp": 7128,
      "GBT": 7129,
      "ĠCat": 7130,
      "Ġprofession": 7131,
      "Ġmine": 7132,
      "Ġdedicated": 7133,
      "Ġremark": 7134,
      "ãģ¿": 7135,
      "ĠReport": 7136,
      "Ġprovince": 7137,
      "Ġacting": 7138,
      "Î´": 7139,
      "Ġsplit": 7140,
      "hew": 7141,
      "Ġdiagn": 7142,
      "ä¸Ĭ": 7143,
      "Ġih": 7144,
      "Ġindustrial": 7145,
      "Ġhoping": 7146,
      "å°": 7147,
      "fortunately": 7148,
      "Ġaccepted": 7149,
      "Ġsees": 7150,
      "Ġsanctions": 7151,
      "Ġsigning": 7152,
      "Ġbatt": 7153,
      "Ġkit": 7154,
      "Ġheads": 7155,
      "Ġrow": 7156,
      "',": 7157,
      "iscal": 7158,
      "Ġprohib": 7159,
      "Ġvolume": 7160,
      "ĠFurther": 7161,
      "ĠSpecial": 7162,
      "Ġcircumstances": 7163,
      "ĠCH": 7164,
      "ĠNASA": 7165,
      "ÑĢÐ¾Ð²": 7166,
      "gi": 7167,
      "esc": 7168,
      "break": 7169,
      "Ġwave": 7170,
      "Ġcompetitive": 7171,
      "Ġhardware": 7172,
      "ĠEric": 7173,
      "ĠMuslims": 7174,
      "ĠPerhaps": 7175,
      "Ġharder": 7176,
      "ĠCall": 7177,
      "ĠRet": 7178,
      "htt": 7179,
      "Ġvolunte": 7180,
      "aan": 7181,
      "aze": 7182,
      "She": 7183,
      "Ġhousehold": 7184,
      "ĠColumb": 7185,
      "pool": 7186,
      "Ġcomprom": 7187,
      "Ġexplan": 7188,
      "Ġpip": 7189,
      "Ġrequests": 7190,
      "Ã¥r": 7191,
      "Ġcreative": 7192,
      "Ġgang": 7193,
      "Ġneither": 7194,
      "ifest": 7195,
      "Ġremote": 7196,
      "Ġadults": 7197,
      "ĠWarren": 7198,
      "Ġintention": 7199,
      "Ġcounsel": 7200,
      "ĠStat": 7201,
      "Ġhan": 7202,
      "ÑĢÑĭ": 7203,
      "log": 7204,
      "Ġbroadcast": 7205,
      "Ġcombination": 7206,
      "Ġfees": 7207,
      "woman": 7208,
      "ç´": 7209,
      "ograp": 7210,
      "ĠDiv": 7211,
      "Ġantic": 7212,
      "ĠGar": 7213,
      "ĠGames": 7214,
      "Ġsending": 7215,
      "xy": 7216,
      "Ġempt": 7217,
      "Ġexcellent": 7218,
      "Ġsharp": 7219,
      "ĠRights": 7220,
      "Ġsnow": 7221,
      "itarian": 7222,
      "ĠAp": 7223,
      "88": 7224,
      "Ġtip": 7225,
      "Ġsustain": 7226,
      "DS": 7227,
      "Ġboys": 7228,
      "Ġcru": 7229,
      "Ġyounger": 7230,
      "Ġevol": 7231,
      "ĠAL": 7232,
      "ĠKong": 7233,
      "Ġinterpret": 7234,
      "ystem": 7235,
      "unes": 7236,
      "ila": 7237,
      "ÃŃs": 7238,
      "uros": 7239,
      "Ġclassic": 7240,
      "Ġgoods": 7241,
      "Ġembr": 7242,
      "Ġfashion": 7243,
      "Ġwelcome": 7244,
      "iu": 7245,
      "éĽ": 7246,
      "Ġtranspa": 7247,
      "ocket": 7248,
      "Ġcomfortable": 7249,
      "Ġcommunication": 7250,
      "Ġclar": 7251,
      "Ġliqu": 7252,
      "Ġemotional": 7253,
      "Ġobserv": 7254,
      "idade": 7255,
      "Ġkil": 7256,
      "Ġprofit": 7257,
      "Ġfundamental": 7258,
      "Ġfewer": 7259,
      "ĠNick": 7260,
      "çī": 7261,
      "ĠBrook": 7262,
      "ĠDisney": 7263,
      "Ġcontroversial": 7264,
      "æķ": 7265,
      "Ġseats": 7266,
      "ĠJava": 7267,
      "ĠCop": 7268,
      "Ġexplore": 7269,
      "lan": 7270,
      "Ġfasc": 7271,
      "Ġbegins": 7272,
      "ĠJordan": 7273,
      "Ġcrash": 7274,
      "Ð¾Ð»ÑĮ": 7275,
      "Ġplayoff": 7276,
      "ĠCub": 7277,
      "game": 7278,
      "Ġmotion": 7279,
      "æĪ": 7280,
      "77": 7281,
      "Ġbattery": 7282,
      "ÅĽ": 7283,
      "Ġmechanism": 7284,
      "Ġlocations": 7285,
      "Ġteachers": 7286,
      "Ġharass": 7287,
      "Ð°Ð»Ð¸": 7288,
      "åį": 7289,
      "wa": 7290,
      "zt": 7291,
      "ĠDid": 7292,
      "66": 7293,
      "gent": 7294,
      "ĠWay": 7295,
      "ĠStand": 7296,
      "ĠWH": 7297,
      "ĠAnt": 7298,
      "Ġmel": 7299,
      "Ġdecline": 7300,
      "iano": 7301,
      "Ġwins": 7302,
      "Ġproperties": 7303,
      "Ġcycle": 7304,
      "ĠKey": 7305,
      "ï¿½": 7306,
      "Ð°Ð¼": 7307,
      "Ġpu": 7308,
      "To": 7309,
      "itals": 7310,
      "dro": 7311,
      "ÑģÑĮ": 7312,
      "ungen": 7313,
      "road": 7314,
      "ĠTot": 7315,
      "Ġmouth": 7316,
      "Ġao": 7317,
      "rome": 7318,
      "Ġsupports": 7319,
      "ologist": 7320,
      "Ġhistorical": 7321,
      "ĠSeattle": 7322,
      "ĠÐĿ": 7323,
      "èĢħ": 7324,
      "Ġfairly": 7325,
      "ĠCome": 7326,
      "Ġemails": 7327,
      "Ġtout": 7328,
      "wart": 7329,
      "Ġexciting": 7330,
      "hips": 7331,
      "ĠWars": 7332,
      "iences": 7333,
      "Ġavo": 7334,
      "Ġsucceed": 7335,
      "ĠYoung": 7336,
      "Ġdeals": 7337,
      "Ġrelationships": 7338,
      "Ġplatforms": 7339,
      "Ġserving": 7340,
      "list": 7341,
      "æŃ": 7342,
      "Ġchairman": 7343,
      "ĠFort": 7344,
      "ĠABC": 7345,
      "ĠJr": 7346,
      "isp": 7347,
      "ĠLoading": 7348,
      "Ð¸Ð»": 7349,
      "Ġoverwhel": 7350,
      "Ġcarrying": 7351,
      "ĠDavis": 7352,
      "Ġtemperature": 7353,
      "Ġshots": 7354,
      "overy": 7355,
      "ĠClass": 7356,
      "Ġbitcoin": 7357,
      "Ġdeeply": 7358,
      "Ġreput": 7359,
      "erves": 7360,
      "oming": 7361,
      "ĠStephen": 7362,
      "Ġsky": 7363,
      "Ġmoder": 7364,
      "iation": 7365,
      "ÑģÐºÐ¸": 7366,
      "rac": 7367,
      "aba": 7368,
      "phy": 7369,
      "Ġconven": 7370,
      "å¿": 7371,
      "ĠPalestinian": 7372,
      "ĠSwed": 7373,
      "Ġemployee": 7374,
      "Ġschedule": 7375,
      "iament": 7376,
      "Ġtechnologies": 7377,
      "alo": 7378,
      "Ġcampus": 7379,
      "iana": 7380,
      "ĠLove": 7381,
      "ĠSn": 7382,
      "ĠCompany": 7383,
      "ĠProgram": 7384,
      "Ġformat": 7385,
      "èĩ": 7386,
      "ami": 7387,
      "Ġgrown": 7388,
      "ĠWater": 7389,
      "lock": 7390,
      "Ġscheme": 7391,
      "Ġacts": 7392,
      "Ġphen": 7393,
      "ĠGM": 7394,
      "uan": 7395,
      "Ġ39": 7396,
      "Ġsubsequ": 7397,
      "ĠHong": 7398,
      "Ġsentence": 7399,
      "Ġkinds": 7400,
      "ether": 7401,
      "Ġcloud": 7402,
      "Getty": 7403,
      "iki": 7404,
      "ĠKelly": 7405,
      "59": 7406,
      "ĠTurk": 7407,
      "Ġli": 7408,
      "Ġexistence": 7409,
      "ĠIT": 7410,
      "orith": 7411,
      "Ġmarried": 7412,
      "Ġtournament": 7413,
      "cur": 7414,
      "roit": 7415,
      "Ġinstr": 7416,
      "Ġpromised": 7417,
      "enezuel": 7418,
      "Ġflex": 7419,
      "Our": 7420,
      "Ġdealing": 7421,
      "Ġcomplaint": 7422,
      "Ġalert": 7423,
      "Ġamid": 7424,
      "ae": 7425,
      "Ġmeat": 7426,
      "ĠFC": 7427,
      "Ġsquare": 7428,
      "ĠÏĦÎ·": 7429,
      "Ġmanner": 7430,
      "ĠEduc": 7431,
      "Ġsimpl": 7432,
      "Ġwake": 7433,
      "ĠData": 7434,
      "Ġsymbol": 7435,
      "Ġdefined": 7436,
      "igation": 7437,
      "Ġmaximum": 7438,
      "Ġusual": 7439,
      "Ġscr": 7440,
      "Ġtu": 7441,
      "Ġstruck": 7442,
      "Ġworried": 7443,
      "obile": 7444,
      "Ġlies": 7445,
      "Ġsongs": 7446,
      "ĠSP": 7447,
      "âĢĺ": 7448,
      "Ġpregn": 7449,
      "anes": 7450,
      "Ġwalked": 7451,
      "Ġfake": 7452,
      "fire": 7453,
      "ĠSource": 7454,
      "ĠForeign": 7455,
      "Ġscored": 7456,
      "Ġopponent": 7457,
      "zens": 7458,
      "ĠCry": 7459,
      "Ġcheap": 7460,
      "Ġextent": 7461,
      "avor": 7462,
      "ÑĢÐµÐ´": 7463,
      "Ġanonym": 7464,
      "ĠLas": 7465,
      "Ġsurrounding": 7466,
      "Ġphilosoph": 7467,
      "ĠISIS": 7468,
      "Ġmainstream": 7469,
      "Ġopposite": 7470,
      "Ġowned": 7471,
      "Ġtap": 7472,
      "Ġdivision": 7473,
      "Ġproof": 7474,
      "bel": 7475,
      "WS": 7476,
      "Ġcausing": 7477,
      "Ġalle": 7478,
      "Ġplastic": 7479,
      "Ġhabit": 7480,
      "Ġproperly": 7481,
      "ffect": 7482,
      "ĠTit": 7483,
      "emen": 7484,
      "anto": 7485,
      "Ġattempted": 7486,
      "Ġknowing": 7487,
      "print": 7488,
      "axy": 7489,
      "ĠDar": 7490,
      "ÑĩÐµ": 7491,
      "ĠMedic": 7492,
      "Ġtrick": 7493,
      "Ġpassion": 7494,
      "Ġmetal": 7495,
      "Ġguarant": 7496,
      "Ġtiny": 7497,
      "Ġconspir": 7498,
      "Ġwatched": 7499,
      "ÏĨ": 7500,
      "Ġpromote": 7501,
      "How": 7502,
      "vol": 7503,
      "Ġexpression": 7504,
      "sters": 7505,
      "Ġjournalists": 7506,
      "Ġlikes": 7507,
      "osi": 7508,
      "ĠHot": 7509,
      "uns": 7510,
      "cow": 7511,
      "Ġliterally": 7512,
      "ĠJews": 7513,
      "Ð°Ð²": 7514,
      "Ġicon": 7515,
      "Ġvulnerable": 7516,
      "foot": 7517,
      "ĠAgency": 7518,
      "ĠPay": 7519,
      "NC": 7520,
      "Ġcha": 7521,
      "Ã¤Ã¤": 7522,
      "Ġfinance": 7523,
      "Ġearned": 7524,
      "ĠÐ±Ñĭ": 7525,
      "Ġinvolving": 7526,
      "Ġchose": 7527,
      "ĠInte": 7528,
      "Ġring": 7529,
      "ĠHollywood": 7530,
      "Ġdeleg": 7531,
      "Ġrecon": 7532,
      "Ġapolog": 7533,
      "ĠColl": 7534,
      "Ġni": 7535,
      "ĠConf": 7536,
      "Ġ2003": 7537,
      "Ð¾Ð¿": 7538,
      "ĠJersey": 7539,
      "len": 7540,
      "ums": 7541,
      "Ã¹": 7542,
      "ĠOld": 7543,
      "Ġpolls": 7544,
      "Ġdatabase": 7545,
      "ĠWild": 7546,
      "Ġmeetings": 7547,
      "ĠVideo": 7548,
      "ÄŁ": 7549,
      "agan": 7550,
      "Ġdescribe": 7551,
      "Ġcrazy": 7552,
      "gery": 7553,
      "ĠAsian": 7554,
      "uma": 7555,
      "ĠLord": 7556,
      "Ġunus": 7557,
      "rene": 7558,
      "Ġperformed": 7559,
      "ĠWin": 7560,
      "Ġreward": 7561,
      "Ġsurveillance": 7562,
      "Ġartists": 7563,
      "ãĥŀ": 7564,
      "ĠLabor": 7565,
      "Ġva": 7566,
      "ĠAh": 7567,
      "Ġsubsid": 7568,
      "Ġstrange": 7569,
      "ĠBrad": 7570,
      "umber": 7571,
      "ĠProte": 7572,
      "Ġ1980": 7573,
      "Ġphase": 7574,
      "Ġexposed": 7575,
      "Ġsomewhat": 7576,
      "09": 7577,
      "ĠJesus": 7578,
      "ĠFinally": 7579,
      "aland": 7580,
      "ĠFund": 7581,
      "ĠGeorgia": 7582,
      "ĠAmong": 7583,
      "Ġintel": 7584,
      "Ġsel": 7585,
      "RC": 7586,
      "Ġwire": 7587,
      "ĠStart": 7588,
      "ĠBarack": 7589,
      "ĠBrian": 7590,
      "Ġsister": 7591,
      "rich": 7592,
      "lar": 7593,
      "ĠÈĻi": 7594,
      "iveness": 7595,
      "Ġobst": 7596,
      "Ġbench": 7597,
      "Ġsuicide": 7598,
      "âĢĻ,": 7599,
      "Ġ55": 7600,
      "Ġbull": 7601,
      "azi": 7602,
      "Ġgap": 7603,
      "ĠUse": 7604,
      "ĠOper": 7605,
      "itar": 7606,
      "Ġimpressive": 7607,
      "acking": 7608,
      "Ġmagazine": 7609,
      "nam": 7610,
      "çĻº": 7611,
      "LC": 7612,
      "Ġanx": 7613,
      "Ġnoticed": 7614,
      "Ġskill": 7615,
      "ĠParliament": 7616,
      "ãĤ°": 7617,
      "rors": 7618,
      "Ġmistake": 7619,
      "ĠId": 7620,
      "Ġcryptocurrency": 7621,
      "ĠHarris": 7622,
      "ÐµÐ»ÑĮ": 7623,
      "Ġcou": 7624,
      "ãĤĪãģĨ": 7625,
      "Ġfixed": 7626,
      "ĠMoh": 7627,
      "Ġikke": 7628,
      "Ġsubscrib": 7629,
      "Ġdiet": 7630,
      "Ã©es": 7631,
      "Ġextended": 7632,
      "Ġties": 7633,
      "Ġnewslet": 7634,
      "Ġdeveloper": 7635,
      "ĠVenezuel": 7636,
      "weight": 7637,
      "AG": 7638,
      "Ġurban": 7639,
      "pan": 7640,
      "Ġnomine": 7641,
      "ĠMah": 7642,
      "ĠMas": 7643,
      "ĠDNA": 7644,
      "Ġmatches": 7645,
      "Ġnos": 7646,
      "ĠTurn": 7647,
      "fall": 7648,
      "Ġparam": 7649,
      "icken": 7650,
      "asts": 7651,
      "ocation": 7652,
      "Ġopponents": 7653,
      "âĸĪ": 7654,
      "ĠTaylor": 7655,
      "Ġ2001": 7656,
      "ischen": 7657,
      "Ġwithdraw": 7658,
      "ĠAS": 7659,
      "ĠBa": 7660,
      "ĠcÄĥ": 7661,
      "Ġjournalist": 7662,
      "fol": 7663,
      "ĠMiller": 7664,
      "ÃĤ": 7665,
      "ials": 7666,
      "luding": 7667,
      "åĩº": 7668,
      "ĠLGBT": 7669,
      "iffs": 7670,
      "Ġputs": 7671,
      "ĠWilson": 7672,
      "ĠWhich": 7673,
      "Ġaside": 7674,
      "ographic": 7675,
      "Ġcontracts": 7676,
      "Ġheight": 7677,
      "ĠCharles": 7678,
      "Ġcrucial": 7679,
      "adel": 7680,
      "Ġcoffee": 7681,
      "anz": 7682,
      "Ġversions": 7683,
      "ĠReview": 7684,
      "Ġstudio": 7685,
      "Ġblame": 7686,
      "Ġcontributed": 7687,
      "ĠCIA": 7688,
      "aka": 7689,
      "Ġru": 7690,
      "ĠÅŁ": 7691,
      "Ġclaiming": 7692,
      "Ġfrequently": 7693,
      "Ġcondem": 7694,
      "Ġinfl": 7695,
      "Ġassistance": 7696,
      "inson": 7697,
      "Ġauthors": 7698,
      "Ġrus": 7699,
      "Ïİ": 7700,
      "08": 7701,
      "sole": 7702,
      "ĠPolicy": 7703,
      "utral": 7704,
      "Ġencourage": 7705,
      "enders": 7706,
      "Ġattacked": 7707,
      "Ġnarrative": 7708,
      "Ġselection": 7709,
      "esome": 7710,
      "ÑĤÑĮ": 7711,
      "Ġalive": 7712,
      "Ġforth": 7713,
      "Ġregistered": 7714,
      "Ġtopic": 7715,
      "pected": 7716,
      "å¸": 7717,
      "Ġdrag": 7718,
      "unning": 7719,
      "Ġsand": 7720,
      "ĠON": 7721,
      "Ġteacher": 7722,
      "mod": 7723,
      "chers": 7724,
      "04": 7725,
      "ÑģÑĤÐ¸": 7726,
      "Ġrig": 7727,
      "ĠIowa": 7728,
      "Î¸": 7729,
      "ĠNBC": 7730,
      "anchester": 7731,
      "Ġdry": 7732,
      "esta": 7733,
      "Ġdesper": 7734,
      "Ġdepth": 7735,
      "jet": 7736,
      "Ġrealized": 7737,
      "Ġincredible": 7738,
      "Ġfolks": 7739,
      "Ġtur": 7740,
      "Ġprecise": 7741,
      "Ġdiscover": 7742,
      "ĠCredit": 7743,
      "Ġtod": 7744,
      "har": 7745,
      "Ġunknown": 7746,
      "ĠSov": 7747,
      "Ġwinter": 7748,
      "Ġdella": 7749,
      "Ġideal": 7750,
      "Ġanticip": 7751,
      "abinet": 7752,
      "Ġprofile": 7753,
      "ĠBat": 7754,
      "iples": 7755,
      "Ġgest": 7756,
      "ãĥĨ": 7757,
      "ĠJosh": 7758,
      "%)": 7759,
      "Ġpand": 7760,
      "Ġthreatened": 7761,
      "Ġdelivery": 7762,
      "vor": 7763,
      "Ġnarrow": 7764,
      "Ġadvis": 7765,
      "flix": 7766,
      "Ġ42": 7767,
      "Ġtied": 7768,
      "Ġterritory": 7769,
      "Ġadapt": 7770,
      "ĠKer": 7771,
      "ĠCruz": 7772,
      "Ġsole": 7773,
      "Ġwage": 7774,
      "encia": 7775,
      "ĠLink": 7776,
      "ÐµÐº": 7777,
      "ĠVis": 7778,
      "Ġtruck": 7779,
      "Ġtort": 7780,
      "Ġvillage": 7781,
      "prise": 7782,
      "Ġreferred": 7783,
      "Ġdefeat": 7784,
      "ĠPremier": 7785,
      "nen": 7786,
      "oster": 7787,
      "Ġretire": 7788,
      "Ġinspired": 7789,
      "Ġpled": 7790,
      "rehens": 7791,
      "ĠUt": 7792,
      "Ġsuddenly": 7793,
      "Ġwinner": 7794,
      "Ġcrypto": 7795,
      "Ġslowly": 7796,
      "empl": 7797,
      "Ġconvert": 7798,
      "×ķ×": 7799,
      "ilding": 7800,
      "Ġcounty": 7801,
      "rep": 7802,
      "Ġobtained": 7803,
      "ĠBernie": 7804,
      "Ġbike": 7805,
      "Ġbear": 7806,
      "Ġsquad": 7807,
      "Ġsweet": 7808,
      "osit": 7809,
      "ĠArch": 7810,
      "oration": 7811,
      "Ġlicense": 7812,
      "Ġsouthern": 7813,
      "ĠSpan": 7814,
      "56": 7815,
      "bn": 7816,
      "uri": 7817,
      "Ġrefugees": 7818,
      "fr": 7819,
      "Ġlimits": 7820,
      "ĠHave": 7821,
      "Ġloan": 7822,
      "Ġeating": 7823,
      "ismo": 7824,
      "allas": 7825,
      "ĠRog": 7826,
      "Ġnorthern": 7827,
      "Cl": 7828,
      "Ġenable": 7829,
      "iami": 7830,
      "42": 7831,
      "Ġfounder": 7832,
      "×Ļ×": 7833,
      "ĠLew": 7834,
      "Ġchampion": 7835,
      "Ġbrowser": 7836,
      "ĠFood": 7837,
      "ĠSteven": 7838,
      "Ġsoul": 7839,
      "Ġancient": 7840,
      "ãĤµ": 7841,
      "Ġtransactions": 7842,
      "ĠCamer": 7843,
      "Ġplot": 7844,
      "Ġresistance": 7845,
      "Ġsobre": 7846,
      "ifer": 7847,
      "ĠCross": 7848,
      "Ġfemin": 7849,
      "ĠSat": 7850,
      "Ð³Ð¾": 7851,
      "OD": 7852,
      "ĠAnth": 7853,
      "ĠGreg": 7854,
      "Ġcos": 7855,
      "Ġcorruption": 7856,
      "edia": 7857,
      "car": 7858,
      "ĠIrish": 7859,
      "Ġ($": 7860,
      "ĠNations": 7861,
      "ureau": 7862,
      "Ġanswers": 7863,
      "Ġextrem": 7864,
      "ãĤ£": 7865,
      "41": 7866,
      "Ġbasket": 7867,
      "Ġdogs": 7868,
      "Ġdress": 7869,
      "Ġfalling": 7870,
      "Ġselected": 7871,
      "ingu": 7872,
      "Ġalgorith": 7873,
      "Ġfeedback": 7874,
      "Ġevolution": 7875,
      "Ġcommunications": 7876,
      "Ġuncertain": 7877,
      "force": 7878,
      "boy": 7879,
      "ĠUnfortunately": 7880,
      "Ġdisag": 7881,
      "Ġlatter": 7882,
      "apse": 7883,
      "åī": 7884,
      "Ġtamb": 7885,
      "Ġrecognize": 7886,
      "EMENT": 7887,
      "300": 7888,
      "Ġdemands": 7889,
      "gender": 7890,
      "Ġdim": 7891,
      "idelines": 7892,
      "ems": 7893,
      "Ġreveal": 7894,
      "Ġreporter": 7895,
      "ĠTes": 7896,
      "Ġcoalition": 7897,
      "Ġactor": 7898,
      "ĠMayor": 7899,
      "Ġfranchise": 7900,
      "ulous": 7901,
      "Ġschol": 7902,
      "regon": 7903,
      "Ġreplaced": 7904,
      "name": 7905,
      "Ġtrees": 7906,
      "Ġmanip": 7907,
      "Ġcontinuing": 7908,
      "Ġlawyers": 7909,
      "tle": 7910,
      "utch": 7911,
      "Ġpover": 7912,
      "ĠDetroit": 7913,
      "Ġempty": 7914,
      "ĠLive": 7915,
      "Ġ65": 7916,
      "sea": 7917,
      "ĠCare": 7918,
      "Ġcomponents": 7919,
      "ned": 7920,
      "ayers": 7921,
      "ĠFoot": 7922,
      "Ġassert": 7923,
      "ĠManchester": 7924,
      "Ġpersonally": 7925,
      "Ġanyway": 7926,
      "Ġexhib": 7927,
      "Ġrestrictions": 7928,
      "Ġunderstood": 7929,
      "eping": 7930,
      "Ġaudio": 7931,
      "Ġett": 7932,
      "ĠCivil": 7933,
      "ĠList": 7934,
      "ĠAcadem": 7935,
      "Ġregularly": 7936,
      "este": 7937,
      "UN": 7938,
      "ells": 7939,
      "umer": 7940,
      "blic": 7941,
      "Ġwid": 7942,
      "Ġrape": 7943,
      "ĠHom": 7944,
      "è¡Į": 7945,
      "Ġpurposes": 7946,
      "Ġassume": 7947,
      "ĠMoscow": 7948,
      "Ġautomatically": 7949,
      "pes": 7950,
      "Ġspokesperson": 7951,
      "ĠNorthern": 7952,
      "hentic": 7953,
      "bi": 7954,
      "Ġplug": 7955,
      "lad": 7956,
      "ĠNight": 7957,
      "argo": 7958,
      "inf": 7959,
      "ĠCatholic": 7960,
      "sm": 7961,
      "ĠUr": 7962,
      "ĠDevelopment": 7963,
      "43": 7964,
      "ĠIranian": 7965,
      "ĠJudge": 7966,
      "ĠSuch": 7967,
      "ĠÐľ": 7968,
      "Ġworldwide": 7969,
      "07": 7970,
      "Ġcourts": 7971,
      "Ġoutcome": 7972,
      "Ġell": 7973,
      "äºĭ": 7974,
      "Ġtou": 7975,
      "ĠGall": 7976,
      "Ġelectricity": 7977,
      "Ġegg": 7978,
      "Ġsind": 7979,
      "Ġtank": 7980,
      "Ġpoverty": 7981,
      "%,": 7982,
      "Ġsatell": 7983,
      "rimination": 7984,
      "ÏĦÎ±": 7985,
      "Ġoccasion": 7986,
      "otes": 7987,
      "ĠEmail": 7988,
      "Ġcompens": 7989,
      "Ġshr": 7990,
      "Ġsample": 7991,
      "Ġconstant": 7992,
      "Ġunemploy": 7993,
      "Ġtheme": 7994,
      "iments": 7995,
      "Ġthread": 7996,
      "zz": 7997,
      "Ġrejected": 7998,
      "Ġuniverse": 7999,
      "86": 8000,
      "ĠMinnes": 8001,
      "Ġstronger": 8002,
      "Ġbrut": 8003,
      "Ġdriven": 8004,
      "06": 8005,
      "Ø§ÙĨ": 8006,
      "Ġaccurate": 8007,
      "Ġsolve": 8008,
      "stone": 8009,
      "Ġarguments": 8010,
      "mont": 8011,
      "ĠDE": 8012,
      "Con": 8013,
      "Ġrival": 8014,
      "Ġestate": 8015,
      "raid": 8016,
      "Ġhonor": 8017,
      "ĠMajor": 8018,
      "Ġinformed": 8019,
      "Ġgenerate": 8020,
      "Ġcutting": 8021,
      "ĠÐł": 8022,
      "ĠAFP": 8023,
      "ultural": 8024,
      "Æ°": 8025,
      "Ġjun": 8026,
      "Ġbills": 8027,
      "Ġdirected": 8028,
      "Ġending": 8029,
      "Ãĥ": 8030,
      "oric": 8031,
      "ĠFull": 8032,
      "ä¿": 8033,
      "Ġtas": 8034,
      "Ġnut": 8035,
      "Ġgaming": 8036,
      "Ġjur": 8037,
      "ĠDark": 8038,
      "ogen": 8039,
      "ked": 8040,
      "Ø§Øª": 8041,
      "ĠGov": 8042,
      "Ġdur": 8043,
      "xic": 8044,
      "Ġhits": 8045,
      "ĠExt": 8046,
      "Im": 8047,
      "ĠPel": 8048,
      "ĠEnv": 8049,
      "Ġterrorism": 8050,
      "essed": 8051,
      "Ġchances": 8052,
      "Ġsymptoms": 8053,
      "idency": 8054,
      "Ġstrongly": 8055,
      "Ġkeeps": 8056,
      "Ġmarch": 8057,
      "ĠCentre": 8058,
      "Ġofficially": 8059,
      "At": 8060,
      "Ġbunch": 8061,
      "ifications": 8062,
      "orse": 8063,
      "Ġequival": 8064,
      "ĠSea": 8065,
      "rete": 8066,
      "Ã¸r": 8067,
      "ä¼ļ": 8068,
      "UL": 8069,
      "Ġassistant": 8070,
      "ceived": 8071,
      "Ġindex": 8072,
      "ĠMcD": 8073,
      "Ġparking": 8074,
      "Ġtherap": 8075,
      "Ġ400": 8076,
      "kel": 8077,
      "Ġphenomen": 8078,
      "ĠInformation": 8079,
      "Ġprotocol": 8080,
      "Ġcritics": 8081,
      "Ġpersonnel": 8082,
      "Ġfifth": 8083,
      "ĠNever": 8084,
      "Ġsomehow": 8085,
      "Ġanymore": 8086,
      "Ġincredibly": 8087,
      "ĠSenator": 8088,
      "ĠMcG": 8089,
      "Ġmail": 8090,
      "earing": 8091,
      "Ġreturning": 8092,
      "Ġoperate": 8093,
      "mal": 8094,
      "Ġti": 8095,
      "Ġdestroyed": 8096,
      "uce": 8097,
      "Ġapproximately": 8098,
      "ĠÎ´": 8099,
      "Ġë": 8100,
      "Ġaimed": 8101,
      "ĠJac": 8102,
      "Ex": 8103,
      "ĠestÃ¡": 8104,
      "Ġemployment": 8105,
      "rently": 8106,
      "Ġfeatured": 8107,
      "Ġsight": 8108,
      "Ġentr": 8109,
      "57": 8110,
      "ĠEnd": 8111,
      "Ġaspects": 8112,
      "Ġprivile": 8113,
      "Ġimper": 8114,
      "åĮ": 8115,
      "Ġkan": 8116,
      "ĠSH": 8117,
      "ĠÃ¼ber": 8118,
      "Ġdozen": 8119,
      "Ġrecovery": 8120,
      "Ġregions": 8121,
      "Ġconstantly": 8122,
      "iy": 8123,
      "Ġcontrolled": 8124,
      "Ġcategory": 8125,
      "weet": 8126,
      "Ġaccus": 8127,
      "tense": 8128,
      "Ġgotten": 8129,
      "Î¹Î±": 8130,
      "Ġpropag": 8131,
      "Ġdict": 8132,
      "Ġrelief": 8133,
      "Ġagric": 8134,
      "Ġruled": 8135,
      "Ġobserved": 8136,
      "Ġformed": 8137,
      "Ġsomebody": 8138,
      "Ġcyber": 8139,
      "Ġ150": 8140,
      "ockey": 8141,
      "ecut": 8142,
      "Ġhal": 8143,
      "Ġworker": 8144,
      "Ġpriority": 8145,
      "star": 8146,
      "ĠMinnesota": 8147,
      "Ġillustr": 8148,
      "Ġticket": 8149,
      "Ġking": 8150,
      "wo": 8151,
      "Ġmagic": 8152,
      "Ġsignal": 8153,
      "ĠBru": 8154,
      "des": 8155,
      "ieg": 8156,
      "ĠAND": 8157,
      "Ġsomewhere": 8158,
      "App": 8159,
      "ĠÃ¤r": 8160,
      "Ġwest": 8161,
      "osta": 8162,
      "ĠOS": 8163,
      "amos": 8164,
      "osis": 8165,
      "Ġtransm": 8166,
      "Ġextensive": 8167,
      "ĠSociety": 8168,
      "ãĥĩ": 8169,
      "TIS": 8170,
      "Ġreasonable": 8171,
      "Ġstable": 8172,
      "Ġmerely": 8173,
      "ĠSon": 8174,
      "Ġstuck": 8175,
      "Ġnewly": 8176,
      "ensity": 8177,
      "ĠArabia": 8178,
      "ĠConstitution": 8179,
      "ĠMiami": 8180,
      "abama": 8181,
      "Ġestablish": 8182,
      "Ã¢n": 8183,
      "Ð°Ð½Ð¸": 8184,
      "ĠRen": 8185,
      "owed": 8186,
      "Ġfer": 8187,
      "Ġestimates": 8188,
      "Ġnegotiations": 8189,
      "Ġtag": 8190,
      "PC": 8191,
      "Ġcomparison": 8192,
      "ĠNetflix": 8193,
      "Ġpermanent": 8194,
      "Ġracist": 8195,
      "Ġraising": 8196,
      "Ġspr": 8197,
      "æĶ": 8198,
      "à¥ĩ": 8199,
      "ĠOnt": 8200,
      "ĠPerson": 8201,
      "========": 8202,
      "Ġextension": 8203,
      "Ġchoices": 8204,
      "ĠJoseph": 8205,
      "Ġfinds": 8206,
      "JP": 8207,
      "Ġamounts": 8208,
      "ĠZealand": 8209,
      "Ġimplementation": 8210,
      "iry": 8211,
      "rary": 8212,
      "ĠÐ²Ñĭ": 8213,
      "MS": 8214,
      "Ġcomponent": 8215,
      "Ġapartment": 8216,
      "Ð½Ñı": 8217,
      "ĠOregon": 8218,
      "åĪĨ": 8219,
      "ĠSouthern": 8220,
      "Ġexception": 8221,
      "lights": 8222,
      "Ġsituations": 8223,
      "Ġchosen": 8224,
      "Ġenorm": 8225,
      "ĠArtic": 8226,
      "Ġboot": 8227,
      "umin": 8228,
      "Ġperfectly": 8229,
      "ĠBloom": 8230,
      "inity": 8231,
      "iform": 8232,
      "58": 8233,
      "acked": 8234,
      "ĠNation": 8235,
      "Ġspin": 8236,
      "Ġ47": 8237,
      "idos": 8238,
      "Ġdrawn": 8239,
      "American": 8240,
      "Ġpace": 8241,
      "Ġescape": 8242,
      "Ġtypical": 8243,
      "ĠCB": 8244,
      "ĠLind": 8245,
      "ĠPriv": 8246,
      "Ġfiscal": 8247,
      "Ġcust": 8248,
      "greg": 8249,
      "éĥ": 8250,
      "Ġfields": 8251,
      "Ġjudg": 8252,
      "Ġnobody": 8253,
      "ications": 8254,
      "ship": 8255,
      "Ġaffili": 8256,
      "ç¤": 8257,
      "Ġscenario": 8258,
      "Ġweird": 8259,
      "bal": 8260,
      "Ġstead": 8261,
      "iciency": 8262,
      "las": 8263,
      "ĠMinistry": 8264,
      "Ġmanifest": 8265,
      "Ġprocesses": 8266,
      "anna": 8267,
      "Ġfarmers": 8268,
      "illy": 8269,
      "Ġ2002": 8270,
      "Ġaggressive": 8271,
      "Ġroster": 8272,
      "Ġsig": 8273,
      "Ð°ÑĢ": 8274,
      "æĦ": 8275,
      "ĠFormer": 8276,
      "Ġdefinition": 8277,
      "ques": 8278,
      "ĠâĢĻ": 8279,
      "ĠMir": 8280,
      "Ġveteran": 8281,
      "ĠOrig": 8282,
      "Ġvaluable": 8283,
      "Ġsuccessfully": 8284,
      "Ġfirms": 8285,
      "resa": 8286,
      "ĠPA": 8287,
      "taining": 8288,
      "izar": 8289,
      "ĠEarlier": 8290,
      "Ġtestim": 8291,
      "</": 8292,
      "worth": 8293,
      "Ãºblic": 8294,
      "ÄĽ": 8295,
      "abs": 8296,
      "Ġcoordin": 8297,
      "Ġroutine": 8298,
      "Ġ64": 8299,
      "Ġextract": 8300,
      "Ġads": 8301,
      "ĠHard": 8302,
      "Ġelsewhere": 8303,
      "ova": 8304,
      "Ġengage": 8305,
      "Ġtor": 8306,
      "born": 8307,
      "Ġconcluded": 8308,
      "Ġhistoric": 8309,
      "Ġont": 8310,
      "ĠAlabama": 8311,
      "eda": 8312,
      "03": 8313,
      "Ġdar": 8314,
      "inations": 8315,
      "Ġpermission": 8316,
      "ĠAnton": 8317,
      "ĠOK": 8318,
      "Ġinspir": 8319,
      "Ġincent": 8320,
      "ĠSpain": 8321,
      "isi": 8322,
      "Ġsont": 8323,
      "found": 8324,
      "Ġangry": 8325,
      "Ġcomplicated": 8326,
      "Ġ44": 8327,
      "uto": 8328,
      "ĠDead": 8329,
      "Ġhouses": 8330,
      "ede": 8331,
      "ĠDallas": 8332,
      "ãģ«ãģª": 8333,
      "rencies": 8334,
      "ĠUsing": 8335,
      "ext": 8336,
      "Ġdollar": 8337,
      "Ġeast": 8338,
      "Ġengaged": 8339,
      "ferences": 8340,
      "Ġgranted": 8341,
      "Ġblocks": 8342,
      "ĠProt": 8343,
      "ilipp": 8344,
      "Ġze": 8345,
      "å±": 8346,
      "ĠCore": 8347,
      "Ġconclusion": 8348,
      "ÃŃtic": 8349,
      "Ġmachines": 8350,
      "Ġenthus": 8351,
      "cription": 8352,
      "ĠBlock": 8353,
      "inding": 8354,
      "Ġinnoc": 8355,
      "Ġspark": 8356,
      "Ġevil": 8357,
      "ilarly": 8358,
      "Ġcolon": 8359,
      "adi": 8360,
      "02": 8361,
      "Ġintellect": 8362,
      "ĠPen": 8363,
      "Ġexpectations": 8364,
      "Ġfoi": 8365,
      "Ġstretch": 8366,
      "oj": 8367,
      "Ġformal": 8368,
      "Ġterrible": 8369,
      "ĠSpanish": 8370,
      "ĠTurkish": 8371,
      "Ġroot": 8372,
      "ĠKat": 8373,
      "ĠUlt": 8374,
      "ĠIndeed": 8375,
      "çĶŁ": 8376,
      "Ġflying": 8377,
      "areness": 8378,
      "ï¼Į": 8379,
      "ijing": 8380,
      "Trump": 8381,
      "Ġavec": 8382,
      "uv": 8383,
      "ĠTony": 8384,
      "ĠLy": 8385,
      "Ġparticipate": 8386,
      "oli": 8387,
      "Ġemerged": 8388,
      "ĠCommunity": 8389,
      "ĠVR": 8390,
      "ĠPlus": 8391,
      "Ġatmosphere": 8392,
      "Ġwerden": 8393,
      "ĠADVER": 8394,
      "ĠMit": 8395,
      "ÐºÐ¾": 8396,
      "ĠÐ¸Ð·": 8397,
      "ĠMoore": 8398,
      "Ġgenerated": 8399,
      "ĠDoes": 8400,
      "ĠForm": 8401,
      "rea": 8402,
      "aga": 8403,
      "Ġoverse": 8404,
      "rific": 8405,
      "Ġgrant": 8406,
      "icate": 8407,
      "çĶ¨": 8408,
      "imo": 8409,
      "Ġairport": 8410,
      "ãĤŃ": 8411,
      "ãģ°": 8412,
      "ĠThus": 8413,
      "ĠÑĢÐµ": 8414,
      "Ġdozens": 8415,
      "ĠSever": 8416,
      "ĠSet": 8417,
      "Ġ46": 8418,
      "front": 8419,
      "ĠESP": 8420,
      "ìĿ": 8421,
      "æ¥": 8422,
      "Ġtent": 8423,
      "æĻĤ": 8424,
      "Ġpilot": 8425,
      "ATE": 8426,
      "ĠMedical": 8427,
      "Ġannounce": 8428,
      "Bl": 8429,
      "icket": 8430,
      "Ġrely": 8431,
      "ĠADVERTIS": 8432,
      "Ġacceler": 8433,
      "ĠThrough": 8434,
      "Ġexcess": 8435,
      "onde": 8436,
      "Ġnur": 8437,
      "Ġbusy": 8438,
      "Ġprogramming": 8439,
      "éĸĵ": 8440,
      "Ġvisited": 8441,
      "Ġot": 8442,
      "ĠPacific": 8443,
      "ĠSanta": 8444,
      "ãĥī": 8445,
      "Ġpenalty": 8446,
      "aux": 8447,
      "ului": 8448,
      "Ð°Ð»ÑĮ": 8449,
      "Ġfootage": 8450,
      "æ³": 8451,
      "Ġracial": 8452,
      "ĠKent": 8453,
      "Ġelev": 8454,
      "ĠLinux": 8455,
      "Ġmac": 8456,
      "Ã³n": 8457,
      "Ġtall": 8458,
      "Ġcontrols": 8459,
      "ĠProfessor": 8460,
      "Ġstruggling": 8461,
      "Ġexists": 8462,
      "Ġmanufacturing": 8463,
      "scape": 8464,
      "ĠDO": 8465,
      "Ġcaptured": 8466,
      "Ġbom": 8467,
      "Ġsurvive": 8468,
      "Ġregardless": 8469,
      "ungs": 8470,
      "Ġbacked": 8471,
      "ĠHay": 8472,
      "ĠBor": 8473,
      "uine": 8474,
      "ĠWas": 8475,
      "Ġelite": 8476,
      "Ġstim": 8477,
      "Ġrom": 8478,
      "))": 8479,
      "ĠSoviet": 8480,
      "Ġwww": 8481,
      "åĵ": 8482,
      "Ġillness": 8483,
      "Ġpi": 8484,
      "orted": 8485,
      "olen": 8486,
      "ĠChampionship": 8487,
      "oz": 8488,
      "gar": 8489,
      "onsin": 8490,
      "Ġgift": 8491,
      "lder": 8492,
      "ĠSi": 8493,
      "Ġfee": 8494,
      "ĠCoast": 8495,
      "ĠAz": 8496,
      "ĠCre": 8497,
      "Ġ43": 8498,
      "Ġinstalled": 8499,
      "Ġdiscipl": 8500,
      "Ġphones": 8501,
      "Ġ41": 8502,
      "xual": 8503,
      "Ġbanned": 8504,
      "yer": 8505,
      "lers": 8506,
      "åĳ": 8507,
      "ĠØ¹": 8508,
      "Ġcollected": 8509,
      "èĩª": 8510,
      "Ġvisible": 8511,
      "ĠItalian": 8512,
      "ĠAle": 8513,
      "Ġdefence": 8514,
      "ĠDelhi": 8515,
      ".-": 8516,
      "Ġproven": 8517,
      "ĠADVERTISEMENT": 8518,
      "Ġchallenging": 8519,
      "Ġrepro": 8520,
      "cut": 8521,
      "Ġscenes": 8522,
      "Ġdepending": 8523,
      "Ġexposure": 8524,
      "Ġattended": 8525,
      ".[": 8526,
      "ĠJun": 8527,
      "ĠScotland": 8528,
      "è¦ĭ": 8529,
      "uous": 8530,
      "ĠArm": 8531,
      "ĠPass": 8532,
      "Ġrepresented": 8533,
      "Ġremarks": 8534,
      "isconsin": 8535,
      "Ġaccomp": 8536,
      "Ġpent": 8537,
      "ĠExper": 8538,
      "Ġmixed": 8539,
      "Ġduty": 8540,
      "Ġbehalf": 8541,
      "hy": 8542,
      "engers": 8543,
      "elfare": 8544,
      "world": 8545,
      "Ġdisaster": 8546,
      "ĠJason": 8547,
      "Ġconsumption": 8548,
      "ibilities": 8549,
      "Ġreputation": 8550,
      "Ġpasses": 8551,
      "Ġnie": 8552,
      "anti": 8553,
      "Ġgonna": 8554,
      "Ġadvertising": 8555,
      "ĠSeries": 8556,
      "anny": 8557,
      "inch": 8558,
      "Ġprogressive": 8559,
      "Ġmarked": 8560,
      "istent": 8561,
      "Ġhidden": 8562,
      "Ġmining": 8563,
      "profit": 8564,
      "Ġprominent": 8565,
      "Ġunw": 8566,
      "ĠDoug": 8567,
      "Ġstrict": 8568,
      "Ġawesome": 8569,
      "ao": 8570,
      "Ġwed": 8571,
      "ĠBeijing": 8572,
      "Ġcapture": 8573,
      "ouver": 8574,
      "Ġentering": 8575,
      "ete": 8576,
      "Ġinvestigate": 8577,
      "Ġletters": 8578,
      "ĠÐºÐ¾": 8579,
      "Ġshortly": 8580,
      "ĠRomney": 8581,
      "ĠRay": 8582,
      "æĢ§": 8583,
      "Ġsurgery": 8584,
      "Ġprimarily": 8585,
      "Ġenemies": 8586,
      "ĠIndepend": 8587,
      "400": 8588,
      "oca": 8589,
      "you": 8590,
      "Ð½Ðµ": 8591,
      "Ġresulting": 8592,
      "Ġprepare": 8593,
      "Ġproved": 8594,
      "isen": 8595,
      "ãģ®ç": 8596,
      "Be": 8597,
      "ĠAPI": 8598,
      "ĠIntelligence": 8599,
      "ĠNHL": 8600,
      "adelph": 8601,
      "ĠConservative": 8602,
      "Ġintense": 8603,
      "ĠNob": 8604,
      "Ġauto": 8605,
      "jud": 8606,
      "ori": 8607,
      "etary": 8608,
      "Ġafraid": 8609,
      "ĠBowl": 8610,
      "Ġdeputy": 8611,
      "ĠBang": 8612,
      "Ġwebsites": 8613,
      "ĠPop": 8614,
      "Ġtechniques": 8615,
      "aus": 8616,
      "Ġpaint": 8617,
      "Ġacademic": 8618,
      "ref": 8619,
      "Ġexplanation": 8620,
      "ÐµÐ½ÑĤ": 8621,
      "ikes": 8622,
      "undo": 8623,
      "eman": 8624,
      "Ġdistinct": 8625,
      "Ġdrinking": 8626,
      "ĠEducation": 8627,
      "ĠNC": 8628,
      "ĠChair": 8629,
      "98": 8630,
      "Ġconscious": 8631,
      "ĠWhether": 8632,
      "vy": 8633,
      "ĠBry": 8634,
      "Ġdegrees": 8635,
      "Ġ1970": 8636,
      "making": 8637,
      "Ġhadn": 8638,
      "Ġstake": 8639,
      "irk": 8640,
      "Oh": 8641,
      "Ġcompete": 8642,
      "Ġham": 8643,
      "abeth": 8644,
      "Ġupper": 8645,
      "ĠUC": 8646,
      "67": 8647,
      "Ġexplicit": 8648,
      "Ġfab": 8649,
      "aven": 8650,
      "Ġunclear": 8651,
      "Ġfighters": 8652,
      "Ġdoors": 8653,
      "éĻ": 8654,
      "Ġdevast": 8655,
      "ifies": 8656,
      "Ġprocessing": 8657,
      "Ġcreates": 8658,
      "Ġtackle": 8659,
      "ĠBell": 8660,
      "Ġbol": 8661,
      "Ġtoken": 8662,
      "Ġtroub": 8663,
      "Ġeverywhere": 8664,
      "eding": 8665,
      "RI": 8666,
      "Ġcerem": 8667,
      "ĠRus": 8668,
      "Ġsufficient": 8669,
      "ĠPatrick": 8670,
      "Ġrecip": 8671,
      "Ġdispl": 8672,
      "Ġelig": 8673,
      "ĠWisconsin": 8674,
      "Ġresign": 8675,
      "adelphia": 8676,
      "Ġrating": 8677,
      "Ġrose": 8678,
      "ĠViet": 8679,
      "core": 8680,
      "Ġhab": 8681,
      "ĠSE": 8682,
      "change": 8683,
      "otted": 8684,
      "rage": 8685,
      "gt": 8686,
      "rators": 8687,
      "Ġcameras": 8688,
      "Ġimpeachment": 8689,
      "Ġminist": 8690,
      "ĠAst": 8691,
      "page": 8692,
      "elect": 8693,
      "amsung": 8694,
      "ĠAnthony": 8695,
      "ĠNAT": 8696,
      "Ġminority": 8697,
      "ĠSS": 8698,
      "Ġrural": 8699,
      "ĠHospital": 8700,
      "ĠRelated": 8701,
      "ĠSir": 8702,
      "Ġinterface": 8703,
      "ÃĥÃĤ": 8704,
      "obs": 8705,
      "aturally": 8706,
      "riers": 8707,
      "mi": 8708,
      "ĠMusic": 8709,
      "Ġinitiative": 8710,
      "ĠControl": 8711,
      "athered": 8712,
      "Ġvital": 8713,
      "pread": 8714,
      "js": 8715,
      "ĠFred": 8716,
      "Ġinev": 8717,
      "ogether": 8718,
      "Ġgall": 8719,
      "Ġtracks": 8720,
      "ĠPack": 8721,
      "Ġwie": 8722,
      "Ġcited": 8723,
      "ÃĥÃĤÃĥÃĤ": 8724,
      "aching": 8725,
      "ĠHas": 8726,
      "Ġlaid": 8727,
      "Ġblind": 8728,
      "ĠÙģ": 8729,
      "Ġorganized": 8730,
      "ĠPot": 8731,
      "Ġshock": 8732,
      "ĠLiver": 8733,
      "ĠHD": 8734,
      "viously": 8735,
      "Ad": 8736,
      "ĠAsh": 8737,
      "ĠPoint": 8738,
      "ãģ®è": 8739,
      "Ġframework": 8740,
      "Ġlosses": 8741,
      "Ġtaste": 8742,
      "ĠEliz": 8743,
      "ĠGiven": 8744,
      "iar": 8745,
      "Ġhosp": 8746,
      "à¤°": 8747,
      "Ġengineering": 8748,
      "Ġexternal": 8749,
      "lete": 8750,
      "Ġiron": 8751,
      "ĠLA": 8752,
      "osystem": 8753,
      "style": 8754,
      "ĠHT": 8755,
      "ĠAk": 8756,
      "Ġtransaction": 8757,
      "ĠSeason": 8758,
      "ĠTesla": 8759,
      "ĠSus": 8760,
      "ĠRose": 8761,
      "ãĤ¦": 8762,
      "ĠBeach": 8763,
      "ĠAmendment": 8764,
      "ĠWithout": 8765,
      "ĠCirc": 8766,
      "Ġchampionship": 8767,
      "ĠHind": 8768,
      "Ġcup": 8769,
      "Ġphr": 8770,
      "ĠAdministration": 8771,
      "Ġinvestigating": 8772,
      "ĠRadio": 8773,
      "icking": 8774,
      "Ġbaseball": 8775,
      "ĠÐ¶": 8776,
      "portion": 8777,
      "ilton": 8778,
      "Ġrub": 8779,
      "ĠÐĲ": 8780,
      "Ġgenuine": 8781,
      "Ġtitles": 8782,
      "athy": 8783,
      "ĠAction": 8784,
      "Ġsolo": 8785,
      "hot": 8786,
      "ĠPent": 8787,
      "ogy": 8788,
      "Ġhomeless": 8789,
      "sels": 8790,
      "onnell": 8791,
      "ĠJay": 8792,
      "Ġcampaigns": 8793,
      "olo": 8794,
      "Ã©g": 8795,
      "Ġdeck": 8796,
      "Ġhealthcare": 8797,
      "PM": 8798,
      "ĠAdv": 8799,
      "Ġprinciples": 8800,
      "quarters": 8801,
      "fund": 8802,
      "Ġmedium": 8803,
      "Ġol": 8804,
      "Ġaux": 8805,
      "Ġconspiracy": 8806,
      "Ġstations": 8807,
      "ĠBal": 8808,
      "Ġtrail": 8809,
      "ĠPhiladelphia": 8810,
      "iere": 8811,
      "Ġunusual": 8812,
      "orne": 8813,
      "Ġteaching": 8814,
      "ĠDiego": 8815,
      "Ġporn": 8816,
      "Ġoccas": 8817,
      "Ġenjoyed": 8818,
      "Ġnach": 8819,
      "idespread": 8820,
      "å¥": 8821,
      "ĠPhilipp": 8822,
      "Ġtickets": 8823,
      "Ġfeelings": 8824,
      "Ġstrikes": 8825,
      "Ġwonderful": 8826,
      "ĠRos": 8827,
      "Ġaver": 8828,
      "Ġfunny": 8829,
      "Ġtren": 8830,
      "Ġrecover": 8831,
      "rendum": 8832,
      "iert": 8833,
      "Ġchat": 8834,
      "ĠHead": 8835,
      "rimin": 8836,
      "Ġstrategic": 8837,
      "Ġlights": 8838,
      "Ġveget": 8839,
      "Ġdowntown": 8840,
      "ĠSometimes": 8841,
      "Ġportion": 8842,
      "ĠSab": 8843,
      "aning": 8844,
      "Ġrecording": 8845,
      "ĠðŁ": 8846,
      "Ġexclusive": 8847,
      "ãĥĲ": 8848,
      "Ġtoler": 8849,
      "Ġpossession": 8850,
      "68": 8851,
      "ashes": 8852,
      "ĠaÃ±": 8853,
      "One": 8854,
      "cles": 8855,
      "Ġfrag": 8856,
      "ĠExpl": 8857,
      "post": 8858,
      "aska": 8859,
      "ĠEnvironment": 8860,
      "Ġpatterns": 8861,
      "ĠIntel": 8862,
      "Ġconvicted": 8863,
      "ĠAvenue": 8864,
      "Ùī": 8865,
      "ÏĦÎ¿": 8866,
      "ammed": 8867,
      "Ġoutbreak": 8868,
      "FF": 8869,
      "ãĥ£": 8870,
      "ĠVice": 8871,
      "Ġimplemented": 8872,
      "ĠNOT": 8873,
      "........": 8874,
      "Ġtrigger": 8875,
      "ĠFair": 8876,
      "Ġwestern": 8877,
      "ĠMatthew": 8878,
      "ĠTrib": 8879,
      "ÑĥÐ´": 8880,
      "usted": 8881,
      "arios": 8882,
      "Ġproviders": 8883,
      "ĠÃº": 8884,
      "Ġinteract": 8885,
      "Ġfoundation": 8886,
      "Ġyield": 8887,
      "Pe": 8888,
      "Ġmad": 8889,
      "Ġdiscussions": 8890,
      "ĠRick": 8891,
      "Ġequivalent": 8892,
      "interest": 8893,
      "ãĤį": 8894,
      "Ġpartnership": 8895,
      "ĠPrice": 8896,
      "Ġpounds": 8897,
      "Ġinterviews": 8898,
      "Ġforest": 8899,
      "Ġresulted": 8900,
      "Ġwarming": 8901,
      "ÑģÑĤÑĮ": 8902,
      "ĠStone": 8903,
      "ĠTech": 8904,
      "Ġjoining": 8905,
      "ÐµÑĢÐµ": 8906,
      "Ġliquid": 8907,
      "uj": 8908,
      "igg": 8909,
      "Ġdistr": 8910,
      "Ġrecognition": 8911,
      "Ġbridge": 8912,
      "inen": 8913,
      "inking": 8914,
      "Ġdescribes": 8915,
      "ĠVegas": 8916,
      "utt": 8917,
      "ÑİÑĤ": 8918,
      "Ġtaught": 8919,
      "Ġsaved": 8920,
      "ĠSeveral": 8921,
      "ĠNon": 8922,
      "Ġdeliber": 8923,
      "rient": 8924,
      "rett": 8925,
      "With": 8926,
      "Ġshell": 8927,
      "aret": 8928,
      "ĠDas": 8929,
      "Ġmainly": 8930,
      "ĠNavy": 8931,
      "Ġmagn": 8932,
      "Ġrapidly": 8933,
      "ĠCook": 8934,
      "aug": 8935,
      "Ġpump": 8936,
      "Ġdrawing": 8937,
      "Ġnominee": 8938,
      "Ġrapp": 8939,
      "ĠUpdate": 8940,
      "ãģĺ": 8941,
      "ĠESPN": 8942,
      "yo": 8943,
      "Ġplate": 8944,
      "Ġmigrants": 8945,
      "rec": 8946,
      "esy": 8947,
      "ĠGuardian": 8948,
      "ĠEastern": 8949,
      "ÐµÐ½Ð¸Ñı": 8950,
      "Ġstreaming": 8951,
      "Ð½ÑĭÑħ": 8952,
      "Ġforever": 8953,
      "Ġ->": 8954,
      "ĠSamsung": 8955,
      "Ġrepresentative": 8956,
      "ĠCode": 8957,
      "sem": 8958,
      "Ġexport": 8959,
      "Ġrecru": 8960,
      "Ġtaxp": 8961,
      "Ġdemocratic": 8962,
      "Ġunex": 8963,
      "ä½ľ": 8964,
      "ĠLittle": 8965,
      "Ġscandal": 8966,
      "etime": 8967,
      "pat": 8968,
      "Ġwriters": 8969,
      "ĠHarry": 8970,
      "ML": 8971,
      "Ġfault": 8972,
      "EST": 8973,
      "gener": 8974,
      "ĠOak": 8975,
      "ĠDun": 8976,
      "ĠBund": 8977,
      "Ġvisitors": 8978,
      "Ġvend": 8979,
      "RS": 8980,
      "Ġinvestigators": 8981,
      "acer": 8982,
      "Ġreducing": 8983,
      "ennes": 8984,
      "ĠYeah": 8985,
      "Ġactivist": 8986,
      "ĠRs": 8987,
      "Ġreaching": 8988,
      "acional": 8989,
      "then": 8990,
      "çķ": 8991,
      "udes": 8992,
      "Ġheaded": 8993,
      "ĠAcademy": 8994,
      "ãģ«ãģ¯": 8995,
      "::": 8996,
      "amber": 8997,
      "iversary": 8998,
      "ĠCBS": 8999,
      "ĠModi": 9000,
      "Ġpodcast": 9001,
      "ulating": 9002,
      "izon": 9003,
      "Ġkom": 9004,
      "Ġlegend": 9005,
      "Ġfought": 9006,
      "Ġhole": 9007,
      "Ġridic": 9008,
      "Ġjury": 9009,
      "lessly": 9010,
      "Ġclubs": 9011,
      "oval": 9012,
      "Ġsensitive": 9013,
      "rator": 9014,
      "ĠHit": 9015,
      "orough": 9016,
      "Ġcomprehens": 9017,
      "å£": 9018,
      "Ġdinner": 9019,
      "97": 9020,
      "owe": 9021,
      "Ġflaw": 9022,
      "mir": 9023,
      "Ġhang": 9024,
      "ĠPubl": 9025,
      "ounced": 9026,
      "Ġ00": 9027,
      "Ġodd": 9028,
      "Ġdiscrimination": 9029,
      "++": 9030,
      "ĠBall": 9031,
      "Ġsuspended": 9032,
      "ĠFal": 9033,
      "Ġovers": 9034,
      "Ġestablishment": 9035,
      "ĠJam": 9036,
      "Ġregister": 9037,
      "ÏģÎ¿": 9038,
      "Ġgained": 9039,
      "Pl": 9040,
      "olis": 9041,
      "Ġneutral": 9042,
      "Ġroles": 9043,
      "Ġreduction": 9044,
      "ĠFall": 9045,
      "Ġsmooth": 9046,
      "Ġhitting": 9047,
      "opher": 9048,
      "Ġtemporary": 9049,
      "Ġfinger": 9050,
      "Ġ!": 9051,
      "ĠHaving": 9052,
      "54": 9053,
      "Ġreven": 9054,
      "Ġadopted": 9055,
      "Ġthin": 9056,
      "ĠpaÃŃs": 9057,
      "Ġtrab": 9058,
      "ische": 9059,
      "Ġmyth": 9060,
      "Ġpandemic": 9061,
      "Ġuncom": 9062,
      "ÑģÐµ": 9063,
      "Ġwidespread": 9064,
      "dri": 9065,
      "ĠRoyal": 9066,
      "upid": 9067,
      "é¡": 9068,
      "Ġsettings": 9069,
      "ĠJustin": 9070,
      "assador": 9071,
      "uset": 9072,
      "ĠConference": 9073,
      "Ġhandling": 9074,
      "Ġrecommended": 9075,
      "ington": 9076,
      "Ġfoss": 9077,
      "ĠRoss": 9078,
      "Ġscreens": 9079,
      "Ġreferring": 9080,
      "utter": 9081,
      "ï½": 9082,
      "PG": 9083,
      "Ġproducer": 9084,
      "ĠPod": 9085,
      "Ġfi": 9086,
      "53": 9087,
      "Ã¤l": 9088,
      "Ġlistening": 9089,
      "Ġwra": 9090,
      "annels": 9091,
      "Ġchecks": 9092,
      "Ġmunic": 9093,
      "Ġspaces": 9094,
      "ĠCL": 9095,
      "Ġphotograph": 9096,
      "Ġentit": 9097,
      "onder": 9098,
      "BO": 9099,
      "Ġholiday": 9100,
      "Ġfears": 9101,
      "Ġmenu": 9102,
      "Ġlicens": 9103,
      "è¿": 9104,
      "Ġdeeper": 9105,
      "ĠLear": 9106,
      "Ġcomplaints": 9107,
      "Ġcontribute": 9108,
      "Ġinvent": 9109,
      "ĠLiverpool": 9110,
      "ĠConnect": 9111,
      "Ġloyal": 9112,
      "Ġauthentic": 9113,
      "Ġupset": 9114,
      "Ġcancel": 9115,
      "Ġbarely": 9116,
      "ĠÑı": 9117,
      "oren": 9118,
      "Ġprosecutors": 9119,
      "Ġprosec": 9120,
      "Ġwing": 9121,
      "Ġreviews": 9122,
      "power": 9123,
      "Ã¼n": 9124,
      "ĠIndust": 9125,
      "Ġimprovements": 9126,
      "AY": 9127,
      "å·": 9128,
      "sylv": 9129,
      "ĠNic": 9130,
      "rison": 9131,
      "Ġrarely": 9132,
      "ä¾": 9133,
      "Ġocean": 9134,
      "52": 9135,
      "GO": 9136,
      "ĠiOS": 9137,
      "Ġthick": 9138,
      "heim": 9139,
      "ĠFollowing": 9140,
      "Ġsuggesting": 9141,
      "ĠMain": 9142,
      "Ġbasketball": 9143,
      "'.": 9144,
      "Ġscoring": 9145,
      "Ø´": 9146,
      "ĠÎºÎ±Î¹": 9147,
      "ĠSupport": 9148,
      "Ġ51": 9149,
      "Ġperpet": 9150,
      "Ġachieved": 9151,
      "owned": 9152,
      "rolled": 9153,
      "agger": 9154,
      "irts": 9155,
      "ĠÐŀ": 9156,
      "ĠEngine": 9157,
      "Ġcongressional": 9158,
      "Ġbranch": 9159,
      "Ġparte": 9160,
      "Ġfailing": 9161,
      "ĠOntario": 9162,
      "Ø¬": 9163,
      "appy": 9164,
      "cor": 9165,
      "ĠMill": 9166,
      "Ġconversations": 9167,
      "ĠRand": 9168,
      "itionally": 9169,
      "bell": 9170,
      "uties": 9171,
      "ĠTro": 9172,
      "Ġnoise": 9173,
      "away": 9174,
      "maker": 9175,
      "ĠScient": 9176,
      "azz": 9177,
      "VE": 9178,
      "Ġko": 9179,
      "Every": 9180,
      "Ġsuspected": 9181,
      "Ġviewers": 9182,
      "ĠPH": 9183,
      "flow": 9184,
      "turn": 9185,
      "Ġbehaviour": 9186,
      "Ġstructures": 9187,
      "Ġdeclar": 9188,
      "ĠTri": 9189,
      "ĠTown": 9190,
      "ĠFed": 9191,
      "antes": 9192,
      "Ġtasks": 9193,
      "Â».": 9194,
      "Ġhide": 9195,
      "Ġballot": 9196,
      "Ġheading": 9197,
      "ĠKr": 9198,
      "Ġthousand": 9199,
      "mat": 9200,
      "ython": 9201,
      "Ġhired": 9202,
      "Ġloud": 9203,
      "month": 9204,
      "ĠTai": 9205,
      "Ġfriendly": 9206,
      "ãĥ¥": 9207,
      "Ġextend": 9208,
      "ĠFix": 9209,
      "Ġcable": 9210,
      "Ġliked": 9211,
      "ãĤª": 9212,
      "Ġtestimony": 9213,
      "Ġconstitutional": 9214,
      "ØŃ": 9215,
      "ĠKar": 9216,
      "Ġpetition": 9217,
      "ĠBerlin": 9218,
      "oen": 9219,
      "Ġurged": 9220,
      "ĠElizabeth": 9221,
      "Ġdefine": 9222,
      "bb": 9223,
      "Ġclosing": 9224,
      "Ð½Ð¾Ð³Ð¾": 9225,
      "Ġbail": 9226,
      "igt": 9227,
      "Ġmovements": 9228,
      "Ġriver": 9229,
      "Ġ~": 9230,
      "Ġanger": 9231,
      "Ġoverwhelming": 9232,
      "Ġrevel": 9233,
      "ĠTechnology": 9234,
      "Ġawareness": 9235,
      "ĠHan": 9236,
      "ĠPennsylv": 9237,
      "Ġuniform": 9238,
      "ãģªãģ©": 9239,
      "ĠJenn": 9240,
      "Ġbegun": 9241,
      "ĠHenry": 9242,
      "Ġresource": 9243,
      "ĠAtlanta": 9244,
      "Ġroads": 9245,
      "51": 9246,
      "Do": 9247,
      "phones": 9248,
      "Ð½Ð¾Ð¹": 9249,
      "umes": 9250,
      "Ġownership": 9251,
      "âĸĪâĸĪ": 9252,
      "Ġindicated": 9253,
      "Ġtrem": 9254,
      "à¸": 9255,
      "Ġasks": 9256,
      "ĠBra": 9257,
      "Ġdiverse": 9258,
      "ĠHur": 9259,
      "ãĥĭ": 9260,
      "Ġecosystem": 9261,
      "rets": 9262,
      "Ġmissile": 9263,
      "ÑģÐ»": 9264,
      "this": 9265,
      "Script": 9266,
      "Ġborrow": 9267,
      "ĠBes": 9268,
      "Man": 9269,
      "Ġ=>": 9270,
      "Ġappreciate": 9271,
      "oured": 9272,
      "burgh": 9273,
      "ĠHon": 9274,
      "quer": 9275,
      "Ãªncia": 9276,
      "åĲĪ": 9277,
      "ĠÑĦ": 9278,
      "Ġpeak": 9279,
      "ĠFinal": 9280,
      "ĠSpeaking": 9281,
      "ĠRaj": 9282,
      "ãģ§ãģį": 9283,
      "ĠQueen": 9284,
      "Ġconnections": 9285,
      "Ġgathered": 9286,
      "Ġprogramme": 9287,
      "Ġscream": 9288,
      "Ġindicate": 9289,
      "Ġpassengers": 9290,
      "ardo": 9291,
      "Ġdescription": 9292,
      "Ġforecast": 9293,
      "ĠGolden": 9294,
      "Ġvoter": 9295,
      "Ġrecognized": 9296,
      "ĠHand": 9297,
      "aires": 9298,
      "annon": 9299,
      "Ġdesp": 9300,
      "Ġexceed": 9301,
      "itter": 9302,
      "atar": 9303,
      "TER": 9304,
      "Ġflash": 9305,
      "Ġreferendum": 9306,
      "Ġfulf": 9307,
      "ĠCustom": 9308,
      "ahr": 9309,
      "ĠOnline": 9310,
      "Ġinsist": 9311,
      "ĠÅŁi": 9312,
      "Ġtail": 9313,
      "Ġwalls": 9314,
      "Ġprinciple": 9315,
      "??": 9316,
      "ĠPrince": 9317,
      "è²": 9318,
      "ÏĦÎ·": 9319,
      "ommod": 9320,
      "Ġpreced": 9321,
      "ĠÙĦ": 9322,
      "ĠUber": 9323,
      "Ġinvited": 9324,
      "Ġtargeting": 9325,
      "Ġfounded": 9326,
      "ĠKingdom": 9327,
      "ĠArticle": 9328,
      "izer": 9329,
      "apore": 9330,
      "rait": 9331,
      "Ġarray": 9332,
      "Ġcomic": 9333,
      "Ġ52": 9334,
      "ĠRoy": 9335,
      "RL": 9336,
      "iche": 9337,
      "Ġcollective": 9338,
      "ĠSix": 9339,
      "mary": 9340,
      "Ġcarefully": 9341,
      "ĠMoon": 9342,
      "Ġprobe": 9343,
      "âĶ": 9344,
      "Ġprovin": 9345,
      "empor": 9346,
      "aten": 9347,
      "ĠFut": 9348,
      "rez": 9349,
      "Ġentertainment": 9350,
      "ĠAustin": 9351,
      "ĠPatri": 9352,
      "ÑĢÐ°Ð²": 9353,
      "Ġbei": 9354,
      "Ġhospitals": 9355,
      "Ġinvestigations": 9356,
      "Ġloans": 9357,
      "EP": 9358,
      "essa": 9359,
      "Ġinvolvement": 9360,
      "Ġguarantee": 9361,
      "ĠPennsylvania": 9362,
      "Ġclim": 9363,
      "Ġdynamic": 9364,
      "Ġlaugh": 9365,
      "ĠHistory": 9366,
      "Ġnoting": 9367,
      "fast": 9368,
      "ahu": 9369,
      "ãĥĸ": 9370,
      "ĠBad": 9371,
      "Ġneighb": 9372,
      "case": 9373,
      "Ġbath": 9374,
      "ĠFamily": 9375,
      "di": 9376,
      "Ġaffairs": 9377,
      "ĠCra": 9378,
      "ĠDesign": 9379,
      "ĠEqu": 9380,
      "Ġwheel": 9381,
      "was": 9382,
      "ĠSU": 9383,
      "esso": 9384,
      "Ġmonitoring": 9385,
      "Ġtomorrow": 9386,
      "cific": 9387,
      "Ġclimb": 9388,
      "igenous": 9389,
      "Ġgrass": 9390,
      "ĠSom": 9391,
      "ĠCA": 9392,
      "uten": 9393,
[...]
