#version: 0.2
Ġ t
Ġ a
h e
i n
r e
o n
Ġt he
e r
č Ċ
Ġ s
Ġ w
a t
e n
Ġ o
Ġ c
i t
a n
i s
o r
e s
Ġ p
Ġ b
Ġ f
in g
e d
o u
a l
a r
Ġ d
Ġa n
Ġt o
Ġ čĊ
Ġ m
Ġ in
Ġo f
â Ģ
Ġ h
a s
i c
l e
Ġan d
Ġt h
o m
i on
en t
Ġ l
i l
Ġ n
Ġ T
Ġ e
Ġ re
s t
v e
r o
i d
Ġ g
Ġb e
l y
Ġ I
Ġ S
u t
a c
Ġ A
o t
e t
a d
Ġ on
i m
âĢ Ļ
a y
a m
Ġth at
Ġ is
i g
o l
Ġ C
s e
o w
u n
Ġf or
u r
v er
c t
e l
Ġ y
Ġ M
Ġs t
Ġ he
i r
Ġ it
Ġ âĢ
Ġ B
at ion
it h
t er
u s
Ġd e
Ġw h
c h
Ġ P
c e
ĠT he
ã ģ
Ġw ith
Ġa l
Ġa s
il l
u l
Ġ W
Ġw e
Ġc on
Ġy ou
er s
Ġ D
l d
Ġ H
k e
Ġ r
a g
e m
es t
Ġw as
i f
Ġ R
Ġa t
Ġ F
Ġp ro
he r
Ġh a
Ġ v
o s
u m
at e
r i
o re
p p
Ġc om
Ġs e
is t
an d
Ġ 2
Ġ N
Ġa re
q u
Ġ 1
ĠâĢ ľ
âĢ Ŀ
or t
o p
re s
a in
ou n
Ġn e
o d
Ġ L
r om
h t
a b
Ġ (
Ġ G
Ġe x
Ġ E
an t
es s
o c
ar t
Ġn ot
it y
Ġha ve
m ent
Ġo r
ou ld
Ġ un
Ġs u
i ve
Ġb y
Ġf rom
Ġ le
Ġ O
t h
Ġs a
Ġth is
Ġs h
i e
u st
en d
Ġ J
p e
i es
ig ht
Ġc h
u p
Ġ j
Ġa b
r a
ou t
' s
Ġh as
al l
i v
Ġ "
re d
ac k
Ġ k
Ġp l
ou r
a k
0 0
Ġ U
re n
i al
o st
u d
ar d
as t
Ġg o
Ġ Ð
om e
e ar
ĠI n
Ġsa id
Ġh is
Ġd o
ã Ĥ
t e
Ġw ill
g e
Ġt r
Ġc an
a p
el l
Ġw or
Ġthe y
ic h
o k
Ġb ut
Ġw he
al ly
Ġal l
i a
an s
id e
Ġwh o
ou g
f f
Ġ K
Ġo ut
Ġ en
Ġa d
ic e
Ġ qu
ĠT h
Ġ2 0
Ġthe ir
on g
t her
p l
Ð ¾
u re
ion s
Ġm e
am e
in e
ac t
Ġ up
Ġm ore
ou s
oun d
on e
e p
Ġ im
o g
i ke
b er
ag e
u se
i z
d er
Ġa r
c c
u b
Ġab out
im e
Ġ us
e ct
ã ĥ
at ed
Ġc l
Ġcon t
u e
t o
in d
Ġon e
Ġcom p
Ġa g
Ġs o
a ke
Ġof f
s o
p t
Ġh ad
Ġw ould
i p
ver y
Ġwh ich
ig n
Ġwe re
Ð °
ĠA n
oug h
Ġbe en
Ġ20 1
Ð µ
r y
Ġp er
Ġp e
a re
ac e
Ġre s
i re
Ġin c
p er
Ġm an
as s
v en
ĠS t
Ġy ear
Ġs p
e w
it e
Ġ V
ar y
o ok
Ġl ike
ay s
ul t
i le
Ġyou r
ab le
ĠI t
Ġt e
i b
Ġl a
o se
m er
k s
a v
Ġ Y
Ã ©
p ort
op le
or m
res s
or d
a il
Ġd is
ĠC h
Ġp art
Ġne w
Ð ¸
l l
Ġo ther
ation s
en ce
Ġo ver
Ġs ome
ow n
oun t
Ġal so
Ġa pp
en s
an ce
Ġthe re
ic al
Ñ Ĥ
Ġpe ople
Ġth an
l ic
Ġ 3
f ter
. âĢĿ
as e
Ġn o
Ġthe m
ac h
Ġs c
Ġhe r
in t
on d
id ent
u c
Ġbe c
ĠH e
Ġwhe n
Ġp ol
Ġwh at
ct ion
Ġit s
Ġre c
Ġj ust
Ġan y
Ġ -
Ġt ime
i an
ve l
Ġo ur
Ġwor k
Ġg et
an g
Ġk n
Ġ if
o b
re at
Ġp re
Ġm y
u g
Ġt w
or s
re e
Ġp r
, âĢĿ
Ġin to
ing s
Ġg r
w n
ad e
ir st
f e
Ð ½
ic k
ar k
Ġa cc
it ion
n e
ren t
Ñ ģ
ã Ģ
Ġs he
or y
o ve
in k
Ñ Ģ
am p
ver s
Ġd es
f orm
d ay
Ġa fter
ent s
h ing
o v
Ġ ro
a use
Ġs er
at es
ĠâĢ ĵ
ic t
Ġat t
ĠT r
Ġh ow
Ġpl ay
on s
Ġc ould
ol d
l ow
he d
ĠâĢ Ķ
Ð¾ Ð
Ġcom m
il d
Ġf irst
i ous
Ġde c
f t
Ġh im
r it
um p
ĠB ut
n ing
ĠW h
Ġa ct
Ġb l
Ġon ly
ĠTh is
Ġa m
Ġtw o
Ġad d
ĠW e
ĠU n
Ġ 4
an c
e c
Ġe m
Ġbe t
Ġb ack
Ġs pe
' t
o y
is h
w e
Ġf e
is s
Ġin v
ĠAn d
u al
Ġm ost
Ġc o
. .
Ġp o
ig h
o od
Ġin d
Ġcon s
r u
Ġ 5
Ġd id
Ġag ain
Ġun der
en c
ub lic
Ġin ter
Ġw ant
. "
he n
Ã ¤
Ġn ow
Ġ $
l ud
Ġne ed
u ch
at er
ĠA s
it t
Ġ1 9
oc k
se l
Ġse c
Ġse e
d u
Ġyear s
Ġbec ause
Ġkn ow
ver n
Ġe ven
Ġsu pp
pe ct
is e
m an
g r
Ġb r
f ore
Ġe very
, "
Ġp res
i er
ur n
Ġm ake
ation al
on t
i o
os s
x t
j ect
Ġthe se
Ġim p
r ough
f ul
Ġwhe re
Ġre g
i ed
Ġl ook
Ġd on
Ġre m
Ġo wn
Ġe v
le ct
em ent
at ing
ro w
Ġd if
ĠTr ump
Ġinc lud
Ġre l
ie w
Ġbe ing
l es
Ġw ay
Ġm ay
ĠR e
ar g
ak ing
ou p
Ġc all
Ġr ight
un d
it ies
t y
p h
Ġl ast
if ic
T he
Ġa c
Ġs y
ri b
Ġth rough
as ed
Ġman y
Ġsh ould
Ġst r
Ġc ount
Ġthe n
Ġre port
e k
Ġth ink
Ġd own
at h
Ġs ay
ur ing
ĠN ew
as on
Ġas s
Ġb u
Ġc ol
Ġth ose
Ġsh ow
Ġgo vern
at ive
u es
it ed
Ġ ent
Ð »
t ing
ot her
Ġ very
mer ic
Ġf in
al s
Ġ ke
Ġ use
Ġm uch
i k
) .
an ge
Ġm on
a h
Ġp h
ers on
Ġ end
Ġw ell
er t
c om
in ce
Ġde f
00 0
ot h
Ġ Ã
ter s
ib le
Ġhe l
ĠA l
Ġbe fore
Ġdo es
Ġl ong
ic s
v ed
Ġst art
en er
ol og
ow er
Ġm in
w ard
is m
ar ly
Ġs ur
Ġm ed
a z
Ġ 6
i x
Ġqu e
b le
Ġf l
ĠA meric
Ġc r
Ġte am
ment s
Ġe l
us s
il y
il ity
om et
t s
t en
ro s
ãģ ®
it s
Ġhel p
ĠD e
ul l
re st
g an
Ġm ade
Ġgo ing
if e
or k
Ġc ap
Ġwor ld
Ġs m
Ġo p
Ġpro v
Ġs et
Ġagain st
Ġo b
Ġle ad
Ġe ff
) ,
y s
Ġsu ch
u res
ill ion
ĠL e
an k
c ess
Ġst ud
Ġgo od
st em
Ġsu b
Ġg u
ĠI f
Ġin t
ĠY ou
ar s
Ġd et
Ġwh ile
Ġin st
ar ch
i ent
ist s
n er
Ġst ill
Ġpo int
Ġ [
ter n
Ġt er
Ġoff ic
an y
Ġtr ans
ĠA r
u ally
re ad
Ġt ake
a j
a x
m s
ĠC om
v ing
al e
ĠF or
l and
al k
im es
Ġs ays
c o
2 0
Ġ1 0
we en
Ġgovern ment
Ñ ĥ
- -
n g
Ġs im
w ay
ol low
c on
a ir
Ġla w
Ð º
ut ion
Ã ¡
er n
Ġre t
ĠS h
Ġ z
Ġs ign
Ġ 7
Ã ³
ou se
Ġn um
r at
Ġh igh
Ġg ame
p r
he s
m in
âĢ Ķ
sel f
vel op
Ġdif fe
Ġin s
i el
Ġm em
et s
al th
Ġbet ween
Ġ est
l ed
h ip
o ol
Ġa ut
Ġs ame
at a
e ver
Ġp ublic
Ġhe re
in s
c ent
Ġsupp ort
Ġex p
at ch
Ġre al
en e
Ġcon f
Ġm od
Ġr un
Ġar ound
ĠThe y
iv es
Ġf r
c ial
d e
c es
Ġst ate
Ġc our
Ġp ar
Ġbe l
ĠA d
Ġc ur
oug ht
Ġf am
t t
ĠI s
Ġ i
Ġc he
Ġc or
Ġre p
ic es
Ġd r
ire ct
Ġ es
Ġc ar
Ġth ree
am es
Ġf ound
v es
o ot
Ġinv est
Ġs omet
Ġsy stem
t on
Ġp erson
Ġh and
a ve
Ġd el
Ġex t
Ġa v
Ġex per
in es
Ġ 8
Ġre ally
Ġpol it
ĠTh at
Ġto ld
Ġ2 00
at her
Ġdis c
Ġde m
Ġwe ek
Ġgr oup
ce pt
an n
c k
a w
ĠO n
ãĢ ģ
y ing
ĠP ro
ĠThe re
Ġs oc
ĠF r
Ġf ind
Ġd ay
Ġha pp
Ġ '
Ġle g
Ġus ed
ag es
Ġmon th
ord ing
i vers
Ġw om
m ed
i ence
ar n
Ġis s
ĠâĢ ĺ
Ġd uring
m e
Ġres p
Ø §
Ġcont in
Ġ Î
r ic
Ġin te
as h
ĠS o
Ġg reat
Ġde velop
c ed
Ġc re
ul ar
Ġf ollow
Ġb oth
Ġf act
ĠC l
a red
is ion
Ġ 9
i et
Ġv ot
at t
Ã Ń
Ġs ince
Ġc ent
Ġb ig
Ġre qu
it al
g et
en se
in a
Ġst at
ĠU S
t ic
e x
Ġex pl
Ġin f
Ġ Z
Ġre ad
Ġcomm un
ut e
b e
Ġpro du
ak es
Ð ²
Ġm ark
Ġo pp
o h
Ġl oc
ort h
in ess
Ġb us
Ġg ener
Ġl ot
Ġp ass
ãģ Ħ
Ġre f
Ġde p
le g
Ġc le
Ġc amp
Ġp ri
ros s
ĠR ep
ant s
b ers
Ġf ew
Ġ 0
Ġin form
Ġqu est
ĠH ow
Ġm et
Ġp ut
Ġb est
or n
ent ion
Ġp oss
iz e
Ġf ar
Ġf il
Ġto o
iz ed
l ing
Ġan other
Ġcom e
Ġbel ie
Ġt ra
ic ally
t he
Ġdiffe rent
Ġad v
er v
v iew
ch ool
Ġb o
Ġp ost
re t
Ġp ower
Ġas k
Ñ ı
ch n
Ġre le
Ġc are
Ġhe ad
od y
s on
Ġcon c
Ġan n
ĠB l
Ġsomet hing
u ro
Ġne xt
ist r
Ġim port
Ġ Â
th ing
Ġth ings
gr am
Ġ Q
Ġd irect
Ġop en
Ġl ife
r al
Ġch ild
Ð ¼
ãģ «
Ġall ow
Ġh ome
Ġm ight
Ġser v
Ġcount ry
ar ge
con om
uc k
Ġd i
Ġpres ident
Ġsec ond
Ġinclud ing
ar l
Ġe ach
Ġfe el
g er
Ġg ot
Ġm il
Ġ er
n ess
Ġne ver
Ġinc re
Ġg l
W e
Ġt est
Ġ .
Ð ´
ï ¼
ĠS he
l ine
ĠÐ ¿
ĠB e
ĠIn d
Ġres ult
ur s
Ġto p
g y
Ġcont ro
Ġper cent
Ġw ar
Ġpl an
Ġv al
Ġp os
Ġs ol
Ġcomp le
ĠS c
Ġm illion
un g
ĠS e
Ġs l
l ess
a im
Ġh ard
Ġpro ble
Ġ ed
d uc
qu e
i red
Ġd ata
itt le
Ġre st
Ġh um
Ġrec ent
ate ly
Ġse em
id er
w it
od e
Ñ ĭ
Ġwith out
Ġpart ic
enc y
à ¤
Ġpl ace
Ġoffic ial
ãĢ Ĥ
ãģ ¨
Ġle t
Ġbu ild
a pp
Ġ ide
iel d
os ed
Ġnum ber
Ġt ri
ãĤ ĭ
Ġapp ro
one y
Ġc ase
ĠP res
Ġst and
ent ial
Ġpre v
Ġbe h
ain s
Ġnew s
w ays
is ed
ri end
Ġbet ter
ĠD em
ãģ Ł
Ġm ov
Ġp ay
ĠP h
Ġ ve
Ġe le
Ġf our
oc rat
h or
Ġs k
Ñ Į
Ġp op
ain ed
Ġf un
ĠA t
Ġke ep
ãģ Ĺ
Ġcomp any
Ġinte rest
Ġt urn
ĠWh at
g est
Ġpro cess
Ġfor m
Ġatt ack
Ġe conom
Ġm ove
ĠW hen
Ġse ason
in al
Ġus ing
is hed
ar i
aj or
as es
Ġw on
Ġpro gram
ab ly
Ã ¶
Ġb ro
pl oy
e red
Ġdid n
Ġhe alth
am a
ĠG o
Ġcall ed
Ġl ist
Ġbus iness
r act
ãģ §
Ġl ess
Ġl ittle
read y
ir d
Ġpol ice
Ġv is
Ġle ft
Ġpro f
Ä ĥ
Ã £
ion al
Ġm ain
Ġp rom
is ter
Ġcur rent
at ure
Ġt y
ãģ ¦
a i
am ent
ren ce
ert ain
Ġch ange
Ġinform ation
us ed
.. .
ĠS p
Ġc a
olog y
ver t
Ġte chn
ot t
Ġw in
Î ±
ĠPres ident
ãģ ¯
p s
Ġv i
Ġex pect
Ġeff ect
Ġor gan
Ġal ready
Ġm en
o ad
Ġpro ject
iv ing
Ġle vel
a ign
Ġe as
Ġre ce
Ġm at
Ġe t
Ġh ist
Ġd ri
Ġs chool
st and
Ã£ o
Ï Ħ
s c
Ã ¼
ru ct
r on
c l
ĠÐ ²
Ġp a
ur ity
i or
en n
âĢ ¦
Ñģ ÑĤ
Ġo per
in ed
I t
id ed
E R
Ġ1 2
Ġab le
ĠA ll
Ġs it
ĠAmeric an
Ġcl aim
ãĤ Ĵ
Ġwom en
iss ion
Ġb re
Ġsoc ial
Ù Ħ
ac y
ĠP l
Ġsm all
Ġwh y
el s
Ġp at
Ġa ff
Ã ¥
Ġimport ant
b r
Ġre se
Ġal ways
Ġcon st
oh n
ad a
re en
ãģ Į
b s
at ur
Ã §
ĠA m
a u
Ġj ob
ĠC on
_ _
Ġpol ic
Ġm oney
ed er
ĠT o
Ġv ide
Ġspe c
ãģ ª
Ġch ang
Ġp ast
Ġd a
Ġcamp aign
Ġm ajor
ou th
ĠUn ited
Ġg row
Ġinter n
at or
Ġf ree
t il
Ġ1 5
1 0
Î ¿
Ġw rit
Ġd ays
Ġcl ass
en g
ar c
ĠE n
iv en
id es
ĠDem ocrat
Ġch ar
Ġc ost
ivers ity
ĠR uss
ain ing
Ġt alk
Ġhapp en
ãĥ ¼
ĠG r
Ġd er
Ġe lect
op e
Ġacc ording
Ġd ist
Ġth ing
Ġde al
t ion
ĠCom m
r ist
ol l
end ing
ĠE uro
ard s
an e
ĠN o
Ġmark et
Ġa way
Ġpro te
ne y
Ġdes ign
ĠO ne
Ġc ity
Ġm ust
ĠC an
' re
o x
Ġf ac
Ñ ĩ
al d
he re
ĠO r
Ġf und
a it
ĠM r
Ġpro p
s ide
u ed
Ġle ast
pp ed
w ork
Ġdoes n
Ġfam ily
i ans
ri es
Ġ- -
ĠT e
Ġwork ing
Ġmed ia
e ad
Ġfor mer
d en
Ġm aking
un e
u red
ĠM ay
Ġf ore
Ġinvest ig
ĠI m
Ġpolit ical
le t
Ġo ld
Ġc ame
i ver
ad o
ĠJ ohn
ĠÐ ½
ĠB r
/ /
Ġp ot
amp le
re am
Ġk ill
is ing
Ġl ater
al ity
in c
Ġt ell
Ġd ie
Ġo pt
Î ¹
ar ing
ĠP ol
Ġsim p
y ear
ĠRep ublic
cc ess
Ġen ough
Ġst ory
Ġb ook
Ġv iew
if ied
Ġ1 1
ur y
f or
Ġd en
Ġk ind
Ġrec ord
Ġme et
Ġf riend
Ġ =
r or
Ġ1 8
Ġth ough
ĠM c
Ġf ut
le y
b y
er ing
re m
ĠS y
Ġde v
Ġf ull
us h
ĠW ith
ĠH ouse
ĠS te
Ġl arge
ĠE x
Ġt ax
Ġor der
Ġb as
Ġto ok
Ġde b
Ġ Ñģ
em ber
b ook
1 9
ĠM in
Ġg ive
ĠD on
Ġa ir
Ġbec ome
T h
al f
iz ation
Ġun til
Ġn on
Ġr a
i ber
on y
Ġhum an
o int
Ġto day
art ment
Ġ Ø
is on
wit ter
Ġb it
Ġl ine
iv ed
um ent
ĠC o
at s
Ġpri v
Ġp ress
Ġth ought
Ġret urn
Ġme an
Ġev ent
g in
ĠP r
Ġ #
Ġc rit
and s
Ġ201 6
Ġprodu ct
d s
t ed
ak en
Ġact ually
Ġdo ing
Ġt imes
Ġ &
ra ph
Ġe ver
an a
Ġse en
ĠM ar
Ġac ross
Ġann oun
Ġse x
Ġwhe ther
Ġper form
m ost
Ġreport ed
im ate
our s
ap s
ub l
ĠS en
our n
Ġsu re
Ġsu g
ĠO b
Ġvi ol
Ġe qu
Ġmem bers
t i
Ġquest ion
ar m
ur ch
Ġlike ly
5 0
w are
on es
Ġcommun ity
Ġse ver
ĠEuro pe
Ġha ving
Ġchild ren
ious ly
a ff
is c
Ġn ight
Ġman ag
ĠC ol
Ġ vers
Ġs ing
w h
g ress
ÑĢ Ð°
Ġfut ure
Ġof ten
Ġ ,
Ġact iv
id ence
ot s
Ġmil it
Ġcontro l
em pt
Ġloc al
Ġn ame
Ġen g
Ġch o
p ro
Ġw r
Ġ3 0
m ber
ort un
Ġav ail
st er
n d
Ġ X
Ðµ Ð½
Ġapp ear
Ġg ames
or ies
it her
Ġf ive
ra ft
Ġcon d
g o
Ġplay ers
iv id
n ect
Ġd one
s h
Ġm om
i um
Ġproble m
Ġc e
Ġaut hor
Ġar g
Ġc ertain
oc i
Ġmonth s
ĠN ot
Ġs ent
Ġe arly
Ġsh ort
Ġvide o
Ġposs ible
it ive
Ġwith in
eder al
Ġunder stand
Ð¾Ð ²
end ed
Ġal ong
i j
Ġ :
Ġyou ng
Ġsever al
Ġpro t
Ġw ent
Ġinv ol
ĠA fter
ig r
Ġn et
Î ½
ĠY ork
Ġr is
Ġh old
Ġs ide
Ġun d
Ġv ar
Ġind ust
Ġam ong
Ġdes c
Ġ ident
el f
Ġw ater
Ġacc ount
Ġsu ccess
Ġme ans
Ġ201 7
ie f
ag ue
f ic
Ġy et
g ed
Ġex ample
p or
c hed
Ġon ce
re w
Ġask ed
Ġf ight
it ions
ĠHow ever
Ġcour se
n es
-- --
ust om
b all
ir on
ĠWh ile
Ġl im
ĠSt ate
ĠF l
Ġn ational
Ġf ail
Ġadd ed
Ġar t
A T
anc es
I N
Ġchar ac
ul ation
ĠSt ates
Ġacc ess
ar r
u ff
ĠC ent
Ġstr ong
Ġm id
l er
pe cial
Ġget ting
Ġm akes
ur ther
ort s
Ġavail able
Ġpart y
o f
e b
Î µ
Ġtr ad
Ġem ploy
ãģ Ļ
ver age
ro p
b ack
Ġl and
Ġother s
os p
res ent
Ġl o
e e
o ber
Ġo cc
Ġsug gest
Ð ·
or ld
ir m
ĠS ec
Ġ201 8
n ot
Ġre ason
ri pt
ĠCh ina
Ġcom es
Ġc reat
Ġbelie ve
Ġcl ose
Ġg iven
Ġpro b
our ce
Ġde ath
: //
Ġf oc
ĠCh rist
Ġa p
ĠE l
Ġ1 3
O N
om m
ĠD ep
Ġs us
ĠIn st
Ġfollow ing
Ġ Ù
ab ility
as hing
Ġex c
Ġ1 4
ens ive
ĠN e
Ġl ove
Ġl ight
Ġm us
. ,
Ġto t
Ġ1 6
ĠJ ust
Ġ il
a ut
Ġsec urity
Ġiss ue
Ġm ult
Ġl os
ĠUn iversity
Ġstart ed
Ġs al
ore d
Ġh ig
Ġkn own
iet y
un ch
Ġor ig
z e
Ġcle ar
as ter
Ġt em
i Ã³
Ġan al
r an
Ġag o
Ġimp ro
ace book
Ġl ow
Ġtr ying
Ġm iss
Ġen c
her s
Ġl ive
Ġcour t
Ġto get
ä ¸
Ġtoget her
Ġexper ience
Ġc ut
Ġb ene
ĠS un
ra w
Ġ /
el t
Ġlook ing
u ly
R E
y n
fe rence
ition al
Ġb ased
ut es
ĠM e
Ġpot ential
ĠA pp
Ġm or
Ġhist ory
le ment
ad es
in ation
ĠM an
Ġ19 9
ot o
ir l
Ġj o
at ors
Ġsay ing
Ġconc ern
Ġ |
Ġcomp an
Ġf ace
p ar
Ġcons ider
ĠA b
ĠR es
ĠAmeric a
u f
Ġpres ent
Ġv ict
ĠC al
Ġar tic
sel ves
il ar
Ġf av
Ġind ivid
Ġr ul
3 0
u ge
I S
Ġ ver
re ed
ĠD r
Ġ Ã©
Ġth reat
ĠÐ ¾
Ġis n
Ġcomp et
1 1
Ġad min
f er
ail s
Ġide a
Ġm ess
Ġspe cial
ĠÃ ł
Ġal most
Ġim m
Ġdisc uss
Ġc and
Ġt aken
Ġs w
Ġpr act
ãĥ ³
Ġprote ct
u le
Ñ ħ
ĠP art
ra el
ob al
Ġb ill
ĠN orth
Ġpolic y
ĠA f
Ġpro per
Ġcomple te
Ġs ix
Ġ201 5
id ay
Ġm ar
ĠNew s
ĠN ow
il i
Ġbr ing
ir c
Ġbeh ind
Ġen v
ĠG u
re et
re me
Ġare a
Ġstat ement
' ve
Ġke y
i que
ĠF acebook
it or
Ġh alf
Ġser ies
Ġany thing
ĠT witter
ward s
Ġs um
c he
if y
Ġc oun
Ġc ustom
Ġp ubl
Ġserv ice
Ġdec ision
ĠÐ ¸
ĠB rit
Ġ1 7
ro wn
Ġne ar
ãģ ĭ
Ġf all
Ġqu ick
Ġent ire
Ġbl ock
re g
ĠN ational
Ġd oc
Ġt aking
Ġm ind
i en
ĠA ust
Ġindivid ual
Ġb ad
ĠE ng
ĠJ an
istr ation
l u
id s
Ġofficial s
Ġcom pl
Ð ¿
h a
Ġcom ing
Ġcompan ies
ĠOb ama
Ġt arg
Ġh tt
n a
ap er
Ġcom b
Ġsome one
Ġf ood
Ġex ist
o ff
A N
Ġne g
Ġsp ace
Ġsit u
Ġcon nect
ãĤ Į
Ġch all
ĠM ed
ĠE m
Ġ201 9
Ġm ass
our ces
ĠB y
Ġmilit ary
Ð ¹
Ġsing le
w w
Ġtr y
Ġd ue
Ġstud y
ĠG er
Ġst ep
Ġrese arch
á »
Ġle arn
Ġprov ide
Ġf urther
ĠM y
ĠIs rael
ĠW ar
ĠG e
B C
Ġcol le
Ġwant ed
ĠD o
Ġc ult
u el
ĠC ity
Ġlead ers
it ing
1 2
enc es
a ult
ro te
Ġal leg
r ing
ĠAs s
se c
ĠA cc
ĠW orld
ĠS outh
Ġiss ues
as k
as ing
ore s
ashing ton
Ġcre ate
ac es
ĠThe se
Ï ĥ
Ġbl ack
ep t
Ġ2 5
Ġcand id
ĠC ar
ug h
Ġatt empt
Ġ1 00
pl ay
ound s
Ġf ire
Ġre n
Ġv o
ri e
am s
c y
Ġsu per
ãģ ¾
Ġcontin ue
pp ing
Ġfr ont
A R
Ġfil m
Ġb ody
Ġl at
Ġpoint s
Ġsign ific
og le
Ġf ederal
Ġf oot
ĠD av
end er
ãģ £
Ġfin al
Ġl es
Ġan s
I n
Ġadd ress
ĠS ome
Ġex ec
ĠW ashington
t a
Ġme as
Ġh it
Ġele ction
Ġr ather
Ġd om
Ġcon v
' m
Ġst op
âĢĿ .
arl ier
Ï ģ
Ġoff ice
th ough
ĠP a
he ad
iÃ³ n
Ġfe at
Ġ201 4
ol ution
ĠE d
Ġd am
m y
ĠH is
ĠP e
it te
Ġel se
Ġpre t
Ġf ig
o on
itt ed
at ic
a f
er y
ab or
Ġsim ilar
Ġnot hing
Ġ um
p ite
du ct
vert is
ib ility
Ġfin anc
Ġmom ent
iron ment
Ġth ird
Ġbe gin
Ġp ick
Ġrel ations
Ġevery thing
A S
il t
Ġcount ries
ĠC ong
Ġw rote
Ġp or
Ġd est
ur g
Ġrep resent
s y
ourn al
ĠWh ite
Ġen er
Ġa ction
Ġresp ons
Ġdevelop ment
Ġright s
ou d
Ġ5 0
ive ly
Â Ń
a is
l i
1 5
Ġplay er
ĠM arch
pecial ly
Ġgener al
ĠS up
Ġm ot
Ġin it
Ñ ĸ
Ġprof ess
e ks
Ġh ouse
l am
Ġh ours
Ġout side
Ġw atch
ĠP er
Ġstud ents
ÑĢ Ðµ
Ġv ir
Ġp le
Ġindust ry
Ġprob ably
Ġs ite
. )
Ġhow ever
Ġpr im
Ġs on
Ġdesc rib
Ġh ope
Ġh om
Ø§ ÙĦ
Ġneed s
Ġre pl
Ġst e
u k
i od
n ow
ug g
u x
d le
Ġd ou
Ġt reat
am er
Ġst ri
Ġe ither
Ġst ates
Ġleg al
Ġbre ak
Ġwho le
Ġmat ter
Ġs elf
Ġv ol
le x
E N
Ġch arg
if t
ag ed
* *
ĠM ond
ff ic
m b
o e
duc ed
Ġe y
ĠS ch
Ġro le
ĠM ore
Ġinter view
Ġbe low
ot e
ri ed
Ġpos ition
ĠÐ º
Ġpar a
if f
ur al
Ġbene f
Ġserv ices
iv il
Ġspec ific
Ġon line
am ed
ãĤ Ĥ
Ġro om
ent ly
Ġ2 4
Ġf ield
Ġrele ased
ĠL a
am b
l im
r up
Ġl arg
Ġwom an
Ġam ount
Ġab ove
ow s
Ġdif fic
Ð ±
an ks
Ġb illion
Ġs en
ãģ Ĩ
Ġevery one
Ġseem s
Ġrele ase
Ġc ases
c hes
a pe
Ġvot e
ĠQ u
i ents
Ġdec l
ĠIn tern
ÑĤ Ð¾
Ù Ĭ
Ġrun ning
ic o
ab l
s er
ĠK e
m a
um b
id ing
ĠFr iday
Ġj ud
art h
Ġg en
Ġwas n
Ġin j
Ġde ep
rib ut
Ġ @
Ġfor ward
t ime
Ġshow s
Ġbuild ing
Ġdiffic ult
Ġsignific ant
Ġopp ortun
Ġwe eks
ĠGo ogle
Ġval ue
st r
ĠDep artment
int on
Ġhim self
og n
in o
Ġche ck
Ġre d
Ġp ort
med i
Ġapp lic
Ġthem selves
att le
Ġg un
ĠMond ay
Ġb all
v al
ĠT ues
Ġab s
Ġit self
ĠM ich
Ġh ost
Ġwe bs
Ġst ay
ight s
Ġup d
ĠW ill
Ġinclud e
l ike
E S
f ect
it er
Ġimp act
on se
ĠTues day
ĠW est
Ġev idence
Ġ )
Ġm ag
ful ly
Ġannoun ced
vertis ement
ac ed
m ing
l a
Ġty p
Ġtot al
Ï Ģ
Ġr ad
Ġapp e
Ġdr ug
Ġris k
Ø§ Ø
ar ter
ate g
Ġsa w
or der
iv al
ĠA pr
Ġrecent ly
ĠC he
id a
Ð ³
Ġdet er
im ent
Ġbe gan
Ġc red
ĠD es
Ã ¨
og raph
ĠCong ress
ĠM us
u it
ĠW ed
Ġcont ent
Ġtechn ology
Ġcap tion
Ġtr ack
Ġgroup s
Ġtr ue
Ġsimp ly
Ġsh are
Ġcont ract
ĠA g
Ġes pecially
ep end
p ut
Ð½ Ð¸
l oad
Ġperson al
Ù Ĩ
u pp
r is
Ġc op
ĠO ct
Ġwh ite
Ġener gy
Ġcons um
ĠÐ ´
Ġvers ion
Ġper iod
ãĤ ī
b ody
Ġfoc us
Ġeconom ic
t r
Ġan im
Ġartic le
ĠC our
Ġ +
Ġus ers
1 6
b o
Ġc irc
Ġfriend s
ang u
ãģ ĵ
act ion
Ġst aff
Ġcharac ter
ĠA ug
Ġchang es
ud e
Ġb ar
Ġqu ite
ĠS m
Ġe p
Ġexpect ed
ĠH er
Ġso on
Ġl ate
Ġtarg et
Ġre v
o ke
Ġsh oot
Ġgl obal
is l
ĠCl inton
Ġl ost
or g
O R
Ġinst ead
r ight
un t
ĠS ept
b re
Ñ İ
Ġph ys
Ġp red
Ġan ti
ĠAcc ording
ĠR ed
h am
Ġresult s
ic a
itt ing
Ġl ed
Ġt al
æ ľ
ac hed
o le
ĠHe re
Ġlong er
itte e
Ġs ense
Ġa ud
" .
Ġre ve
at form
Ġpret ty
Î ·
w here
ä º
ĠJ e
ĠÂ «
ĠRuss ia
= =
Ġp ain
n ers
i res
ĠWed nes
Ġplay ing
Ġp ict
Ġcomm on
u ary
Ġre view
w er
Ġac cept
il ities
Ġc ode
Ġe arlier
ĠAust ral
ĠDon ald
ĠTh urs
Ġreg ul
Ġne cess
Ġv ia
ĠWednes day
ĠApr il
Ġpa rent
Ð° Ð»
est s
' ll
ist ic
ĠC or
ct or
y le
ang er
Ġmus ic
Ï Ĥ
Ġg irl
Ġw alk
Ġed uc
Ġfinanc ial
ĠThurs day
Ġlaw s
Ġob ject
ar a
h od
Ġres pect
Ġhig her
er c
ra p
Ġneed ed
Ġquest ions
Ġenv ironment
Ġde ad
Ð¾Ð ¼
Ġhe ld
Ġfav or
Ġ {
ip le
8 0
Ġresp ond
ĠB ar
Ġcom ment
ĠGer man
Ġincre ase
Th is
Ġh y
h an
Ġt it
ĠJ une
Ġwor ks
Ġpr ice
k y
Ġc oup
Ġd u
Ġbec ame
Ġpriv ate
ri a
Ġplay ed
Ġany one
Ï ħ
n y
Ġp ack
ak er
Ñ Ĩ
ĠC ount
Ġe mer
c il
Ġ201 3
Ġ ut
le ar
Ġfun ction
it ution
Ġp ie
o ver
1 4
Ã§ Ã£o
ĠRepublic an
Ù ħ
Ġ20 20
ĠA ct
Ġh ar
Ġwork ers
ove red
Ġs ell
end s
" ,
co in
ater ial
Ġwr ong
1 7
it iz
ke y
Ġmin utes
Ġr ate
at o
Ġc al
op h
c i
Ġ <
ell ig
t ain
Ġeas y
ĠCal if
e es
ĠJ uly
Ġw ays
b it
ĠInd ia
Ġresp onse
as ons
Ġpop ular
Ġexp ress
Ä ±
Ġw ind
Ġexec ut
et er
Ġl og
Ġintern ational
Ġar rest
ok es
Ġcol l
c ast
at ives
Ġmod el
Ġd iv
Ð¾Ð »
Ġen s
al t
istr ict
Ġadmin istration
p a
Ġd ig
Ã© s
Ġn a
ĠU K
Ġmeet ing
W h
Ġ *
Ġcap ital
l in
z y
ĠÐ½ Ð°
m it
ĠAd vertisement
her n
av ing
ĠH ar
ãĤ Ĭ
Ġpartic ip
Ġne arly
Ġtr ade
I D
Ġcre ated
Ġ2 1
ĠCour t
Ġcan not
Ġ4 0
Ġsur pr
is es
Ġty pe
Ġreport s
il le
Ġwor ds
Ġle ave
ĠAn g
2 5
ĠI ran
Ġoff er
Ġc ry
Ġdirect or
Ã ª
d own
Ġnet work
Ġcurrent ly
Ġ( @
r ain
Ġim medi
b ased
Ġins ide
Ġn ation
Ġp ur
k en
ip s
Ġa ge
Ġg e
H e
ĠG l
it es
h ic
ill s
I C
Ġ201 2
Ġim age
d o
g en
ap an
1 8
Ðµ ÑĤ
ĠF eb
Ġrelations hip
Ġrece ived
Ġe in
Ġgr ound
Ġw ait
Ġgo al
ÑĢ Ð¸
Ġsitu ation
Ġt re
Ġrequ ire
ãĤ ¹
j oy
b or
i qu
ĠSun day
S t
Ġpl atform
Ġproble ms
Ġbu y
ĠP at
le v
z a
Ġsc ient
Ġex act
Ġm is
Ġrel ig
ĠS an
Ġdef in
Ġinvol ved
ĠP al
ic ro
Ġn orm
ĠT H
Ġar ri
Ġfor ce
ãĥ¼ ãĥ
Ø ±
ĠC ont
ren d
et t
Ġhe art
Ġso ft
Ġ â
ĠE ven
ĠDemocrat s
1 3
Ġpl ans
âĢ ĵ
h aps
re l
Ġw orth
Ġdem and
ĠM ark
ĠCalif orn
âĢĿ ,
o id
os ition
Ġter ror
ict ion
Ġ2 2
ĠJan uary
Ġto ol
Ġph ot
pl es
Ġf ans
ov ed
Ġem ail
ĠG et
Ġinvestig ation
Ġb ase
Ġaff ect
ro ll
ĠT V
Ñ Ī
a el
Ġfore ign
__ __
us ion
Ġcl ub
es e
ail y
Ġcomp ut
iz ing
om b
Ġcol lect
Ġs ource
h ood
op s
Ġph one
Ġsh ot
Ġp ers
Ġ Ø§ÙĦ
Ġs old
et y
Ġc ivil
Ġwebs ite
c er
st e
ĠG od
Ġlat est
Ġro ad
ĠK ore
A L
v ent
Ġtra vel
ãģ¦ ãģĦ
Ġp age
Ġj e
Ġwork ed
Ġl iving
Ġt akes
Ġbec om
ĠAmeric ans
Ġkill ed
ut h
ĠDav id
Ġab ility
p le
Ġter ms
Ġl ives
atur al
Ġ ess
âĢ ľ
ĠCaliforn ia
i am
Ġint ro
Ġl angu
Ġm aterial
ĠDemocrat ic
Ġf em
ak ers
al ed
ag ing
Ġ }
um e
Ġa verage
ĠPa ul
Ġcl os
Ġinf lu
Ġmem ber
Ġhappen ed
Ġb ank
Ã ¸
Ġind ic
ĠJ apan
Ġvis it
um ents
Ġcont act
I T
ĠRuss ian
Ġbro ad
E D
Ġass oci
r ay
he l
ĠN et
Ġimpro ve
g ing
Ġvict im
Ġr ac
or ters
ãĢ Į
ãĢ į
ruct ure
Ġd ro
6 0
ove mber
Ġch ance
Ġs at
Ġl ack
ou ch
ist an
Ð¾Ð ´
ĠEurope an
Ġlead er
Ġare as
Ġc ell
ĠP ar
Ġappro ach
ĠSen ate
ug ht
O S
ru ction
Ġtw e
Ġs low
Ð ¶
Ġperform ance
ce ment
Ġeconom y
Ġ2 3
ĠSept ember
at ory
Ġh on
ĠB re
Ġsec ret
Ġ ill
Ġreg ard
A C
Ã ł
ĠÐ ¼
Ġpol l
ident s
Ġdec ided
ĠF in
ĠCan ada
Ġleg isl
Ġpubl ished
Ġest abl
Ġo il
Ġwe ap
ch ie
Ġgo es
Ġev ents
Ġorig inal
U S
re ct
Ġa w
ĠAug ust
Ġm other
Ġsu ff
Ġb i
us es
Ġte xt
? âĢĿ
ri an
ĠH ill
ĠP ost
ĠN ovember
ĠF irst
Ġh uge
Ġh ot
Ġteam s
Ġrec ogn
Ġth ous
ic ht
ines e
Ġquick ly
o o
Ġ ÑĤ
Ġsimp le
Ġsub ject
Ġf elt
b l
osp ital
s p
Ġcoup le
Ġc y
Ġp ull
Ġve hic
Ġf re
ur b
Ġg ave
ĠT w
Ġmed ical
ĠC ons
Ġm ill
ĠS atur
Ġwho se
Ġen joy
as c
ĠS and
Ġwant s
ĠS a
Ġturn ed
Ġbo ard
Ġm atch
Ġr ace
olog ical
Ġmet hod
Ġre ach
Ġimm igr
Ð¾Ð ³
im in
ĠAf ric
Ġl ink
k i
Ġpro gress
Ġgrow th
Ġs i
k a
Ġcl imate
Ġl oss
m en
ãĤ ¤
Ġ à¤
Ġse par
Ġmor ning
Ġin n
á º
ĠOct ober
å ®
ĠMin ister
e ch
ellig ence
m on
ĠSatur day
Y ou
Ġh op
Ġhe ard
Ġsa fe
Ġh or
Ġhand s
Ġper fect
å ¤
ĠCh inese
Ġnum bers
Ġprodu ction
ĠO f
Ġpri or
n o
ĠBl ack
Ġl iber
Ġcare er
Ġb oy
Ġl as
h old
en ing
Ġallow ed
ond on
ĠThe n
ĠCount y
Ġf ast
ĠC ap
c ome
Ġco ver
Ð½ Ð¾
ce mber
Ġc ause
ess ion
ĠS w
al es
Ġget s
a ur
av y
Ġbu ilt
k ing
Ġproduct s
Ġ ÏĦ
Ġl ower
Ġf ear
ĠPol ice
Ð° ÑĤ
ce ed
ĠB ro
en ed
Ġlook s
a res
Ġw ide
Ġre pe
Ġprev ious
Ġsp ent
Ġfeat ures
Ġdoc ument
Ġset t
Ġne igh
ct ions
ĠM on
ĠÐ ±
Ġc itiz
ç Ķ
u i
g es
ĠÐ ·
Ġun a
in ks
f ace
or ing
Ġse arch
Ġstr ugg
Ġf ell
ĠC O
Ġtri ed
Ġbeh av
Ġb ud
ãģ ķ
ul ly
Ġhtt ps
Ġatt ention
ĠT ur
r ast
ut ions
Ġj ournal
Ġeng ine
Ġkn ew
Ġcon duct
is hing
y ond
Ġbr ought
er o
ĠL et
Ġs ound
ĠE U
4 0
Ġm ention
à ¥
Ðµ ÑĢ
ĠG ener
Ġdem on
Ġsex ual
ĠPart y
Ġvar ious
and o
Ġrul es
ĠDe cember
ĠM or
Ġsp okes
f ort
ific ation
Ġind epend
y l
und red
Ġcrit ic
Ġes c
ĠâĢ ¦
Ġe ight
ĠB ec
Ġto wn
ĠIs lam
ĠP ark
l ight
Ã¼ r
Ġs ens
all ed
ĠL ondon
Ġpartic ular
Ġinclud ed
Ġmove ment
ĠBrit ish
Ġpre p
Ġwor d
Ðµ Ð»
ul arly
å ħ
Ġprev ent
Ġus er
ib ly
Ġun c
em ents
Ġf ather
ĠI S
B I
Ġl ab
Ã º
Ġtr aining
ar ily
Ġcr is
ĠF rom
ĠAd d
Ġincre asing
Ġf air
Ġs ize
Ġs n
i ant
un k
Ġfor ces
ann ed
Ġ201 1
Ġag re
v a
Ġa chie
Ð¸ ÑĤ
Ñģ Ðº
Ð½ Ñĭ
Ġm ob
om p
ber g
ur ning
ĠB it
ĠS er
Ġt en
ĠCom p
Ġs ort
ou l
Ġexper i
Ġcon vers
Ġ2 7
Ġopportun ity
Ġ19 7
Ġch ief
Ġex am
Ġadd ition
Ġdet ails
Ġm ach
b ed
I f
Ġtalk ing
le ction
ru ary
se qu
ĠO ff
) ;
Ġc ard
Ġimp lement
ĠT ex
Ġviol ence
Ġd oll
Ġm ent
led ge
Ġpop ulation
Ġparent s
Ġn om
Ġsystem s
m p
i ers
Ġhe ar
ä »
Ġrem ain
es tern
Ġclaim s
ĠT imes
Î »
Ġmult iple
Ġdes pite
Ġmess age
Ġeff ort
Ġp en
u z
ĠCent er
ĠRe ad
ĠMich ael
s et
ren cy
ĠS oc
ib r
ens ion
ĠD an
im inal
Ġspe ed
h i
Å Ĥ
p ir
Ġ2 6
ĠH ol
ys is
The re
Ġrequ est
ĠV er
Ġext ra
Ġass ist
Ġce le
Ġsa f
l ig
ĠS im
Ġinit ial
Ġo g
Ġlevel s
in ing
Ġ ult
ãĥ Ī
Ġs qu
al y
ar ies
Ġb an
ĠRe g
Ġ ...
Ġp aper
Ġalleg ed
Ġqu ality
Ġco ach
o or
ĠÃ ®
Ġvot ers
Ġext reme
Ġpre c
ĠFeb ruary
ĠC oun
ro om
ĠMc C
Ġp an
Ġcons erv
im ately
op er
at ter
Ġr ange
Ġreg ion
Ġ2 8
Ġhist or
in n
Ġf a
ve y
et h
or ge
Ġser ious
ĠO ur
ub e
Ġse ven
ĠInd ian
i os
Ġeff orts
Ġre b
ĠSt reet
ĠRepublic ans
Ã ¢
Ġbig gest
Ġad m
ãģ ł
Ġdis p
9 9
O P
Ã¤ n
Ġrequ ired
Ġrese arc
ĠL ast
Ġc ross
Ù Ī
Ġmajor ity
ide red
ĠS erv
ab les
is ions
Ġp urch
Ġjob s
Ġa f
Ġcom ments
Ġcommun ic
ĠD is
ĠR ec
Ġlead ing
en ge
O T
Ġs il
Ġpa id
ĠK ing
ĠApp le
E T
ãģ ı
id ge
Ġd raw
ĠA D
ĠD et
Ġ Å
Ġqu arter
an o
ap t
Ġla unch
å ı
Ġ6 0
ly ing
h r
Ġg as
Î º
Ġgrow ing
A M
Ġa head
du ce
Ġspe ak
it ch
ÑĢ Ð¾
Ġup on
ĠV al
Ġim ag
Ġlangu age
---- ----
Ġcris is
Ġs em
Ġchall eng
Ġm ur
Ġrem ains
Ġans wer
u ing
c le
Ġcomplete ly
Ġd Ã©
Ġrec omm
Ġattack s
Ġare n
ĠPl ay
s s
id o
Ġsc reen
Ġbo x
Ġ201 0
Ġ19 8
ant e
ĠWh y
Ġcontin ued
Ġf ix
Ġdou b
ĠJ ames
Ġcar ry
Ġread y
Ġfam il
Ġg iving
Ġob v
Ġf ile
Ġst ar
Ġprov ided
Ġst ories
' d
om en
Ġr out
Ġd anger
ãģĹ ãģŁ
gr ound
Ġh undred
k t
ur t
Ġstart ing
Ġcons idered
ĠR om
Ġsaf ety
reed om
Ġpartic ularly
Ġlook ed
E O
A P
Ġsp read
Ġh ous
Ġexact ly
enc ed
ĠM art
or ney
Ġter m
Ġit em
ĠO ver
ĠU p
Ã ±
Ġn atural
ĠE very
Ġag ency
ic i
Ġb ott
port s
Ġshow ed
Ġp ath
å Ī
Ġl ay
Ġdo g
sy ch
Ġon es
ĠO ther
Ġadd itional
r am
Ġv an
Ġoffic ers
Ġsur v
Î ¯
Ġto wards
z en
ill ed
Ġdef ense
Ġ x
ĠJ ew
ĠS ince
anc ed
ĠR ober
Ġex ch
Ġcost s
Ġs ong
Ġd ied
Ġsoc iety
ĠM ost
Ġinclud es
Ġf irm
Â »
Ġt able
Ã¤ r
Ġp our
in ary
Ġinterest ing
Ġpr ison
uc lear
on a
2 4
ĠA ir
2 00
il es
ĠB o
ous ly
Ġ Ñ
Ġpre m
Ġr ound
Ġcall s
Ġfin ally
Ġcond itions
Ġaut om
Ġimmedi ately
ĠA ut
n et
ĠLe ague
Ġd ire
v in
ĠE ast
Ġpos itive
Ġcle an
ir med
ĠS pe
Ġpart s
Ð° Ð½
id en
Ġchang ed
Ġdam age
ä ½
Ø ª
Ġthous ands
ĠMus lim
Ġd ate
j e
Ġe arn
Ġst ore
Ġcertain ly
Ġsum mer
Ġmod ern
it ness
us ing
ren g
Ġc as
Ġb order
ĠTex as
Ġpract ice
Ġd as
Ġdirect ly
av es
Ġpur p
f l
Ġgr and
Ġpl us
c ul
ast ic
Î ¼
ĠI ra
Ġpr inc
Ġt ro
Ġstud ent
Ġmov ie
ĠA P
Ġex cept
Ġlet ter
Ġa im
ãĤ ĵ
ĠB er
ar io
j u
Ġwrit ten
rie f
Ġun e
ĠJ ack
g u
Ġop in
ĠD ay
Ġc amer
ãģ į
ain t
he st
Ġbl ood
IN G
ÃŃ a
ĠM any
Ġbe yond
ic ks
Ġs om
y a
2 2
h ib
ag o
Ã¶ r
Ġdescrib ed
Ġ Ñĩ
an ch
Ġmid dle
Ġst uff
Ġthink ing
Ġpress ure
Ġ ×
Ġincre ased
Ġun f
E C
ãģ Ĥ
it ute
ĠÐ½ Ðµ
Ġwould n
ict ed
Ġeduc ation
ĠÃ® n
ĠHe alth
ĠC r
p art
air s
Ġtr ust
ir us
Ġ2 9
Ġsoft ware
m ar
Ġmin ister
im um
Ġcustom ers
f ield
ĠAng el
Ġal one
Ġgu y
ad os
Ġprop os
Ġst ra
E L
ĠM ac
ac iÃ³n
Ġ >
Ġk ids
c ript
Ġreal ity
Ġsus p
Ġsm art
Ġthrough out
Ġspe ech
Ġs le
ĠE r
Ġcould n
ĠIra q
F L
Ġro ll
ur a
Ġla un
ag on
Ð» Ð¸
a rent
ar ning
Ġcomple x
Ġh ospital
Ġsc ience
Ġproper ty
Ġcho ice
Ġsc hed
ĠM od
Ġil leg
Ġd at
å Ĳ
r ound
ĠAss oci
Ġcontin ues
Ġst age
Ġg one
Ġa u
ĠW ell
Ġcult ure
enc ies
Ġsc ene
ĠL ike
ar ian
Ġdis e
g a
Ġen for
Ġm it
Ġcon ference
Ġse lect
Ġ u
ic ated
Ġp us
ĠM ex
ĠA lex
Ġw all
id ers
Ġwrit ing
Ġcons ist
Ġcent er
Ġrece ive
Ġsomet imes
j a
ĠT od
Ġro b
ĠIn t
ol ute
ac hes
Ġoffic er
ren ch
ad em
it a
Ð° Ðº
Ġpro duc
Ġsus pect
Ġb al
Ġfamil ies
ĠGo vern
ac c
Ġdeb ate
ĠT or
ĠG reen
Ġcap t
Ġqu al
Ġc ast
Ġcele br
Ġt ouch
ĠR ich
Ġto ward
f ord
j ust
Ġfail ed
er ve
Ġcent ral
Ġrem ember
Ġpo or
Ġmov ing
Ġcoun ter
ren ces
w ise
Ġanal y
ĠAustral ia
Ġproject s
Ġsen ior
.. ..
Ġpresident ial
Ġenc our
Ġcor por
Ġcitiz ens
Ġcandid ate
Ġcont ribut
Ġde g
Ġhelp ed
Ġstand ard
Ġpass ed
ress ion
Ġc at
Ġfig ure
Ġs ch
p re
Ġdesign ed
Ġp ark
ĠTr ans
ĠGener al
Ø ¯
ĠPe ople
ãĥ ĥ
Ġorgan iz
ro l
Ġref er
Ġhapp y
Ġwr ite
Ġcop y
Ġdri ve
ĠDe f
ĠM ad
ch ain
Ġexecut ive
uf act
Ġsub st
Ġper haps
Ġ Ñĥ
Ġocc ur
Ġest im
Ġw ife
es ter
te xt
A D
Ġre asons
al ing
Ġl ik
Ġfoot ball
Ġorgan ization
ad or
Ġem b
ugh ter
Ġdis app
Ġn ature
E M
Ð¾Ð ¹
ven ue
ĠH igh
Ġfe ature
Ġn amed
sec ut
ĠO p
Ġnecess ary
iv ity
Ġallow s
Ġo d
Ġt our
amp ions
Ġ ign
Ġr ap
ot i
ate ver
Ġdemon str
on av
I L
Ġcon cept
ĠB ill
Ġbl og
Ġwe b
Ġ ir
Ġlarg est
ut y
Ġinte gr
Ġcred it
Ġmean ing
Ġdo or
The y
Ġens ure
Ġpolit ics
Ġar ch
Ġc row
Ġs end
Ġeffect s
Ġpie ce
Ġpower ful
Ġopt ion
w ood
Ġper m
Ġl ic
ĠP re
Ġcomp ared
ĠFl or
Ġnot e
ĠD el
Ġact ions
Ġprev iously
Ġpat ients
ĠM et
Ġep is
Ġb attle
Ġdec ades
Ġd ark
il it
st on
ter m
Ġconf irmed
Ġp as
Ġgu ys
or ks
Ġan t
Ġmay be
i pp
ot a
Ġappear s
and er
ĠSup er
Ġcr iminal
Ġb ur
Ġd in
Ġsh ut
Ġp od
ust r
ĠFr anc
Ġwon der
Ġor d
ra v
Ġp un
Ï Į
ĠIntern ational
ĠSy ria
Ġtwe et
i h
Ġlim ited
ĠSt ar
Ġun ique
Ġemploy ees
Ġv ari
Ġm er
h ol
ãĥ «
æ Ĺ
Ġinc ident
Ġmov ed
Ġsal es
Ġdet ail
ag er
Ġf al
ir th
Ġey es
Ġ Ä
Ġme ant
Ġopt ions
Ġav oid
av a
Ġdig ital
Ġus ually
Ġcr ime
Ġp Ã¥
ĠM al
Ġeas ily
ro y
Ġtreat ment
ch an
Ġrel ated
ĠY our
Ġst reng
Ġbegin ning
b ox
or ter
Ġschool s
m ore
Ġconcern s
Ġo m
Ġg ives
Ġbenef its
az on
Ġcor rect
Ġres ources
b and
Ġro ck
ir ing
Ġfor ced
Ġadd ing
Ġanal ysis
I A
Ġbud get
Ġrel ative
ĠCan ad
Ġauthor ities
Ġn uclear
Ġover all
ĠAl so
ĠUn ion
Ġal tern
Ġmy self
Ġbe aut
Ġl if
Ġyour self
Ġdev ice
Ġun s
Ġst o
Ġsp ending
onav irus
ãĤ ¢
ock ed
am ing
Ã¡ s
Ġal though
ĠJ er
i ance
ĠB en
w ide
ĠA tt
Ġdiffe rence
Ġint elligence
Ġchall enge
Ġpro s
Ø ©
Ġbe g
ve re
Ġess ential
ist a
Ġle ague
r s
Ġdeter min
i i
res h
Ġch arge
ĠR ob
Ġsp ot
le ase
Ġfe ed
m ark
ãĤ Ī
Ġexp and
ĠSt ud
ir t
2 3
Ġbr ain
ate gy
Ġindividual s
ĠBit coin
Ġf ully
Ġse g
ĠM id
ĠâĢ ¢
y an
Ġc u
Ġnot ed
ĠBec ause
Ġdis play
l ish
ĠS chool
Ġfollow ed
ĠCoun cil
Ġsign ed
Ã ¦
d om
ite ly
Ġgr ad
Ġs an
ĠL os
wh ile
Ġth row
Ġresearc hers
ĠD ie
Ġd istrict
Ġphys ical
ĠÐ ³
Ġcall ing
ver se
Ġprim ary
ĠFr ance
Ġcolle ge
se y
ĠL ab
ĠB el
Ġpe ace
Ġan g
ress ed
oc ks
Ġcharg es
ist ry
ĠSand ers
Ġnorm al
ĠM ag
v est
Ġ200 8
Ġsa ve
k er
ĠU k
ent y
ĠP ort
Ġtit le
Ġrest r
È Ľ
ro id
bo ard
Ġtr uth
ic it
ĠSec ret
Ġco ol
i as
Ġfund ing
æ ĸ
? "
Ġm ix
Ġpolic ies
Ġprom ot
o om
ur ance
b on
ag s
e v
ĠAr ab
Ġd raft
Î¿ Ïħ
Ġsh own
Ġinc ome
Ġapplic ation
Ġagre ement
ãĥ ª
Ġr ates
C h
Ġadv ant
Ġqu i
Ġr ise
k n
Ġconf lic
Ġw arn
Ġst ream
Ġre ached
ĠJust ice
Ġlaw y
P h
Ġman ufact
Ù ĩ
ĠS am
Ġclaim ed
ĠTw o
os es
on ents
) :
ell a
ãĤ ¯
ĠM att
Ġh at
ĠÂ £
v ille
Ġhigh ly
ĠFlor ida
ĠI I
Ġshoot ing
Ġr ule
ĠAn other
in y
on ent
Ġappe ared
u a
Ġpl ant
Ġus es
Ġz u
Ġprot est
ĠAl though
Ġm ist
ĠH am
ud i
ãĥ ©
ĠT er
ĠTH E
Ġstra ight
ĠW ind
Ġide as
2 1
Ġmanag er
Ġn ice
. âĢĻ
l t
ĠO h
ĠG old
Ġknow ledge
Ġpl aces
Ġmin or
Ġs ources
Ġf low
ãģĻ ãĤĭ
al a
ĠF rench
Ġhtt p
Ġgo als
ĠKore a
å Ľ
r ont
ĠJohn son
Ġevent ually
Ġar m
Ġown ers
du ction
ĠL aw
Ġcomput er
ĠSm ith
if ying
4 5
ĠT om
Ġb ed
ĠIm age
ww w
Ġp et
Ġtr ou
ĠComm ittee
Ġorig in
ion e
Ġb and
Ġfre qu
Ġcharac ters
Ġsc en
ĠÐ¿ Ð¾
il ed
Ġstat us
Ġweek end
Ġres idents
é ĸ
ĠSc ott
ĠIn c
ĠB rown
Ġweap ons
Ġam b
Ġp ush
Ġre form
Ñģ Ñı
ãģ Ŀ
um an
lic k
p ri
Ġl iter
Ġem ot
Ġcomm it
Ġsp end
Ġad op
Ġpart ners
c her
ĠM o
Ġacc used
Ġpr ices
Ġact ual
Ġent er
Ġmeas ure
ant ly
Ġ200 9
he t
Ð½ Ð°
oc r
ãģ£ ãģŁ
Ġke pt
Ġcreat ing
Ġv on
Ġcol or
R e
Ġread ing
anc y
Ġf ine
Ġvir t
Ġp sych
Ġra ised
ĠP ri
ĠF BI
N N
ul a
Ġcle arly
Ġatt ract
s k
Ġbr and
Î ¬
Ġpart ies
O U
ĠâĢ ŀ
3 5
Ġl ines
Ġp ow
ĠM a
Ġreg ular
ĠE arth
Ġim pl
Ġdevelop ed
ĠD uring
Ġsuccess ful
Ġsee ing
Ġc ities
ĠGerman y
Ġb rief
1 00
ra z
Ġref lect
Ġw el
Ġinst all
act ions
ĠEng lish
ĠUk rain
Ġinvest ment
Ġarrest ed
Ġca used
Ġapp arent
Ġreve aled
ĠEng land
Ġac qu
ak s
it o
2 7
ing er
Ġlim it
ear ch
O M
ĠP et
Ġfavor ite
Ġo s
b en
Ġim ages
il s
ĠB u
Ġbook s
Ġprov ides
Ġcho ose
ĠR el
Ġ3 1
Ġknow s
Ġf an
Ġwill ing
ĠGe orge
Ġsh ared
ĠPh il
Ġabs olute
Ġvo ice
Ġsol ution
Ġend ed
ÐµÐ½ Ð¸
c ing
Ġha ven
Ġmass ive
5 00
Ġcom mer
Ġstr ategy
Ġactiv ity
ĠB ay
Ġr ank
Ġseem ed
ãģ ĳ
Ġt end
ac ing
Ġle aving
Ġlarg er
Ġneg oti
ĠF ollow
Ġr are
ĠAm azon
d a
Ġf at
Ġass ault
Ġprogram s
ĠComm ission
ic ed
i pe
Ġcom o
g g
Ġis t
Ġintern et
is ation
Ġgreat er
c hen
l o
Ġsp ir
ãģ® å
G B
Ġmill ions
ĠChrist ian
Ġrelig ious
ĠM ike
Ġ ur
at i
Ġmanag ement
Ġhapp ens
p o
Ġfe et
B ut
de red
A s
Ġcrit ical
P S
Ġpost ed
Ġh our
ĠJ ud
ab y
Ġ8 0
Ġoper ations
2 6
ad d
ol a
Ġle arning
ĠS al
Ġd ans
ĠT y
Ġj ump
ĠD irect
m et
Ġbro ther
h o
ĠU s
Ġw at
Ġf ol
Ġs we
un ic
Ñ ī
Ġfight ing
Ġem p
Ġtri al
ĠS ub
Ġbusiness es
v o
Ġcommun ities
ĠA re
c raft
Ġoff ered
ĠOff ice
Ġg reen
EN T
Ġd aily
Ġag ree
rib ution
Ġask ing
Ġdev ices
ĠSec urity
Ġad ult
Ġtest ing
Ġbas ic
è ¨
Ġdef end
com ing
ĠF ox
ĠOn ce
Ġjo in
Ġbe at
ĠP ress
Ġoff ers
ĠIm ages
Ġtrad itional
Ġf reedom
ig e
Ġet c
Ġv ill
et te
Ġt il
he m
ĠF e
os ing
È Ļ
Ġw ild
è ¦
ĠÂ »
wit ch
Ġpolit ic
Ġh ol
m ine
pt ion
Ġfeel ing
ut ers
Ġsupp osed
Ġst ation
ĠA c
Ġm ission
Ġval ues
7 0
az ing
Ġn ames
ict ions
Ġen em
ĠF ound
ĠA M
Ġcor onavirus
A nd
Ġs am
Ġfem ale
Ġcandid ates
Ġf ra
Ġt ick
g ency
Ġhe aring
ĠInst ead
C C
Ġshow ing
Ġm igr
Ġadv oc
Ġpict ure
se e
Ġrecord s
æĹ ¥
ĠY es
ĠSup reme
å ¹
c ont
Ġte ac
Ġbehav ior
Ġelect ric
ent ed
Ġey e
Ġopp osition
est ic
Ġent re
Ġbenef it
Ġindepend ent
Ġ3 5
Ġl oad
Ġeffect ive
ĠUn der
Ġch air
Ġse ction
ĠIn ter
eng th
Ġhig hest
ĠB ank
b um
Ġn u
Ġd rop
B S
s en
ĠO ut
ĠU N
ãģ¦ãģĦ ãĤĭ
Ð» Ð°
ron ic
Wh at
Ġl ose
Ã© e
Ġcrow d
Ġneigh bor
ï¼ ī
in i
ĠLe g
Ġst yle
Th at
ĠB ig
ant a
us ive
ign ed
ig en
ĠP ak
Ġme chan
! !
T C
Ġe th
äº º
ĠD ec
Ġpr int
u er
Ġlearn ed
Ġc ars
ĠM icro
ĠC EO
ï¼ Ī
Ġilleg al
Ġ9 0
Ð¾Ð³ Ð¾
Ġsl ight
Ġph oto
p oint
Ġcent ury
on n
2 8
Ġer a
Ġdoc uments
Ġcl osed
Ġmost ly
ĠI N
P A
Ġwh atever
te red
re r
. '
ĠC up
Ġjust ice
ĠL iber
Ġopen ing
Ġtem per
Ġexch ange
Ġdoll ars
el ine
9 0
é Ģ
Ġrun s
un n
ĠTh ose
Ġv s
Ġple ase
ĠFranc is
an i
Ġtrans port
Ġtr ain
Ġre duce
it ude
B A
Ġstud ies
Ġleaders hip
Ġb irth
Ġcond ition
Ġtyp es
ĠJ oe
Ġinflu ence
Ġlaun ched
go ing
Ã µ
in ated
or a
Ġdet ect
Ġrest aur
Ġexpl ained
Ġhundred s
ri al
Ġachie ve
Ġiss ued
Ġa uf
ĠIntern et
so ft
Ġag reed
== ==
in ter
Ġ7 0
Ġrespons ible
ÑĤ Ð¸
Ġob ser
ĠPr ime
Ġd ream
Ġinterest ed
Ġdep artment
t ies
S T
Ġpict ures
Ġco al
Ġser ve
ak ed
ell ing
iss ions
el le
Ġdise ase
Ġbelie ved
Ġtrans fer
a ren
Ġbas is
ĠRober t
Ġvictim s
Ġcontro ll
ĠL ou
ĠAn y
ill ing
rup t
Ġwe ight
Ġexist ing
Ġg old
form ation
ĠPal est
ĠM u
Ġt im
Ä ĩ
ic y
ac ity
Ġinc red
od es
Ġsol id
Ġwor se
Ġmob ile
ĠTod ay
ct ors
i pped
Ðµ Ð¼
Ġd ed
Ġcomm ittee
Ð¾ Ð½
è ¡
ag n
Ä Ļ
h ouse
an ia
ĠM er
ĠCh ic
re y
Ġfr ame
Ġh arm
Ġunderstand ing
ĠJ o
Ġmeas ures
O L
ell er
ĠM P
ĠPh oto
Ġst re
ãģĹ ãģ¦
Ġvehic le
ĠF ore
ĠQ ue
Ġprodu ce
Ġst reet
ãģĵ ãģ¨
k o
Ġm ount
Ġdel iver
Ġf it
ãģª ãģĦ
Ġprofess ional
r ig
b urg
ĠV ir
v is
r ad
Ġlegisl ation
ĠW all
ĠW il
ĠS il
ort hern
Ġon to
Ġstr ateg
Ġm a
Ġw itness
ir a
ĠE v
ĠPro f
S A
k now
if ul
ÑĢ Ñĥ
! âĢĿ
ĠBrit ain
im a
Ġre fe
Ġadvant age
Ġte lev
Ġprop osed
ĠB oth
Ġeas ier
Ġtool s
Ġcommer cial
ĠÙ ħ
ĠC ur
Ġc ash
ord s
ili ar
Ġwh om
Ä ħ
Ġnot ice
Ġact ive
ĠSt r
m akers
ann el
um n
Ġloc ation
Ġre ject
Ġst ock
Ġn icht
ari ju
Ġopin ion
z er
Ġcom fort
Ġview s
ĠS T
v ant
Ġbecom ing
Ġfal se
Ġupd ate
ĠR a
Ġm ax
ariju ana
Ġjud ge
se mb
2 9
ĠCh ris
Ġmach ine
Ġinf ect
Ġcontro vers
Ġpat tern
Ġf o
os h
Ġk ick
ĠG reat
ĠPak istan
Ġres ist
ĠR E
ing ly
ill er
out hern
Ġinit i
and a
Ġfar m
ĠS ur
ar ant
ste in
Ġr at
Ġopen ed
3 3
Ġ ;
Ã Ł
Ġsle ep
ĠV e
ur ies
Ġdr ink
ri age
Ġsp oke
ĠChic ago
ĠG ame
w orks
Ġsy n
res p
Ġcomm and
al i
Ġdec ade
Ġl abor
Ġhe avy
Ġpr ime
Ġatt end
at ically
Ġm ap
h ow
Ġ ÏĢ
Ġcharg ed
Ġcont ain
Ġneg ative
Ġc ore
Ġdefin itely
Ġmil es
ĠÐ· Ð°
ĠD en
Ġextreme ly
Ġs pl
Ġhe ro
Ġdou ble
Ġ19 6
Ġcamer a
ĠA N
Ġn ine
Ġconf irm
Ġrepe ated
Ġche m
Ġarg ument
ĠJe ff
ĠDes pite
Ġdri ver
om s
ĠInst itute
Ġmem ory
Ġf resh
Ġcan n
Ġimmigr ation
Ġsit es
i ro
t witter
d ing
ĠJ ones
ĠS ol
Ġput ting
Å Ł
ĠS ing
Ġab use
Ġbecom es
land s
ĠC le
Ġpurp ose
ĠCon st
ĠHill ary
Ġwe alth
Ġdis m
Ġc ateg
Ġdanger ous
Ġun like
ĠGr oup
Ġde fe
ĠP M
kn own
Ġitem s
Ġscient ists
Ġaff ord
ãģ® æ
ortun ately
ĠAngel es
Ġdeb t
ĠTh om
e f
Ġm o
Ġsupp orters
ĠW estern
Ġfund s
il ing
ol f
Ġdis co
Ġprov iding
Ġex cl
Ġm al
Ġhous ing
Ġaud ience
ãģ ©
as y
Ġactiv ities
ĠCar ol
ĠT im
Ã¡ n
ĠB ern
ĠR em
er a
S P
Ġwor st
as ion
Ġinst ance
ĠÐ °
Ġp urs
ill a
N A
Ġass um
p erson
Ġh us
ĠMex ico
Ġex erc
Ð¾Ð ±
Ġwin ning
Ġco verage
ĠH all
D A
g han
b ut
Ġa ware
Ġvict ory
Ï ī
Ġr Ã©
Ġal bum
Ġapp l
Ġrecomm end
or row
Ġser ved
en a
k l
Ġdec isions
Ġhom es
Ġsh ip
Ġt ask
ĠCanad ian
Û Į
Ġcry pt
Ġn Ã£o
Ġsepar ate
Ġtra ffic
ic on
ĠM ur
ĠP ut
Ġtell ing
Ð² Ð°
Ġfl oor
w ell
ĠThe ir
ed y
ĠN FL
Ġequ ip
R A
Ġdri ving
v ention
Ġda ughter
Ġsur round
ãĤ ¿
Ġh ack
Ġr an
Ġsu st
Ġm ale
Ġplan ning
m o
Ġs un
Ġdire ction
Ġassoci ated
Ġass ess
Ġconcern ed
F C
ĠY et
end o
Ġsupp ly
Ġv ul
Ġcompet ition
Ġelect ions
ear s
ĠP C
Ġexpl ain
é ģ
Ġwatch ing
Ġinst it
Å ¡
ĠE s
r im
Ġd os
ĠG ood
ÑĨ Ð¸
ist ics
ĠWh o
Ġpro duced
Ġj a
Ġdown load
oc ol
Ġann ual
Ġpart ner
ant ed
Ġas pect
Ġenfor cement
Ġ ice
Ġstep s
Ġmur der
ĠB et
Ġsc ore
ĠB ack
Ġbott om
Ġdoub t
Ġcon sequ
Ġdest roy
rib ute
on to
I ON
Ġacc ur
ĠM iss
Ġh o
Ġhold ing
Ġk id
Ġrequ ires
el ess
Ġsuggest ed
ĠÎ ±
Ä į
el a
ĠIsrael i
Ġnot es
ĠJ im
Ġconserv ative
Ġtr uly
ocr acy
ad ing
Ġst ructure
Ġmed ic
Ġfind ing
ĠSecret ary
Ġum a
ain e
v i
it able
Ġallow ing
ĠFr ank
Ãµ es
m as
Ġfoc used
x it
it ation
Ġtal ks
Ġphot os
re al
le ge
g n
A A
k es
Ġfa ith
Ġconvers ation
a Ã§Ã£o
ish ment
ĠT re
ĠM O
Ġbelie ves
Ġreturn ed
ĠZ e
Ġcon text
Ġconst ruction
is er
ad y
rast ructure
ur d
Ġcomm itted
Ġwait ing
Ġmiss ing
ĠM ont
f riend
ch o
ĠF ire
ãģ Ī
ul f
ĠAt l
Ù ĥ
ab is
ĠP ublic
ĠE st
Ġexper ts
y m
Ġgener ation
Ġf ant
ĠÙ Ī
C H
V ER
iz es
Ġra ise
Ġf uel
ĠÎ º
ãģ¾ ãģĻ
Ø ¹
Ðº Ð°
Ġn or
Ġca ught
Ġun it
oss ible
n ight
Å £
Ġanim als
Ġc ards
k in
ol ic
Ġepis ode
Ġdrug s
ãĥ »
Ð¾ ÑĢ
Ġthe ory
Ġcomp ar
Ġprote ction
Ġb ul
Ġrem oved
Ġsc ale
Ġf le
om an
ãĤ ģ
7 5
l or
Ġgener ally
Ġr ough
l ich
Ġcomm ission
Ġch urch
Ġident ified
F P
ĠM il
ĠGovern ment
and on
ĠMicro soft
Ġ Ïĥ
ĠP lease
ang ing
and om
Ġment al
Ġmark ets
Ġhas n
Ġcons ult
oy al
ag ement
Ġcl ick
w ing
ĠSe e
Ġob s
c ia
ĠI r
Ġmention ed
ĠTe am
anc he
ur ation
Ġte ach
i pl
up s
Ġm arijuana
ph one
Ġspec ies
ĠT O
Ġal t
ĠSte p
Ġc ook
Ġfil ed
Ġentire ly
Ġam azing
pro f
ĠAfric a
os ure
Ġaccount s
Ġold er
Ġb orn
Î Ń
Ġatt orney
ĠS l
ĠRes earch
ĠWind ows
Ġstreng th
Ġblock chain
ĠG OP
in ct
ut s
Ġth us
Ġlarge ly
Ġsmall er
Ġdisc overed
Ġn orth
Ġfeel s
ãĤ Ħ
ĠW atch
ĠServ ice
Ġstri ke
____ ____
c ks
Ġ4 5
ĠVir gin
sc rib
ens es
Ġinterest s
Ġtri p
pect ive
h and
Ġdep end
Ġde ploy
Ġan c
Ġpres ence
Ġc atch
ĠSoc ial
Ġun ivers
ĠAssoci ation
L E
I M
ampions hip
Ġident ity
ul ated
Ġbelie f
Ã© n
ĠD own
ĠCh ief
ell ed
Ġapp ly
Ġjo ined
u ct
ig er
ĠF ederal
e ah
Ġpl ays
Ġv ast
ĠIslam ic
Ġkeep ing
Ġst ated
Ġsupport ed
ĠAr t
e ed
ant ic
Ġse ctor
Ġsu d
Ġuse ful
Ġm ut
ĠC amp
Ġref uge
ibr ary
Ġins urance
ig an
Ġsee k
Ġfil es
ĠAnd roid
ĠB ush
Ġac know
ĠUS A
itution al
t ained
Ġ200 7
Ġmod els
im b
Ġb omb
Ġappro pri
Ġha ir
Ġoper ation
is f
Ġapplic ations
3 6
ĠM el
Ġopt im
ul ed
Ġsp orts
ent e
Ġconflic t
Ġg ain
Ġhappen ing
4 4
V ID
Ġcan cer
ament e
ĠPalest in
Ġpre fer
Ġve ter
Ġmanag ed
Ġgirl s
Ġset ting
Ð¼ Ð¸
Ġm as
Ġed itor
Ġsk ills
ĠR yan
ĠCh ar
Ġtest s
Ġno vel
Ġbl ue
ĠAfric an
ĠPh ot
Ġsur vey
Ġhelp ing
Ġsto pped
ĠÑ į
i est
on om
Ġp ic
ãģĭ ãĤī
Ġvul ner
ial ly
Ġemer gency
ĠJ on
Ġconnect ion
ol it
al u
Ġfam iliar
Ġexper iment
Ġinj ury
ĠRich ard
ul ate
ĠM os
ĠAf ghan
Ġfig ures
" :
ĠMe an
ab b
w in
Ġm icro
g ers
Ġdec ide
oc ur
ĠOp en
ri z
ĠChe ck
Ġpro secut
oc al
id ad
Ġs ich
Ġinn ov
Ġsh o
Ġsee king
Ġgu ess
Ġapp re
Ġ3 2
Ġvide os
æ Ģ
Ġr id
N o
Ġter rit
Ġfour th
Ġm ais
Ġsur face
å¹ ´
ad er
ar ks
j o
Ġw ish
Ġown er
âĢĶ âĢĶ
ĠP eter
ĠT ime
ĠCent ral
Ġpl aced
æ °
olog ies
Ġvir us
Ġspokes man
Ġh ate
I P
Ġtell s
ĠK im
c ol
Ġme re
ar p
Ġt ough
ĠThom as
Ġpl anned
i us
W hen
Ġ ing
ĠJ ose
Ġdevelop ers
in te
Ġcan c
Ġprofess or
Ġhelp s
ĠSh ow
ĠD istrict
Ġarri ved
Ġf Ã¼r
ĠR ock
ĠMart in
ar on
Ġthan ks
ĠPar is
ĠR o
le ts
Ġrad io
end a
pp er
Ġexper t
ag ues
Ġst ick
st ream
Ġhus band
Ġspe aking
Ġconc lud
r un
Ø ¨
Ġinf rastructure
Ġvot es
è ª
Ġdiscuss ion
ĠM s
se ason
Ġsec ure
3 8
ort ion
Ġcap acity
yn am
wh ich
Ġoff ensive
Ġback ground
c are
un der
ĠL at
ĠCh urch
it z
Ġag gress
Ðµ Ð¹
Ġorganiz ations
U T
Ġse a
Ġb es
os en
Ġenvironment al
Ġtelev ision
Ġintro duced
out s
ĠSa udi
Ġt ack
ĠB iden
Ġcell s
r id
cept ion
Ġocc up
T r
Ġe at
3 2
Ġg raph
ony m
ĠS upp
ĠT ra
Ġplan et
Ġother wise
l ook
Ġgu ard
ot ed
Ġb anks
Ġincreasing ly
T ube
ĠI l
Ġregard ing
Ġstart s
Ġbig ger
Ġl ength
Ġp air
ãĤĴ æ
Ġb atter
Ġg ender
I s
at ures
ĠJ ournal
Ġobv ious
r as
Ġsh ares
I G
ãģ ¤
all s
Ġbo ost
ãĤ ·
4 8
ĠB ur
Ġ id
Ġdom estic
Ġm and
Ã ´
ograph y
ĠComm un
Ġ5 00
Ġse qu
Ġun ion
ĠAnd rew
Ġal g
Ġs ides
Ġcirc um
ĠGu ard
ĠB us
Ġkill ing
Ġst ruct
Ġfund ament
b our
ĠC NN
e qu
ãĥ³ ãĥ
it ors
Ġp it
ĠLab our
Ġag encies
Ġs outh
Ġret ail
or age
Ġbeaut iful
Ġser ver
Ù ģ
Ġcolle ction
ĠØ ¨
Ġstand ards
k et
Ġvehic les
Ġmar riage
Ġg ar
Ġspir it
ĠLou is
uck y
3 7
ĠJew ish
ĠÃ ¥
t re
i ot
Ġthere fore
ĠS ign
Ġoff ering
Ġ ì
ĠÎ µ
Ġap art
Ġchang ing
ip al
od ies
Ġfin ished
Ġmon itor
Ġsud den
Ġwor ry
Ġh un
Ġchalleng es
ĠBre xit
i at
b an
Ġ ÑĢÐ°
Ġt on
O W
e z
ä ¼
ad ed
ãģķ ãĤĮ
Ġfac ing
Ġtrans l
s a
ow l
ly n
ĠWe b
ĠF ree
ic ide
iqu es
ĠFound ation
Ġqu ant
Î ³
or ial
I V
ãģ§ ãģĻ
ĠM em
Ġhealth y
Ġstand ing
Ġv ision
Ġsuggest s
Ġoper ating
Î ®
Ġpotential ly
Ġrep orters
Ġdro pped
Ġcor ner
rup tion
Ġhon est
ĠMed ia
å Ń
Ġ3 6
Ġbal ance
p m
ĠM ary
ĠO ffic
ru it
Ġfail ure
hen s
Ġwe ak
Ġdevelop ing
wh at
ĠTor onto
Ġspe ct
ic ient
m m
Ġabsolute ly
p et
Ġvot ing
r d
ĠN or
Ġestabl ished
Ġwind ow
ĠL u
el ly
igh ter
Ġrap id
ĠSp ace
Ġb row
r ick
5 5
ĠCons erv
ĠH a
ĠH y
Ġte ch
Ġult imately
Ġd ies
è Ģ
ĠBe fore
ac he
pl ace
U n
rel ated
Ġg ra
Ġrelative ly
Ġpro ced
Ġvar iety
4 7
ov ing
ch a
ag ram
Ġaffect ed
Ġaltern ative
Ġg ay
it ect
] .
ĠJapan ese
Ġbring ing
el er
å¤ §
Ġph il
ĠM ass
Ġnews p
Ġpay ing
Ġapp oint
c a
ĠUkrain e
Ġmot iv
= "
ĠW he
Ġslight ly
Ġfell ow
Ġl ock
Ġp il
ĠD aily
ĠDirect or
Ġclos er
Ġe arth
Ġn one
ud d
ĠYou Tube
Ġele ments
Ġalleg ations
D P
Ġr ich
Ġimp ossible
Ġs ale
l ines
ĠLe e
Ġcar ried
F or
ĠG al
Ġrespons ibility
Ġac adem
Ġfl ight
ĠTe chn
4 9
Ġcre w
Ġreported ly
Ġlos ing
es ters
Ġo u
am m
Ġdom in
Ð´ Ð°
Ġintern al
ĠP S
Ġpriv acy
ĠGet ty
Ġad just
ic ious
Ġgovern ments
ĠW ork
Ġar r
Ġte en
ĠR ad
il er
Î± Î¹
ĠN ov
Ġequip ment
ĠSy rian
Ġdef ensive
ĠFrancis co
Ġposs ibility
i ams
Ġt ight
Ġs itting
Ġj ail
y r
Ġpropos al
in er
Ġanim al
Ã¤ t
ĠCol lege
Ġsk in
Ġsurpr ise
ç ļ
Ġsecond s
ĠP ower
k ins
ĠCarol ina
Ġt a
Ġcoun cil
anc ing
uc ks
id el
Ġcar bon
Ġa ward
Ġopportun ities
b a
ç Ļ
Ð¾ Ñģ
Ġturn s
Ġcrypt ocur
i pping
ĠS u
Ġval id
Ġrem ove
** **
Ġp ed
Ġsp ort
ĠM ars
ĠÐ Ł
ri er
Ġcorpor ate
Ġhe at
Ġtax es
Ġpurch ase
ive red
n i
ĠO l
ist ed
Ġauthor ity
Ġ //
S S
ĠP rem
ĠÐ Ĵ
ĠMean while
on ald
er ous
Ġprep ared
ãģ£ ãģ¦
in der
Ġtw ice
Ġconc l
ĠH aw
ack s
ed s
ĠDe velop
â ĸ
Ġrev olution
ĠD er
Ġsc ript
Ġhum ans
Ġtem por
ĠB ol
Ġdeath s
ĠJ es
ĠAustral ian
Ġb reat
ans ion
ok en
ĠÃ ¨
ĠT op
y e
ast e
Ġm arg
Ġb aby
Ġdeter mine
az ine
Ġe c
ord in
ç µ
ro g
Ġreport ing
Ġinvest ors
Ġrul ing
ĠS pr
ĠTur key
n oon
Ġstre ets
3 9
Ġexp ensive
Ġl ie
Ġm ort
Ġre venue
b ec
ĠV ol
ĠJ ul
Ġcoll abor
Ġc old
Ġcl ient
Ġs ounds
Ġte le
Ġst ress
ust er
Ġa st
Ġf ired
( )
Ġexpress ed
Ġa id
Ġvot ed
Ġpro ve
iv a
ad ium
Ġmain tain
p to
Ġat h
Ġse at
Ð¸ Ð½
Ġtr ig
ĠSec ond
re ens
Ġapp s
Ġcl in
or al
ÑģÑĤ Ð²
ĠPro ject
Ġn ar
ĠOn ly
ay er
Ġf aster
Ġneighbor hood
ãģ¨ ãģĦ
Ġc overed
Ġon going
Ġun its
Ġb en
Ġposs ibly
ol es
ĠB BC
Ġsol ar
w ith
Ġc art
iver se
Ġb urn
h al
ĠA T
Ġun less
ĠCol or
ĠS um
Ġag ent
Ġher self
Ġscient ific
Ġl ob
Ġpack age
ew s
ĠAb out
Ġimag ine
Ġfact ors
em ic
Ġres ol
ĠVirgin ia
Ġdep art
Ð¾Ð º
ab in
ĠR od
Ġy ards
Ġthan k
Ġ2 000
ĠPol it
Ġpl enty
ĠN H
ĠB est
ber t
ĠSt ill
ĠDan iel
Ġl ived
Ġsur ve
Ġspecific ally
Ġw a
ĠB ob
ĠSte ve
! "
Ġeven ing
Ġreg ime
Ġsell ing
Ġden ied
ĠN AS
c ious
is her
ĠE ach
at he
ĠB ook
Ġ200 6
urb an
ens ions
ĠMid dle
ĠFor ce
ĠM en
Ġun iversity
ĠWill iams
Ġdeg ree
Ġbro ken
Ġexc ited
Ġsign s
ãģ Ĭ
Ġelect ed
ĠH uman
å Ĭ
Ġg od
Ġj our
ab ilities
Ġconsider ing
rib le
ĠÄ ĳ
Ġappre ci
Ĥ ¬
ĠAr my
Ġdi pl
t own
l ife
Ġhand le
z i
ĠH arr
Ġapparent ly
ester day
w ers
Ġpoint ed
Ġw al
# #
Ġfor t
ãĥ ¬
p ress
b u
ĠIn s
Ġmod e
Ġident ify
Ġco oper
Ġpro ceed
Ġcritic ism
Ï ĩ
å ¾
ost on
Ġcr imes
o ch
Ġ ]
Ġdr am
Ġexperi enced
Ġpred ict
ĠC arl
4 6
ĠW here
P D
Ġafter noon
Ġa us
in ent
im al
× Ļ
Ġg ather
Ġer ror
ap ers
ce an
Ġlawy er
Ø ³
ãĤ ı
w ar
Ġbro ke
red it
Ġestim ated
Ġupd ated
Ġr ally
az a
Ġprot ests
Ġconduct ed
Ġar ms
Ġdipl om
Ġc ert
h ab
Ġcann abis
G et
Ġmat ters
e re
Ġc ro
stand ing
se ll
Ġst ars
Ġtrad ing
ĠG ree
ion es
Ġsub m
Ġpresent ed
ash ion
Ġp ra
Ġpolitic ians
Ġwe aring
ĠSy stem
Ġh urt
Ġpan el
Ġs ad
Ġpros pect
Ġt ourn
ĠI C
Ġsupport ing
Ġhe av
Ġcut s
Ġstat ements
Ġp al
Ġdel ay
duc ing
Ġannoun cement
ĠCh arl
Ġimp ress
ĠV ide
ess ions
å º
Ġrespond ed
L e
Ġcopy right
L A
Ġins p
Ġfam ous
Ġmin imum
ĠR oad
Ù Ĥ
Ġcomb at
ob e
Ġc ra
Ġmult i
Ġcl ot
ĠIn f
ĠG en
Ġf ly
A meric
ãĥ Ń
end ment
Ġlist en
Ġre act
ç Ľ
Ġper man
Ġint ended
Ġele ment
Ġsh ift
Ġwarn ed
Ġconsum ers
Ġsy mb
Ġref used
Ġo ch
ĠV ict
ĠÐ ¡
T S
Ġyou th
Ġsub s
ĠW al
on na
j i
Ġlead s
ph as
ĠGr and
Ġgrad u
Ġmess ages
ĠN E
Ð¾ ÑĤ
p ret
Ġappro ved
Ġadv ice
Ġwe ren
Ġwrit er
Ġh ur
Ġest e
Ġinstit utions
Ġinvol ve
Ġse asons
st s
og ue
il ty
çļ Ħ
ĠH el
ĠTh ough
, '
ĠA C
it i
ĠE p
Ġcult ural
ĠWe ek
Ã© m
est ival
ĠH ome
Ġpos itions
Ġfin ish
Ġfor ms
Ġconf ident
ĠJack son
n el
ĠÑĩ ÑĤÐ¾
Ġmethod s
Ġweap on
Ġwith d
Ġren ew
i able
Ġhop es
Ġm es
S o
Ġt rend
Ġe ine
ĠD a
ist ered
ãĤ ¸
Ġtrans ition
ĠIs land
Ġs ac
Ġsh all
Ġr andom
M y
ĠÐ µ
ĠF er
Ġv ac
Ġloc ated
Ġpie ces
co hol
ad s
Ġst orm
Ġpat ient
Ġdisc l
gy pt
ĠR ub
ult ure
M A
Ġf if
Ġar my
ĠÎ ¼
Ġb on
Ġliber al
ãĥ Ĺ
ow a
ri p
ĠR am
L S
Ġg iant
Ġconf idence
P U
ĠL ook
Ġsecret ary
is k
Å ¾
a ire
I R
ĠB oston
use um
ĠI D
Ġrem aining
Ġhe t
Ġdel ivered
ãģ ¡
å Ĩ
Ġj u
Ġ ÑģÑĤ
b ar
Ġpull ed
ĠM arc
tern al
Ġprom pt
Ã© r
Ġs witch
Ġobv iously
Ġdism iss
ĠF ar
Ġal s
Ġsignificant ly
Ġarg ued
Ġdetermin ed
ĠH o
Ġsy m
Ġexpl o
or ia
Ġser iously
Ġtechn ical
ĠM ake
ĠL ong
Ġadv ance
Ġm aster
Ġphil os
Ġequ al
Ġup gr
ĠP ac
Ġbel ong
re land
ĠIn vest
Ġshe l
r um
Ġfac es
Ġpublic ly
ĠSc ience
Ġg ro
is ters
ĠTh ank
Ġstrugg le
ĠR iver
Ġfr ustr
Ġtrans form
Ġtre ated
ãĥ ķ
Ġpercent age
Ġpr oud
Ġstand s
Ġtro ops
Ġ3 3
Ġwe ather
Ġsat isf
ĠW ood
resp ond
ag en
, âĢĻ
Ġsched uled
as p
Ġexpl os
Ġsh ape
ĠL in
Ġpar li
Ġel imin
Ġi Ph
Ġmin ute
Ġst ret
ĠÐ »
d ate
Ġappear ance
un te
Ġinst ruct
Ġbas ically
Ġto m
Ġchem ical
Ġalleged ly
cent r
ĠN a
Ġse vere
Ġass ets
as hed
Ġcal cul
am in
T A
Ġviol ent
ĠM ax
Ġb id
Ġth r
Ġy es
Ġcent re
ic ial
ĠMich igan
ar ia
Ġz one
Ġl oved
ĠTh anks
Ġs in
Ñ Ħ
ĠAut hor
Î¹ Îº
ĠÃ© t
Ġvis ual
w ord
Ġrelig ion
Ðº Ð¸
Ġcustom er
ĠA v
the re
Ġacc ident
Ġprotect ed
ĠÐ¾ ÑĤ
Ġcomple ted
ĠMay be
Ġs ession
Ġut il
Ġtest ed
uz z
Ġ urg
ot y
p ass
Ġg rew
Ġv ice
Ġm ir
Ġmarket ing
m ail
n s
P R
Ġgreat est
Ġsp ring
Ġt act
Ġpass ing
Ġend s
Ġsold iers
l ong
Ġbe er
cl ass
Ġs ie
ĠO s
ĠMO RE
Ġdis s
ĠR ight
ĠL and
ĠB raz
Ġp ages
Ġfl ag
c an
g l
ĠI reland
ĠC ath
Ġdecl ined
Ġb le
ament o
igh ters
ĠP R
Ġlot s
ad ow
y th
ĠO F
Ġinj ured
id den
Ġter min
g as
ĠC ru
Ġdef ault
Ġsurpr ising
app ed
3 4
å ĭ
Ġparli ament
Ġb low
Ġb ra
ĠWill iam
ĠP enn
ĠPut in
Ġpl ants
Ġ ik
T V
Ġdecl ared
ĠGe org
Ġag ents
Ġdo ctor
Ġadm itted
Ġconv ention
Ġr ain
Ġconnect ed
à¤ ¾
Ġb ug
Ġ ?
Ġb ought
Ġpop ul
ĠCO VID
Ð¾Ð ¶
Ġconf ig
ĠE gypt
ap ter
Ġre duced
ĠÃ ¼
ĠPl an
ain ts
ĠC ard
ov es
Ġrem ained
ul s
s pe
ĠS k
Ġ200 5
Ãª n
ĠKore an
Ġ3 8
d it
Ġsc he
ĠE ner
h ost
Ġfl ood
ĠS C
ĠNot e
im p
Ġind eed
Ġqu iet
Ġactiv ists
Ġcont rast
ð Ł
Ġb ound
semb ly
ĠOr gan
is a
ĠE lect
ribut ed
Ġun able
Ġco ast
Ġch ain
ab led
ang ed
é ĩ
Ġt urning
or ry
å ľ
Ġdri vers
Ġfac ility
ãĤ ³
Ġsu it
Ġappe al
ĠE conom
Ġrecord ed
Ġlaws uit
Ġfor get
ĠIt s
Ġfact or
om pl
Ġdisapp oint
Ġ \
O n
it u
f ree
Ġb are
ĠG i
Ġfac ed
om a
Ġhy p
Ġm Ã¡s
Ġwas te
Ñģ Ð¸
Ġexc ell
Ġtalk ed
Ġ3 7
el d
ri o
Ġpo ol
Ġ3 00
in em
Ġenc oun
Ġres ident
Ġexperi ences
ĠA ff
et ic
S h
ĠG ra
æ ĺ
Ġgu ilty
Ġcircum st
end e
Ġcomb ined
ock ing
os ite
Ġfind ings
Ġattempt s
ent ure
Ġn av
ir ms
Ġdat ab
Ġshould n
Ġev alu
Ġor dered
ĠIn de
9 5
t es
re es
Ġj oint
Ġconst ruct
Ġa uch
Ġoccur red
n ic
M P
ĠE ll
ĠAg ain
ĠS ky
ĠRe uters
Ġrepl ace
Ð°ÑĤ ÑĮ
ĠOh io
Ġthought s
Ġcont est
Ġlink ed
Ġgovern or
O C
Ġpers pective
Ġ3 4
× ķ
Ġpract ices
Ġw er
Ġb odies
Ð» Ñı
ar o
ĠAn n
Ġleg it
ess or
æ ī
Ġst orage
ĠF ord
Ġorigin ally
Ġhigh light
z o
Ġt rib
ĠL ife
Ġcon gress
ĠL es
Ġcol umn
Ġsupp l
Ġis ol
Ġ4 8
Ġpow ers
Ġdist ance
ĠS her
Ġthreat s
Ġwar ning
ok ing
ãģĤ ãĤĭ
a uc
Ġin qu
Ġgl ass
Ġtal ent
Ġappropri ate
ript ion
m es
ra wn
Ġdec ent
Ġwide ly
¿ ½
Ġdem ocracy
å ½
Ġfra ud
Ġrout e
ab il
ĠP o
ord an
ĠF am
Ġf ill
Ðµ Ð´
Ġr ising
ĠS ar
ang es
Ġl inks
un ction
] ,
ell o
ff ee
Ġre action
Ġres olution
Ġpus hed
and al
os a
A n
Ġent ry
ãģ¨ãģĦ ãģĨ
ĠRe v
Ġa ve
it Ã©
om in
Ġtrou ble
ĠAs ia
al le
Ġd ynam
oun g
Ġre ference
Ġman age
e y
Ġz ero
ĠS omet
Ġup coming
6 4
ĠS qu
Ġinj uries
Ġrem ind
m osp
ĠÐ¾ Ð±
å ł
Ġrece iving
ath an
ĠP arl
Ġsh op
ĠIt al
Ġst ores
Ġfor g
0 1
ĠNe xt
le vel
amp ion
Ġeffect ively
Ġw ood
Ġrestaur ant
ly mp
Ġcontin u
Ġtyp ically
Ġset s
en ger
ĠH ist
m ond
de f
ĠEn ter
Ġcap able
A l
ĠBus iness
ĠSt ory
ĠM ic
ĠRe al
ac ter
Ġexpl ains
ĠT ay
Ġm u
0 5
Ï į
Ġsuff ered
Ġcr ack
Ġwalk ing
Ġg i
Ġcon centr
ab e
Ġres c
ĠI P
Ã¶ n
Ġlist ed
ĠChrist mas
ell ow
00 00
Ġfil ms
Ġhe ll
Å ¼
o is
Ġdiffe rences
ĠBraz il
is hes
app ing
Ġdeb ut
ĠC lick
Ġp itch
el and
c alled
Ġen h
Ġs ought
Ġmay or
Ġf Ã¶r
ĠI ll
Ġadv anced
Ġmov ies
Ġmaterial s
Ġd ial
Ġed ge
Ġpick ed
Îµ Î¹
Ġexerc ise
Ġnum erous
ene z
ĠV iew
ER S
Ġopp osed
ĠH ou
ĠV an
iv o
th at
U R
Ġad vert
ĠBl ue
Ġconsequ ences
r ant
Ġb ond
Ġrele vant
Ġsubst ant
ĠW omen
as ure
el o
Ġart ist
Ġartic les
3 1
ac ement
em ploy
Ġarch itect
ord ers
d em
6 5
Ġupd ates
ĠØ§ÙĦ Ø
res ents
Ġsol utions
Ġmiss ed
æľ ¬
Ġbr ings
ĠAfghan istan
ĠK enn
Ġdiscuss ed
Ã© t
Ġdo ctors
Ġs ick
ĠL oad
Ġour selves
Ġe en
Ġhot el
Ġle aves
Ġ %
st ate
Ġfact s
-------- --------
Ġin put
enc ing
Ġterror ist
ĠD i
Ġwe ar
ch t
ĠBo ard
Ġair craft
Ġem phas
ĠØ ª
ĠC am
Ġacc ompl
Ġch annel
Ġbu ying
ĠC ast
Ġrequire ments
ic ing
Ġsu p
Ġcolle agues
Ġadd s
ĠL ib
ik a
Ġacknow led
Ġcur rency
ĠF il
Ġent ertain
Ġplan e
m ates
l aw
Ġv acc
ach ment
k ay
w hel
ly wood
ĠH en
Ġren t
un a
ãĤ «
ĠA riz
ÈĻ i
d y
Ġmov es
Ġmanufact ure
Ġord ers
ĠAtt orney
Ġregul ations
Ġmom ents
Ġfl o
d ed
Ġ upp
ang ers
ĠSt an
ĠD C
Ġcre ation
Ġinitial ly
Ġcr uc
ens us
ĠF re
ĠD u
Ġf illed
ĠÐ¿ ÑĢÐ¸
Ġmor al
P ro
I F
h ors
ĠK n
Ġfollow s
ĠL ake
Ġout put
Ġnet works
d r
å ĩ
Ġtrad ition
ĠK en
Ġb ag
Ġpost s
Ġim pe
Ġfac ilities
ic an
ĠC y
ĠInst agram
Ġtweet ed
ĠO lymp
ĠiPh one
Ġfl at
Ġmot or
ä¸ Ń
Ġpay ment
Ġrad ical
Ġtarg ets
ad as
Ġenem y
Ġch art
Ġent ered
Ġn ations
Ġimmigr ants
Ġsh aring
Ġconf ront
Ġwar m
ĠF our
act ive
c ons
ard en
æ Ŀ
ĠT ake
Ġinc or
ĠAd min
Ġdec re
Ġgu ide
Ġc raft
ill ance
ĠÐ ļ
Ġinc l
Ã¨ re
Ġd ass
åĽ ½
Ġrough ly
Ġca uses
ĠTh ree
Ġt ar
w an
ĠA R
ĠM ount
h us
Ġrep resents
Ġth inks
w ater
Ġv en
Ġnecess arily
Ġbre aking
ub b
Ġris ks
Ġy esterday
is an
Ġcor respond
Ġprot esters
as tern
Ġevery body
ĠC D
Ġreal ize
âĢĻ .
Ġob lig
Ġunder st
Ġlaw makers
ĠM at
Ġconsum er
Ð¾Ð ·
Ġe uro
Ġessential ly
Ġab andon
ä¸ Ģ
ĠDef ense
Ġrepeated ly
ĠServ ices
Ġt ut
Ġ199 0
Ġp ure
ĠM ot
Ġst ood
ac le
Ã¨ s
Ġincre ases
Ġr ail
ĠSc ot
ul es
Ġm i
Ġar med
Ġro t
Ġint ent
Ġcl ients
Ġsh if
A ll
com m
Ġreg ional
ĠVal ley
Ġexam ples
ĠY ear
se x
iz z
Ġquarter back
Ġr ide
Ġreturn s
Ġfr anch
Ġexp ansion
ĠN BA
Ġmy ster
Ġn ative
a a
Ġh all
Ġb at
ĠD am
ĠColor ado
Ġgr ab
Ġal cohol
T H
Ġsp ons
ri ve
ãģ Ľ
Ġn arr
ĠS ports
Ġbehav i
Ġdes ire
ĠMu eller
ĠL ight
Ġre in
ound ed
Ġalong side
Ġappro x
Ġb oss
im m
Ġimmedi ate
Ġ4 9
Ġpen al
Ġis land
ĠDe v
Ġt ree
Ġjour ney
w est
ĠGl obal
ĠÐ¿ ÑĢÐ¾
ap ed
b ro
ĠMark et
o oth
Ġtarget ed
aw a
Ġnewsp aper
Ġimpro ved
i very
ĠCl ub
Ġprom ise
ĠM S
ĠKe vin
ac ht
og an
us al
Ã§ Ãµes
Ġimport ance
ĠF ig
Ġt ill
Ġcont ains
ĠSh are
æľ Ī
Ġpay ments
c ies
Ġnear by
Ġbuild ings
% .
ĠB oy
Ġl it
Ġarg ue
ans as
ĠT est
Ġwrit es
Ġany where
Ġ7 5
ĠT al
ocrat ic
e le
Ġfav our
Ġsurpr ised
ĠL uc
Ġbut ton
ar ters
å ¼
ĠIt aly
Ġunlike ly
Ã§ a
A r
l v
ffic ient
ot ic
Ġdist ribution
I I
ãĥ ¡
Ġoff ense
Ġvirt ual
æ Ļ
er ved
Ã© d
ĠâĢ Ŀ
Ġlab el
ĠW at
ĠT em
Ġfl u
Ġs Äĥ
Ġpus hing
Ġbr ight
Ġconsist ent
Ġparticip ants
Ġclass es
Ġhold s
Ġfun ctions
Ġread ers
Ġheav ily
ĠAd am
Ġgun s
man n
Ġr um
ĠNet work
Ġstr ing
Ġf ish
m l
Ġab ortion
Ġag enda
ĠA I
Ġdetail ed
Ġsym pt
ĠP an
ĠAriz ona
ĠH un
Ġeff icient
Ġsu c
Ġs ke
ve ll
Ġ200 4
Ġall ies
ãģ§ ãģ¯
å ¯
ĠL o
ĠH or
Ġval u
ĠEner gy
ird s
Ġv or
ĠW alk
Ġl ibrary
ment e
ĠB as
Ġcommit ment
Ġsuff ering
ĠCh ild
ir ty
Ġappro val
Ġm ai
Ġobject s
ĠV i
w rit
ĠN Y
Ġf uck
ĠK h
Ġem issions
Ġclose ly
Ġappl ied
ĠHou ston
Ġsa v
ok ed
ĠD ig
Ġtot ally
Ġat mosp
GB T
ĠC at
Ġprofess ion
Ġm ine
Ġded icated
Ġrem ark
ãģ ¿
ĠRep ort
Ġprov ince
Ġact ing
Î ´
Ġspl it
he w
Ġdi agn
ä¸ Ĭ
Ġi h
Ġindust rial
Ġhop ing
å °
f ortunately
Ġaccept ed
Ġse es
Ġsan ctions
Ġsign ing
Ġb att
Ġk it
Ġhead s
Ġro w
' ,
isc al
Ġpro hib
Ġvol ume
ĠF urther
ĠS pecial
Ġcircumst ances
ĠC H
ĠNAS A
ÑĢ Ð¾Ð²
g i
es c
bre ak
Ġw ave
Ġcompet itive
Ġhard ware
ĠE ric
ĠMuslim s
ĠPer haps
Ġhard er
ĠC all
ĠR et
ht t
Ġvol unte
a an
az e
S he
Ġhouse hold
ĠCol umb
p ool
Ġcomp rom
Ġexpl an
Ġp ip
Ġrequ ests
Ã¥ r
Ġcreat ive
Ġg ang
Ġne ither
if est
Ġrem ote
Ġadult s
ĠWar ren
Ġint ention
Ġcoun sel
ĠSt at
Ġh an
ÑĢ Ñĭ
l og
Ġbroad cast
Ġcomb ination
Ġfe es
w oman
ç ´
og rap
ĠD iv
Ġan tic
ĠG ar
ĠG ames
Ġs ending
x y
Ġem pt
Ġexcell ent
Ġsh arp
ĠR ights
Ġs now
it arian
ĠA p
8 8
Ġt ip
Ġsust ain
D S
Ġboy s
Ġc ru
Ġyoung er
Ġev ol
ĠA L
ĠK ong
Ġinter pret
y stem
un es
il a
ÃŃ s
u ros
Ġclass ic
Ġgood s
Ġem br
Ġf ashion
Ġwel come
i u
é Ľ
Ġtrans pa
ock et
Ġcomfort able
Ġcommunic ation
Ġcl ar
Ġl iqu
Ġemot ional
Ġobs erv
id ade
Ġk il
Ġprof it
Ġfundament al
Ġfew er
ĠN ick
ç ī
ĠBro ok
ĠDis ney
Ġcontrovers ial
æ ķ
Ġse ats
ĠJ ava
ĠC op
Ġexpl ore
l an
Ġf asc
Ġbeg ins
ĠJ ordan
Ġcr ash
Ð¾Ð» ÑĮ
Ġplay off
ĠC ub
g ame
Ġmot ion
æ Ī
7 7
Ġbatter y
Å Ľ
Ġmechan ism
Ġloc ations
Ġteac hers
Ġhar ass
Ð°Ð» Ð¸
å į
w a
z t
ĠD id
6 6
g ent
ĠW ay
ĠSt and
ĠW H
ĠAn t
Ġm el
Ġdec line
ian o
Ġw ins
Ġproper ties
Ġcy cle
ĠKe y
ï ¿½
Ð° Ð¼
Ġp u
T o
it als
d ro
Ñģ ÑĮ
ung en
ro ad
ĠT ot
Ġm outh
Ġa o
rom e
Ġsupport s
olog ist
Ġhistor ical
ĠSe attle
ĠÐ Ŀ
èĢ ħ
Ġfair ly
ĠC ome
Ġem ails
Ġt out
w art
Ġexc iting
hip s
ĠW ars
i ences
Ġav o
Ġsuc ceed
ĠY oung
Ġde als
Ġrelationship s
Ġplatform s
Ġser ving
l ist
æ Ń
Ġchair man
ĠF ort
ĠA BC
ĠJ r
is p
ĠLoad ing
Ð¸ Ð»
Ġover whel
Ġcarry ing
ĠDav is
Ġtemper ature
Ġsh ots
o very
ĠCl ass
Ġbit coin
Ġdeep ly
Ġrep ut
er ves
om ing
ĠStep hen
Ġsk y
Ġmod er
i ation
ÑģÐº Ð¸
r ac
ab a
ph y
Ġcon ven
å ¿
ĠPalestin ian
ĠSw ed
Ġemploy ee
Ġsched ule
i ament
Ġtechn ologies
al o
Ġcamp us
ian a
ĠL ove
ĠS n
ĠComp any
ĠPro gram
Ġform at
è ĩ
am i
Ġg rown
ĠW ater
l ock
Ġsche me
Ġact s
Ġp hen
ĠG M
u an
Ġ3 9
Ġsub sequ
ĠH ong
Ġsent ence
Ġkind s
et her
Ġcl oud
Get ty
ik i
ĠK elly
5 9
ĠTur k
Ġl i
Ġexist ence
ĠI T
or ith
Ġmar ried
Ġtourn ament
c ur
ro it
Ġinst r
Ġprom ised
enez uel
Ġf lex
O ur
Ġdeal ing
Ġcompl aint
Ġal ert
Ġam id
a e
Ġme at
ĠF C
Ġsqu are
ĠÏĦ Î·
Ġman ner
ĠE duc
Ġsim pl
Ġw ake
ĠD ata
Ġsymb ol
Ġdef ined
ig ation
Ġmax imum
Ġus ual
Ġsc r
Ġt u
Ġstr uck
Ġwor ried
ob ile
Ġl ies
Ġsong s
ĠS P
âĢ ĺ
Ġpre gn
an es
Ġwalk ed
Ġf ake
f ire
ĠS ource
ĠFore ign
Ġsc ored
Ġopp onent
z ens
ĠC ry
Ġche ap
Ġext ent
av or
ÑĢÐµ Ð´
Ġan onym
ĠL as
Ġsurround ing
Ġphilos oph
ĠIS IS
Ġmain stream
Ġopp osite
Ġown ed
Ġt ap
Ġdiv ision
Ġpro of
b el
W S
Ġca using
Ġal le
Ġpl astic
Ġha bit
Ġproper ly
ff ect
ĠT it
em en
ant o
Ġattempt ed
Ġknow ing
pr int
ax y
ĠD ar
Ñĩ Ðµ
ĠMed ic
Ġtr ick
Ġpass ion
Ġmet al
Ġgu arant
Ġt iny
Ġcons pir
Ġwat ched
Ï Ĩ
Ġprom ote
H ow
v ol
Ġexpress ion
st ers
Ġjournal ists
Ġlik es
os i
ĠH ot
un s
c ow
Ġliter ally
ĠJew s
Ð° Ð²
Ġ icon
Ġvulner able
f oot
ĠAg ency
ĠP ay
N C
Ġch a
Ã¤ Ã¤
Ġfin ance
Ġearn ed
ĠÐ± Ñĭ
Ġinvol ving
Ġch ose
ĠIn te
Ġr ing
ĠHol lywood
Ġde leg
Ġrec on
Ġap olog
ĠC oll
Ġn i
ĠCon f
Ġ200 3
Ð¾Ð ¿
ĠJer sey
l en
um s
Ã ¹
ĠO ld
Ġpoll s
Ġdatab ase
ĠW ild
Ġmeet ings
ĠVide o
Ä Ł
ag an
Ġdescrib e
Ġcra zy
ger y
ĠAs ian
um a
ĠL ord
Ġun us
ren e
Ġperform ed
ĠW in
Ġre ward
Ġsurve illance
Ġart ists
ãĥ ŀ
ĠL abor
Ġv a
ĠA h
Ġsubs id
Ġstr ange
ĠBr ad
um ber
ĠPro te
Ġ19 80
Ġph ase
Ġexp osed
Ġsome what
0 9
ĠJes us
ĠFin ally
al and
ĠF und
ĠGeorg ia
ĠAm ong
Ġint el
Ġs el
R C
Ġw ire
ĠSt art
ĠBar ack
ĠB rian
Ġs ister
r ich
l ar
Ġ ÈĻi
iven ess
Ġob st
Ġben ch
Ġsu icide
âĢĻ ,
Ġ5 5
Ġb ull
az i
Ġg ap
ĠU se
ĠO per
it ar
Ġimpress ive
ack ing
Ġmag azine
n am
çĻ º
L C
Ġan x
Ġnot iced
Ġsk ill
ĠParl iament
ãĤ °
r ors
Ġmist ake
ĠI d
Ġcryptocur rency
ĠHarr is
ÐµÐ» ÑĮ
Ġc ou
ãĤĪ ãģĨ
Ġfix ed
ĠM oh
Ġik ke
Ġsub scrib
Ġd iet
Ã© es
Ġext ended
Ġt ies
Ġnews let
Ġdevelop er
ĠV enezuel
we ight
A G
Ġ urban
p an
Ġnom ine
ĠM ah
ĠM as
ĠD NA
Ġmat ches
Ġn os
ĠT urn
f all
Ġpar am
ick en
ast s
oc ation
Ġopp onents
âĸ Ī
ĠTay lor
Ġ200 1
isc hen
Ġwithd raw
ĠA S
ĠB a
Ġc Äĥ
Ġjournal ist
f ol
ĠM iller
Ã Ĥ
ial s
lud ing
åĩ º
ĠL GBT
iff s
Ġput s
ĠWil son
ĠWh ich
Ġas ide
ograph ic
Ġcontract s
Ġhe ight
ĠChar les
Ġcruc ial
ad el
Ġco ffee
an z
Ġvers ions
ĠRe view
Ġstud io
Ġbl ame
Ġcontribut ed
ĠC IA
ak a
Ġr u
ĠÅ Ł
Ġclaim ing
Ġfrequ ently
Ġcond em
Ġinf l
Ġassist ance
ins on
Ġaut hors
Ġr us
Ï İ
0 8
so le
ĠPol icy
ut ral
Ġencour age
end ers
Ġattack ed
Ġnarr ative
Ġse lection
es ome
ÑĤ ÑĮ
Ġal ive
Ġfor th
Ġreg istered
Ġtop ic
pect ed
å ¸
Ġdr ag
un ning
Ġs and
ĠO N
Ġteac her
m od
c hers
0 4
ÑģÑĤ Ð¸
Ġr ig
ĠI owa
Î ¸
ĠN BC
anche ster
Ġd ry
est a
Ġdes per
Ġdep th
j et
Ġreal ized
Ġincred ible
Ġfol ks
Ġt ur
Ġprec ise
Ġdisco ver
ĠC redit
Ġto d
h ar
Ġun known
ĠS ov
Ġwin ter
Ġd ella
Ġide al
Ġantic ip
abin et
Ġprof ile
ĠB at
i ples
Ġg est
ãĥ Ĩ
ĠJ osh
% )
Ġp and
Ġthreat ened
Ġdel ivery
v or
Ġnar row
Ġadv is
fl ix
Ġ4 2
Ġt ied
Ġterrit ory
Ġad apt
ĠK er
ĠCru z
Ġso le
Ġw age
enc ia
ĠL ink
Ðµ Ðº
ĠV is
Ġtr uck
Ġt ort
Ġvill age
pr ise
Ġrefer red
Ġdefe at
ĠPrem ier
n en
ost er
Ġret ire
Ġinsp ired
Ġpl ed
re hens
ĠU t
Ġsudden ly
Ġwin ner
Ġcry pto
Ġslow ly
em pl
Ġcon vert
×ķ ×
ild ing
Ġcount y
re p
Ġob tained
ĠBern ie
Ġb ike
Ġbe ar
Ġsqu ad
Ġswe et
os it
ĠAr ch
or ation
Ġlic ense
Ġs outhern
ĠSp an
5 6
b n
ur i
Ġrefuge es
f r
Ġlim its
ĠH ave
Ġlo an
Ġe ating
ism o
all as
ĠR og
Ġn orthern
C l
Ġen able
iam i
4 2
Ġfound er
×Ļ ×
ĠL ew
Ġch ampion
Ġbrow ser
ĠF ood
ĠSte ven
Ġs oul
Ġanc ient
ãĤ µ
Ġtrans actions
ĠC amer
Ġpl ot
Ġresist ance
Ġso bre
if er
ĠC ross
Ġfem in
ĠS at
Ð³ Ð¾
O D
ĠAn th
ĠG reg
Ġc os
Ġcor ruption
ed ia
c ar
ĠIr ish
Ġ( $
ĠN ations
ure au
Ġans wers
Ġext rem
ãĤ £
4 1
Ġbas ket
Ġdog s
Ġd ress
Ġfall ing
Ġselect ed
ing u
Ġalg orith
Ġfeed back
Ġev olution
Ġcommunic ations
Ġunc ertain
for ce
b oy
ĠUn fortunately
Ġdis ag
Ġlat ter
ap se
å ī
Ġt amb
Ġrecogn ize
EM ENT
3 00
Ġdem ands
g ender
Ġd im
idel ines
em s
Ġreve al
Ġrep orter
ĠT es
Ġcoal ition
Ġact or
ĠMay or
Ġfranch ise
ul ous
Ġsch ol
reg on
Ġrepl aced
n ame
Ġtre es
Ġman ip
Ġcontin uing
Ġlawy ers
t le
ut ch
Ġpo ver
ĠDet roit
Ġempt y
ĠL ive
Ġ6 5
se a
ĠC are
Ġcomp onents
n ed
ay ers
ĠF oot
Ġass ert
ĠM anchester
Ġperson ally
Ġany way
Ġex hib
Ġrestr ictions
Ġunderst ood
ep ing
Ġaud io
Ġe tt
ĠC ivil
ĠL ist
ĠAc adem
Ġregul arly
est e
U N
ell s
um er
b lic
Ġw id
Ġra pe
ĠH om
è¡ Į
Ġpurp oses
Ġass ume
ĠMos cow
Ġautom atically
p es
Ġspokes person
ĠN orthern
hen tic
b i
Ġpl ug
l ad
ĠN ight
arg o
in f
ĠCath olic
s m
ĠU r
ĠDevelop ment
4 3
ĠIran ian
ĠJud ge
ĠS uch
ĠÐ ľ
Ġworld wide
0 7
Ġcour ts
Ġout come
Ġe ll
äº ĭ
Ġt ou
ĠG all
Ġelectric ity
Ġe gg
Ġs ind
Ġt ank
Ġpover ty
% ,
Ġsat ell
rim ination
ÏĦ Î±
Ġocc asion
ot es
ĠEm ail
Ġcomp ens
Ġsh r
Ġs ample
Ġconst ant
Ġun employ
Ġthem e
im ents
Ġth read
z z
Ġreject ed
Ġun iverse
8 6
ĠMin nes
Ġstrong er
Ġbr ut
Ġdri ven
0 6
Ø§ ÙĨ
Ġaccur ate
Ġsol ve
st one
Ġarg uments
m ont
ĠD E
C on
Ġr ival
Ġest ate
ra id
Ġhon or
ĠM ajor
Ġinform ed
Ġgener ate
Ġcut ting
ĠÐ ł
ĠA FP
ult ural
Æ °
Ġj un
Ġbill s
Ġdirect ed
Ġend ing
Ã ĥ
or ic
ĠF ull
ä ¿
Ġt as
Ġn ut
Ġg aming
Ġj ur
ĠD ark
og en
k ed
Ø§Ø ª
ĠG ov
Ġd ur
x ic
Ġh its
ĠE xt
I m
ĠP el
ĠEn v
Ġterror ism
ess ed
Ġch ances
Ġsympt oms
id ency
Ġstrong ly
Ġkeep s
Ġm arch
ĠCent re
Ġofficial ly
A t
Ġb unch
ific ations
or se
Ġequ ival
ĠSe a
re te
Ã¸ r
ä¼ ļ
U L
Ġassist ant
ce ived
Ġind ex
ĠMc D
Ġpark ing
Ġthe rap
Ġ4 00
k el
Ġphen omen
ĠIn formation
Ġprot ocol
Ġcrit ics
Ġperson nel
Ġfif th
ĠN ever
Ġsome how
Ġany more
Ġincred ibly
ĠSen ator
ĠMc G
Ġm ail
ear ing
Ġret urning
Ġoper ate
m al
Ġt i
Ġdestroy ed
u ce
Ġapprox imately
ĠÎ ´
Ġ ë
Ġaim ed
ĠJ ac
E x
Ġest Ã¡
Ġemploy ment
rent ly
Ġfeat ured
Ġs ight
Ġent r
5 7
ĠEn d
Ġaspect s
Ġpriv ile
Ġim per
å Į
Ġk an
ĠS H
ĠÃ¼ ber
Ġdo zen
Ġrec overy
Ġreg ions
Ġconst antly
i y
Ġcontroll ed
Ġcateg ory
we et
Ġacc us
ten se
Ġgot ten
Î¹ Î±
Ġprop ag
Ġd ict
Ġrel ief
Ġag ric
Ġrul ed
Ġobser ved
Ġfor med
Ġsome body
Ġcy ber
Ġ15 0
oc key
ec ut
Ġh al
Ġwork er
Ġprior ity
st ar
ĠMinnes ota
Ġill ustr
Ġtick et
Ġk ing
w o
Ġmag ic
Ġsign al
ĠB ru
d es
ie g
ĠAN D
Ġsome where
A pp
Ġ Ã¤r
Ġw est
ost a
ĠO S
am os
os is
Ġtrans m
Ġext ensive
ĠSoc iety
ãĥ ĩ
T IS
Ġreason able
Ġst able
Ġmere ly
ĠS on
Ġst uck
Ġnew ly
ens ity
ĠArab ia
ĠConst itution
ĠM iami
ab ama
Ġestabl ish
Ã¢ n
Ð° Ð½Ð¸
ĠR en
ow ed
Ġf er
Ġestim ates
Ġnegoti ations
Ġt ag
P C
Ġcompar ison
ĠNet flix
Ġperman ent
Ġrac ist
Ġra ising
Ġsp r
æ Ķ
à¥ ĩ
ĠOn t
ĠP erson
==== ====
Ġext ension
Ġcho ices
ĠJose ph
Ġfind s
J P
Ġamount s
ĠZe aland
Ġimplement ation
ir y
r ary
ĠÐ² Ñĭ
M S
Ġcomp onent
Ġap artment
Ð½ Ñı
ĠO regon
åĪ Ĩ
ĠS outhern
Ġexcept ion
l ights
Ġsitu ations
Ġch osen
Ġen orm
ĠAr tic
Ġb oot
um in
Ġperfect ly
ĠBl oom
in ity
if orm
5 8
ack ed
ĠN ation
Ġsp in
Ġ4 7
id os
Ġd rawn
Americ an
Ġp ace
Ġesc ape
Ġtyp ical
ĠC B
ĠL ind
ĠPri v
Ġf iscal
Ġc ust
g reg
é ĥ
Ġfield s
Ġjud g
Ġno body
ic ations
s hip
Ġaff ili
ç ¤
Ġscen ario
Ġwe ird
b al
Ġst ead
ici ency
l as
ĠMin istry
Ġman ifest
Ġprocess es
ann a
Ġfarm ers
il ly
Ġ200 2
Ġaggress ive
Ġro ster
Ġs ig
Ð° ÑĢ
æ Ħ
ĠFor mer
Ġdefin ition
qu es
Ġ âĢĻ
ĠM ir
Ġveter an
ĠOr ig
Ġvalu able
Ġsuccess fully
Ġf irms
res a
ĠP A
t aining
iz ar
ĠE arlier
Ġtest im
< /
w orth
Ãº blic
Ä Ľ
ab s
Ġco ordin
Ġrout ine
Ġ6 4
Ġext ract
Ġad s
ĠH ard
Ġelse where
ov a
Ġeng age
Ġt or
b orn
Ġconclud ed
Ġhistor ic
Ġon t
ĠAl abama
ed a
0 3
Ġd ar
in ations
Ġperm ission
ĠAn ton
ĠO K
Ġins pir
Ġinc ent
ĠSp ain
is i
Ġs ont
f ound
Ġang ry
Ġcompl icated
Ġ4 4
ut o
ĠDe ad
Ġhous es
ed e
ĠD allas
ãģ« ãģª
ren cies
ĠUs ing
e xt
Ġdoll ar
Ġe ast
Ġeng aged
fe rences
Ġgr anted
Ġbl ocks
ĠPro t
ili pp
Ġz e
å ±
ĠC ore
Ġconcl usion
ÃŃ tic
Ġmach ines
Ġent hus
cript ion
ĠBl ock
ind ing
Ġinn oc
Ġsp ark
Ġev il
il arly
Ġcol on
ad i
0 2
Ġintel lect
ĠP en
Ġexpect ations
Ġfo i
Ġstret ch
o j
Ġform al
Ġter rible
ĠSpan ish
ĠTurk ish
Ġro ot
ĠK at
ĠU lt
ĠInde ed
çĶ Ł
Ġf lying
aren ess
ï¼ Į
ij ing
Tr ump
Ġave c
u v
ĠT ony
ĠL y
Ġparticip ate
ol i
Ġemer ged
ĠCommun ity
ĠV R
ĠPl us
Ġatmosp here
Ġwer den
ĠAD VER
ĠM it
Ðº Ð¾
ĠÐ¸ Ð·
ĠMo ore
Ġgener ated
ĠDo es
ĠF orm
re a
ag a
Ġover se
r ific
Ġgr ant
ic ate
çĶ ¨
im o
Ġair port
ãĤ Ń
ãģ °
ĠTh us
Ġ ÑĢÐµ
Ġdo zens
ĠS ever
ĠS et
Ġ4 6
f ront
ĠE SP
ì Ŀ
æ ¥
Ġt ent
æĻ Ĥ
Ġpil ot
AT E
ĠMed ical
Ġannoun ce
B l
ick et
Ġre ly
ĠADVER TIS
Ġacc eler
ĠTh rough
Ġex cess
ond e
Ġn ur
Ġbus y
Ġprogram ming
éĸ ĵ
Ġvis ited
Ġo t
ĠPac ific
ĠS anta
ãĥ ī
Ġpenal ty
au x
ul ui
Ð°Ð» ÑĮ
Ġfoot age
æ ³
Ġrac ial
ĠK ent
Ġele v
ĠLin ux
Ġm ac
Ã³ n
Ġt all
Ġcontrol s
ĠProf essor
Ġstrugg ling
Ġex ists
Ġmanufact uring
sc ape
ĠD O
Ġcapt ured
Ġb om
Ġsurv ive
Ġregard less
ung s
Ġback ed
ĠH ay
ĠB or
u ine
ĠW as
Ġel ite
Ġst im
Ġr om
) )
ĠSov iet
Ġw ww
å ĵ
Ġill ness
Ġp i
ort ed
ol en
ĠCh ampionship
o z
g ar
ons in
Ġg ift
ld er
ĠS i
Ġfe e
ĠCo ast
ĠA z
ĠC re
Ġ4 3
Ġinst alled
Ġdisc ipl
Ġph ones
Ġ4 1
x ual
Ġb anned
y er
l ers
å ĳ
ĠØ ¹
Ġcollect ed
èĩ ª
Ġvis ible
ĠItal ian
ĠA le
Ġdef ence
ĠDel hi
. -
Ġpro ven
ĠADVERTIS EMENT
Ġchalleng ing
Ġrep ro
c ut
Ġscen es
Ġdep ending
Ġexp osure
Ġatt ended
. [
ĠJ un
ĠScot land
è¦ ĭ
u ous
ĠAr m
ĠP ass
Ġrepresent ed
Ġrem arks
isc onsin
Ġacc omp
Ġp ent
ĠEx per
Ġmix ed
Ġd uty
Ġbeh alf
h y
eng ers
elf are
w orld
Ġdis aster
ĠJ ason
Ġconsum ption
ib ilities
Ġreput ation
Ġpass es
Ġn ie
ant i
Ġg onna
Ġadvert ising
ĠSer ies
ann y
in ch
Ġprogress ive
Ġmark ed
ist ent
Ġh idden
Ġmin ing
prof it
Ġprom inent
Ġun w
ĠD oug
Ġstr ict
Ġaw esome
a o
Ġw ed
ĠBe ijing
Ġcapt ure
ou ver
Ġent ering
et e
Ġinvestig ate
Ġlet ters
ĠÐº Ð¾
Ġshort ly
ĠRom ney
ĠR ay
æĢ §
Ġsur gery
Ġprim arily
Ġenem ies
ĠInd epend
4 00
oc a
y ou
Ð½ Ðµ
Ġresult ing
Ġprep are
Ġpro ved
is en
ãģ® ç
B e
ĠAP I
ĠInt elligence
ĠNH L
adel ph
ĠConserv ative
Ġin tense
ĠN ob
Ġaut o
j ud
or i
et ary
Ġaf raid
ĠB owl
Ġdep uty
ĠB ang
Ġwebs ites
ĠP op
Ġtechn iques
a us
Ġpain t
Ġacadem ic
re f
Ġexplan ation
ÐµÐ½ ÑĤ
ik es
und o
em an
Ġdist inct
Ġdrink ing
ĠEduc ation
ĠN C
ĠCh air
9 8
Ġcons cious
ĠWhe ther
v y
ĠB ry
Ġdeg rees
Ġ197 0
m aking
Ġhad n
Ġst ake
ir k
O h
Ġcompet e
Ġh am
ab eth
Ġupp er
ĠU C
6 7
Ġexpl icit
Ġf ab
a ven
Ġunc lear
Ġf ighters
Ġdo ors
é Ļ
Ġdev ast
if ies
Ġprocess ing
Ġcreat es
Ġtack le
ĠB ell
Ġb ol
Ġto ken
Ġtrou b
Ġevery where
ed ing
R I
Ġce rem
ĠR us
Ġsu fficient
ĠPat rick
Ġrec ip
Ġdis pl
Ġel ig
ĠW isconsin
Ġres ign
adelph ia
Ġr ating
Ġro se
ĠV iet
c ore
Ġha b
ĠS E
ch ange
ott ed
r age
g t
rat ors
Ġcamer as
Ġimpe achment
Ġmin ist
ĠA st
p age
e lect
ams ung
ĠAnth ony
ĠN AT
Ġminor ity
ĠS S
Ġr ural
ĠH ospital
ĠRel ated
ĠS ir
Ġinter face
Ãĥ ÃĤ
ob s
atur ally
ri ers
m i
ĠMus ic
Ġiniti ative
ĠCont rol
athe red
Ġv ital
p read
j s
ĠF red
Ġin ev
og ether
Ġg all
Ġtrack s
ĠP ack
Ġw ie
Ġc ited
ÃĥÃĤ ÃĥÃĤ
ach ing
ĠH as
Ġla id
Ġbl ind
ĠÙ ģ
Ġorgan ized
ĠP ot
Ġsh ock
ĠL iver
ĠH D
v iously
A d
ĠAs h
ĠP oint
ãģ® è
Ġframe work
Ġloss es
Ġt aste
ĠEl iz
ĠG iven
i ar
Ġh osp
à¤ °
Ġengine ering
Ġex ternal
le te
Ġ iron
ĠL A
os ystem
st yle
ĠH T
ĠA k
Ġtrans action
ĠSe ason
ĠTes la
ĠS us
ĠR ose
ãĤ ¦
ĠBe ach
ĠAm endment
ĠWith out
ĠC irc
Ġch ampionship
ĠH ind
Ġc up
Ġph r
ĠAdmin istration
Ġinvestig ating
ĠRad io
ick ing
Ġbase ball
ĠÐ ¶
port ion
il ton
Ġr ub
ĠÐ Ĳ
Ġgen uine
Ġtit les
ath y
ĠA ction
Ġsol o
h ot
ĠP ent
og y
Ġhom eless
sel s
onn ell
ĠJ ay
Ġcampaign s
ol o
Ã© g
Ġdec k
Ġhealth care
P M
ĠAd v
Ġprinc iples
qu arters
f und
Ġmed ium
Ġo l
Ġa ux
Ġconspir acy
Ġst ations
ĠB al
Ġtra il
ĠPhil adelphia
ie re
Ġunus ual
or ne
Ġteach ing
ĠDie go
Ġp orn
Ġocc as
Ġenjoy ed
Ġn ach
ides pread
å ¥
ĠPh ilipp
Ġtick ets
Ġfeel ings
Ġstri kes
Ġwonder ful
ĠR os
Ġa ver
Ġfun ny
Ġt ren
Ġrec over
rend um
ier t
Ġch at
ĠHe ad
r imin
Ġstrateg ic
Ġlight s
Ġve get
Ġdown town
ĠSomet imes
Ġport ion
ĠS ab
an ing
Ġrec ording
Ġ ðŁ
Ġexcl usive
ãĥ Ĳ
Ġto ler
Ġposs ession
6 8
as hes
Ġa Ã±
O ne
c les
Ġfr ag
ĠEx pl
p ost
ask a
ĠEnv ironment
Ġpattern s
ĠInt el
Ġconv icted
ĠA venue
Ù ī
ÏĦ Î¿
am med
Ġout break
F F
ãĥ £
ĠV ice
Ġimplement ed
ĠN OT
.... ....
Ġtrig ger
ĠF air
Ġw estern
ĠMatt hew
ĠT rib
Ñĥ Ð´
ust ed
ari os
Ġprov iders
ĠÃ º
Ġinter act
Ġfound ation
Ġy ield
P e
Ġm ad
Ġdiscuss ions
ĠR ick
Ġequival ent
inte rest
ãĤ į
Ġpartners hip
ĠPr ice
Ġp ounds
Ġinterview s
Ġfore st
Ġresult ed
Ġwar ming
ÑģÑĤ ÑĮ
ĠSt one
ĠTe ch
Ġjo ining
Ðµ ÑĢÐµ
Ġliqu id
u j
ig g
Ġd istr
Ġrecogn ition
Ġbr idge
in en
ink ing
Ġdescrib es
ĠVe gas
ut t
Ñİ ÑĤ
Ġta ught
Ġsa ved
ĠSever al
ĠN on
Ġdel iber
ri ent
re tt
W ith
Ġshe ll
are t
ĠD as
Ġmain ly
ĠN avy
Ġmag n
Ġrapid ly
ĠC ook
a ug
Ġp ump
Ġdraw ing
Ġnomine e
Ġr app
ĠUp date
ãģ ĺ
ĠESP N
y o
Ġpl ate
Ġmigr ants
re c
es y
ĠGuard ian
ĠE astern
ÐµÐ½Ð¸ Ñı
Ġstream ing
Ð½Ñĭ Ñħ
Ġfore ver
Ġ- >
ĠS amsung
Ġrepresent ative
ĠC ode
se m
Ġex port
Ġrec ru
Ġtax p
Ġdem ocratic
Ġun ex
ä½ ľ
ĠL ittle
Ġsc andal
et ime
p at
Ġwrit ers
ĠHar ry
M L
Ġf ault
ES T
g ener
ĠO ak
ĠD un
ĠB und
Ġvisit ors
Ġv end
R S
Ġinvestig ators
ac er
Ġre ducing
enn es
ĠY eah
Ġactiv ist
ĠR s
Ġreach ing
ac ional
t hen
ç ķ
ud es
Ġhead ed
ĠAcadem y
ãģ« ãģ¯
: :
am ber
ivers ary
ĠC BS
ĠMod i
Ġpod cast
ul ating
iz on
Ġk om
Ġleg end
Ġf ought
Ġh ole
Ġrid ic
Ġj ury
less ly
Ġclub s
ov al
Ġsens itive
rat or
ĠH it
or ough
Ġcomp rehens
å £
Ġdin ner
9 7
ow e
Ġfl aw
m ir
Ġh ang
ĠP ubl
oun ced
Ġ 00
Ġod d
Ġdisc rimination
+ +
ĠB all
Ġsusp ended
ĠF al
Ġover s
Ġestabl ishment
ĠJ am
Ġreg ister
Ïģ Î¿
Ġg ained
P l
ol is
Ġne utral
Ġro les
Ġre duction
ĠF all
Ġsm ooth
Ġh itting
op her
Ġtempor ary
Ġf inger
Ġ !
ĠH aving
5 4
Ġre ven
Ġadop ted
Ġth in
Ġpa ÃŃs
Ġtr ab
isc he
Ġmy th
Ġpand emic
Ġun com
Ñģ Ðµ
Ġw idespread
d ri
ĠR oyal
up id
é ¡
Ġsett ings
ĠJust in
ass ador
us et
ĠCon ference
Ġhand ling
Ġrecomm ended
ing ton
Ġf oss
ĠR oss
Ġsc reens
Ġrefer ring
ut ter
ï ½
P G
Ġproduc er
ĠP od
Ġf i
5 3
Ã¤ l
Ġlist ening
Ġw ra
ann els
Ġche cks
Ġm unic
Ġsp aces
ĠC L
Ġphot ograph
Ġent it
on der
B O
Ġhol iday
Ġfear s
Ġmen u
Ġlic ens
è ¿
Ġdeep er
ĠL ear
Ġcompl aints
Ġcont ribute
Ġinv ent
ĠLiver pool
ĠCon nect
Ġl oyal
Ġaut hentic
Ġup set
Ġcanc el
Ġbare ly
Ġ Ñı
ore n
Ġprosecut ors
Ġpro sec
Ġw ing
Ġreview s
p ower
Ã¼ n
ĠInd ust
Ġimprove ments
A Y
å ·
sy lv
ĠN ic
r ison
Ġrare ly
ä ¾
Ġo cean
5 2
G O
Ġi OS
Ġth ick
he im
ĠFollow ing
Ġsuggest ing
ĠM ain
Ġbasket ball
' .
Ġsc oring
Ø ´
ĠÎº Î±Î¹
ĠSupp ort
Ġ5 1
Ġper pet
Ġachie ved
own ed
roll ed
ag ger
ir ts
ĠÐ ŀ
ĠEng ine
Ġcongress ional
Ġbr anch
Ġpart e
Ġfail ing
ĠOnt ario
Ø ¬
app y
c or
ĠM ill
Ġconvers ations
ĠR and
ition ally
b ell
ut ies
ĠT ro
Ġno ise
a way
m aker
ĠSc ient
az z
V E
Ġk o
E very
Ġsuspect ed
Ġview ers
ĠP H
f low
t urn
Ġbehavi our
Ġstruct ures
Ġdecl ar
ĠT ri
ĠT own
ĠF ed
ant es
Ġtas ks
Â» .
Ġh ide
Ġball ot
Ġhead ing
ĠK r
Ġthous and
m at
yth on
Ġh ired
Ġl oud
mon th
ĠT ai
Ġfriend ly
ãĥ ¥
Ġext end
ĠF ix
Ġc able
Ġlik ed
ãĤ ª
Ġtestim ony
Ġconst itutional
Ø Ń
ĠK ar
Ġpet ition
ĠBer lin
o en
Ġur ged
ĠEliz abeth
Ġdef ine
b b
Ġclos ing
Ð½ Ð¾Ð³Ð¾
Ġb ail
ig t
Ġmove ments
Ġr iver
Ġ ~
Ġan ger
Ġoverwhel ming
Ġre vel
ĠTechn ology
Ġaw areness
ĠH an
ĠPenn sylv
Ġun iform
ãģª ãģ©
ĠJ enn
Ġbeg un
ĠHen ry
Ġres ource
ĠAtl anta
Ġroad s
5 1
D o
ph ones
Ð½ Ð¾Ð¹
um es
Ġowners hip
âĸĪ âĸĪ
Ġindic ated
Ġt rem
à ¸
Ġas ks
ĠB ra
Ġdi verse
ĠH ur
ãĥ ĭ
Ġec osystem
re ts
Ġmiss ile
Ñģ Ð»
th is
S cript
Ġb orrow
ĠB es
M an
Ġ= >
Ġappreci ate
ou red
burg h
ĠH on
qu er
Ãªn cia
åĲ Ī
ĠÑ Ħ
Ġpe ak
ĠF inal
ĠSpe aking
ĠR aj
ãģ§ ãģį
ĠQue en
Ġconnect ions
Ġg athered
Ġprogram me
Ġsc ream
Ġindic ate
Ġpass engers
ard o
Ġdesc ription
Ġfore cast
ĠGold en
Ġvot er
Ġrecogn ized
ĠH and
ai res
ann on
Ġdes p
Ġex ceed
it ter
at ar
T ER
Ġfl ash
Ġrefe rendum
Ġf ulf
ĠC ustom
ah r
ĠOn line
Ġins ist
ĠÅŁ i
Ġt ail
Ġwall s
Ġprinc iple
? ?
ĠPr ince
è ²
ÏĦ Î·
omm od
Ġpre ced
Ġ ÙĦ
ĠU ber
Ġinv ited
Ġtarget ing
Ġfound ed
ĠKing dom
ĠArtic le
iz er
ap ore
ra it
Ġar ray
Ġcom ic
Ġ5 2
ĠR oy
R L
ic he
Ġcollect ive
ĠS ix
m ary
Ġcare fully
ĠM oon
Ġpro be
â Ķ
Ġprov in
em por
at en
ĠF ut
re z
Ġentertain ment
ĠAust in
ĠPat ri
ÑĢÐ° Ð²
Ġbe i
Ġhosp itals
Ġinvestig ations
Ġlo ans
E P
ess a
Ġinvolve ment
Ġguarant ee
ĠPennsylv ania
Ġcl im
Ġdynam ic
Ġla ugh
ĠHist ory
Ġnot ing
f ast
ah u
ãĥ ĸ
ĠB ad
Ġneigh b
c ase
Ġb ath
ĠFam ily
d i
Ġaff airs
ĠC ra
ĠDes ign
ĠE qu
Ġwhe el
w as
ĠS U
ess o
Ġmonitor ing
Ġtom orrow
c ific
Ġcl imb
igen ous
Ġgr ass
ĠS om
ĠC A
ut en
Ġsett lement
Ġpre par
he ast
Ġal ter
Ġdist urb
ĠFoot ball
h our
ic ation
Ð¸ Ñħ
M M
ĠQu est
anc ouver
Ġg ains
are a
ĠAll en
Ġpract ical
Ġcont ained
Ġrem em
Ġfeat uring
æĸ ¹
Ġsen ator
Ġrac ism
Ġtechn ique
Ġdest ruction
p rene
ĠRom an
Ġmind s
Ġw elfare
re ll
arr ass
Ġcitiz en
Ġser ves
Ġret ired
Ġhand ful
rop ri
Ġtr ained
Ġpent ru
Ġaddress ed
Ġact ors
Ġlay er
us ions
sen al
9 6
Ġinc idents
Ġattempt ing
The se
Ñģ Ð¿
uset ts
Ġmin istry
Ġafford able
do or
there um
Ġg rav
ach usetts
Ġd iversity
Ġconv in
ĠSqu are
Ġg ear
Ġelect ronic
N ot
Ġspeak s
å® ļ
Ġopin ions
Ġlog ic
Ġsett le
Ñĥ ÑĤ
Ġf el
o i
Ġf estival
Ġcomput ers
ï¼ ģ
k u
b ase
Ġv ent
Ġproduc ing
ar ms
ĠUn ivers
ĠJe an
Ġb er
Ġste el
Ġw ages
f in
Ġcoll apse
Ð¸ Ð¼
ãĥĥ ãĥĪ
ĠMar vel
Ġh ook
ĠD isc
h as
g al
Ġnom ination
n ew
Ġoffic es
Ġreg ulation
ific ial
ĠIm m
ĠSpr ing
ĠW W
ars h
Ġob tain
Ġsho pping
yl um
Ġsam ples
az ione
Ġdist ributed
Ġsm oke
Ġtrack ing
ĠC as
Ġnorm ally
Ġc ul
ĠC C
ino is
or gan
Ġphys ic
Ġprotect ing
ĠLat in
Ġseem ingly
Ġbene fic
Ġinnov ation
Â» ,
ER E
Ġr ic
ay a
Ñĩ Ð°
ĠK ansas
Ġany body
m ate
Ġnewslet ter
è ©
ĠU FC
Ġex it
Ġâ Ĥ¬
ĠB i
ĠVenezuel a
Ġjud ges
y t
Ġmedic ine
Ġadvoc ates
Ġfant asy
Ġfall en
Ġpublic ation
ĠAnd erson
Ġsuppl ies
Ġequ ally
ĠY OU
ĠMass achusetts
Ġprem ium
Ġprinc ipal
Ġprom ises
Ġl ands
ĠChe l
Ġf u
ak h
Ġing red
od ing
Ġst adium
Ġs Ã¥
Ġg al
Ġl ying
al ia
Ġult imate
åħ ¥
br idge
ĠGra ham
d el
Ġimpro ving
M e
7 8
Ġm erc
Ġread s
ĠSar ah
ĠS af
Ġsuff er
Ġunemploy ment
Ġacc ommod
p res
ĠV ancouver
ĠPro v
Ġdep ends
Ġtrans gender
Ġr amp
Ġl uck
ah l
iv als
wh o
ãģĹ ãģ¦ãģĦãĤĭ
Ġleg s
Ġfac ilit
Ġign ore
be red
ĠTe le
k ens
Ġth rown
ĠM ess
int endo
Ġtransport ation
ĠSing apore
Ġlow est
Ġl ists
ĠT ok
Ġcon ce
Ġcap abilities
Ġv ig
ou b
Ġlob by
Ġrestaur ants
c r
ĠEx ecut
te en
Ġinqu iry
Ġintellect ual
Ġwar rant
Ġe cho
Ġrespect ively
Ġmar ks
Ġbelief s
olog ists
ĠC S
Ġl ocked
ĠB ull
ĠNAT O
v an
ĠM ult
con f
Ġimprove ment
Ġincor por
Ġconc ert
er ia
Ġs ed
Ġsur f
Ġsc ores
Ġad mit
Ġbr ill
iment o
ãĥ ģ
ĠMan agement
ĠUt ah
ĠM ach
Ġ( âĢľ
Ġm oon
Ġdisco very
ĠE vent
Ġper mit
ist e
ĠÏĦ Î¿Ïħ
Ġassoci ation
Ġun pre
ĠF ield
ĠAssoci ated
Ġarri ve
Ġb ars
A B
Ġstat istics
let es
Ġepis odes
ĠGal axy
n ie
com es
Ġindepend ence
Ġass et
Ġest imate
Ġleg acy
ĠHaw ai
ĠKenn edy
Ġharass ment
ĠT ed
ĠPhot os
iss a
c ling
åł ´
d ated
ĠØ§ÙĦ Ùħ
Ġdead ly
ĠT our
Ġlegit imate
ĠCap ital
ĠRed dit
Ġconsist ently
Ïī Î½
ar am
ĠSy d
Ġhard ly
è ĥ
Ġattack ing
Ġpol ÃŃtic
Ġcover ing
Ġs oph
AN D
Ġcount s
st en
Ġtra vell
âĢĶâĢĶ âĢĶâĢĶ
P P
ĠP D
ĠN av
N S
ĠS now
åĲ Į
Ġne ck
Ġver d
Ġsh it
ĠW rit
ĠC reat
ĠPro p
Ġhelp ful
ay ing
Ġhuman ity
ĠAl i
Ġr het
Ġtemper atures
Ġw ars
Ġnot ion
er al
ĠDown load
Ñ Ĺ
Ġv ary
ĠLew is
Ġch annels
Ġal ien
Ġpres idency
Ġh int
Ġ199 9
co ver
ĠJe rem
Ġr aw
ĠLe ader
Ġin ject
ĠN orm
Ġt ips
Ġt one
Ġassess ment
ç §
Ġl ib
ĠMex ican
le tic
ĠR on
8 00
ĠÃ©t Ã©
Ġtouch down
ĠL ine
Ġforg ot
Ġvers us
A F
ĠÃ ¶
Ġgu idelines
b ra
Ġeff iciency
Ġr aces
Ġclot hes
ĠRep resent
y ard
h d
ap ing
ac iones
o pp
Ġed ition
Ġdram atic
l s
Ġb in
Ġlangu ages
Ġsw ing
ï¼ ļ
Ġfact ory
ĠB attle
Ġinvol ves
ĠB ul
ĠP age
le e
Ġun p
ac on
ĠM aster
ĠB rew
ĠF ive
ĠX box
Ġeth nic
Ġcorpor ations
st ract
Ġrank ed
Ø§Ø ±
ient o
Ġj oy
Ġein er
Ġsl a
ĠT R
Ġrel iable
Ġcare ful
ĠÑģ Ð²
Ġy a
Ġs orry
Ġacknowled ged
ĠCo oper
ge on
________ ________
der ing
Ġinter vention
we red
ĠÐ Ķ
Ġd ad
ĠÑĤ Ð°Ðº
ĠAr gent
Ġdr ama
Ġweek ly
Ġexpand ed
ced ented
f rom
Ġfant astic
ĠEx p
ĠP itt
Ġcust ody
ĠG aza
ry pt
Ðµ Ð²
ĠChrist ians
Ġcas ual
Ġsh ips
Ġcont ra
ĠS ony
f s
ĠM L
ĠSh ort
s he
Ġabs ence
Ġco vers
Ġal arm
ĠF O
ig ate
Ġhor ror
g un
Ġm ic
ĠÐ¿ Ð¾Ð´
Ġconvin ced
Ġvis iting
Ġtwe ets
Ġterror ists
Ġcelebr ate
Ġprof its
Ġast ron
ab et
Ġcent ers
el i
Ġadmin istr
ĠBloom berg
Ġsal ary
Ġc ock
id as
ple te
Ġstay ed
Ġphilosoph y
Ġaddress es
Ïģ Î±
o ir
ĠC a
Ġa er
Ġsub sc
Ġw ird
Ġgr ounds
s l
Ġz a
ĠD ave
ĠS ud
ĠCo hen
in st
ĠF OR
Ġcontrovers y
c as
Ġdom ain
Ġin ner
m ad
Ġp apers
ãĤī ãĤĮ
Ġpropos als
ast y
Å ĳ
ĠAlex ander
Ġpurch ased
Ġenorm ous
Ġesc al
u its
ĠF reedom
ĠV ill
E n
ĠT en
em a
cha ft
Ġencour aged
ĠÂ ©
ĠY emen
ĠS ie
ĠBro ad
ty pe
Ãº n
Ġencoun ter
Ġaut onom
sc ale
ĠØ £
qu est
r c
ĠM useum
vel and
Ġsubstant ial
Ġsug ar
Ġsh out
Ġbo at
ĠRober ts
ĠÐºÐ¾ ÑĤÐ¾
in ction
ĠE th
ĠP ict
r ical
ĠDiv ision
Ġthe at
ĠIll inois
G E
p ie
Ġf ur
Ġle ts
hold ers
ĠWalk er
Ġch apter
v ard
Ġl ucky
ĠKe ep
Ġarr ang
Ġview ed
Ġr anks
ke ep
Ġrec all
Ġemb arrass
d is
ĠLiber al
Ġdemand ing
back s
Ġcontribut ions
Ġintro duce
ĠMic hel
ades h
ar ity
Ġblock ed
ĠE PA
Ġmarg in
p ire
Ġcons ent
Ð¸ÑĤ ÑĮ
Ġ5 6
Ġhand ed
Ġrepl acement
ĠL yn
Ġrepresent ing
è Ń
ater al
. âĢľ
Ġgen etic
Ġco aches
is ons
ĠColumb ia
oc ument
ĠFr ont
F A
Ġab road
Ġd rew
Ġcooper ation
Ġbl ast
ĠTr ade
kl ah
Ġsc ope
Re uters
Ġthrow ing
Ġinstr ument
Ġrepl ied
Ð¶ Ðµ
Ġm ask
éĸ ĭ
Ġmonth ly
ĠÏĦ Î¿
ĠLe on
ĠB ureau
Ġsp oken
Ġinfl ation
ãģ¾ ãģĹãģŁ
ĠSt adium
Ġ5 7
ĠL og
ar ry
ĠO pp
Ġinvest ments
Ġmil k
enn is
ect ion
ad ores
Ġw ider
ÏĢ Î¿
Ġd ump
æ Ĭ
Ġprep aring
ĠE T
åĭ ķ
Ġins isted
D e
Ġst upid
Ã³ w
Ġcol ors
Ġh ier
Ïĥ Î·
ĠA ge
ĠCor por
ĠL im
Ġus age
ĠB JP
z ie
all a
Ġ5 3
Ġst olen
Ġcivil ians
N BC
Ġupgr ade
Ġw ine
Ġmain tained
ten ance
Ġregul atory
ose xual
con nect
Ġsa ving
Ġsum mit
Ġcon sole
om es
ĠB ud
Ġtri es
Ġmist akes
ak i
ĠÐ¿ Ð¾Ð»
ĠJon athan
ĠB ron
ĠN S
Ġatt ached
Ġrequest ed
Ġeas tern
ĠC u
Ġst em
US T
av ana
Ġbon us
Ġbeaut y
ĠN intendo
ord on
Ġha ben
ĠChel sea
ĠR est
Ã «
Ġanx iety
Ġv es
ĠPel osi
Ġindust ries
ĠSt ore
sh ire
" >
ct ic
ĠE mer
Ġland scape
Ġins pect
ĠD ur
Ġrel ax
Ġreb u
æĸ °
Ġm os
ĠN one
Ġj et
ĠG T
Ġt ens
b et
Ġr if
ij n
Ġto kens
Ġadv iser
ĠIm p
Ð¸ Ð´
Ġsubm itted
kt op
it age
Ġes p
Ġconc rete
ĠSyd ney
ĠP or
C A
ĠÎ ¿
ion i
Ġresc ue
ĠE ag
Ġst one
ĠMore over
Ġperson ality
Ġro ok
Ġpres um
ĠO tt
v ia
be it
Ġas ylum
pl us
Ġann iversary
ĠDen ver
part y
Ġf ro
Ġbroad er
G o
il or
æ Ľ
ĠRev olution
Ġf ruit
Ġb acter
ĠC ON
ĠII I
Ġc oc
Ġâ ĸ
! )
ĠAff airs
Ġgu id
Ġpoll ution
K E
Ġcomprehens ive
ĠG irl
est y
Ġdif f
Ð½Ñĭ Ðµ
ĠO klah
ĠLe ft
Ġst ages
ĠE in
inc luding
8 7
Ġrepresent atives
Ã¤ Ã¤n
it ate
Ġbreak s
Ġdismiss ed
ass y
Ġl ux
ĠC ro
Ġab er
Ġrespons es
Ġconst itu
ĠDe ath
Ġshould er
ak t
ĠDig ital
Ġviol ation
ĠEvery one
Ġfollow ers
ï¼ ĳ
ol ar
Ġso il
ile y
ĠMad rid
ĠL t
Ġentre prene
et ers
Ġ1 20
ĠK han
æ Į
Ġorgan is
Ġstay ing
Ġfl ags
ĠThere fore
ĠCome y
Ġde port
Ġdep ression
act ed
6 00
mer ce
Ġfund ed
Ġanaly st
Ġlegisl ative
ĠB eng
c rib
C S
em it
ĠA ud
anc ial
ĠS ure
Ġpolit ically
Ġr ational
Ġdon ations
Ġcomp are
ĠE thereum
Ġdisc ount
Ġmount ain
Ġtrans it
ĠH al
Ġfall s
Ġexcl us
Ġunivers ities
z es
on ly
Ġcritic ized
Ġign ored
em ed
Ġrob ot
le m
ĠL ow
ĠE ver
Ġth rew
ĠUn like
N D
is ch
re b
Ġd ance
ang el
tr ans
Ġ5 4
Ġbu ff
Ġwat ers
Ġbreat h
as i
ĠGree k
ĠAs sembly
è¨ Ģ
Ġact ively
Ġkit chen
Ġstrateg ies
Ġvirt ually
Ġhe n
ĠH ope
ãĥ ł
Ġc i
Ġfocus ing
h igh
Ñĥ Ñİ
ĠAb b
Ġf ost
Ġpo ly
ĠK u
Ġphot ograp
Ġunivers al
r ite
ĠSing h
igr ation
s es
Ġout lets
Ġgu est
Ġgr id
Ġspokes woman
Ġelig ible
d ie
Ġb orders
it ol
Q u
ĠMP s
Ġlet ting
S p
ĠW ales
ord inary
Ðº Ð¾Ð²
ĠNe v
Ġstri king
Ġd ates
Ġg am
Ġmanag ing
Ġbank ing
Ġcons ensus
Ġass ign
à¥ į
Ġcr imin
Ġpurs ue
Ġpip eline
Ġatt itude
ĠMc K
Ġ5 8
re ction
Ġph arm
Ġsil ence
w atch
ĠBro ther
H z
ĠG ro
Ġdis se
ĠPort land
ap es
ĠMor gan
å® Ł
Ġke ys
m ade
C E
ĠR ather
ag ers
Ġjo ke
ĠOklah oma
Ġhop ed
ĠD ream
ĠÐ¿ ÑĢ
Ġin equ
Ġperform ing
Ġ199 8
b es
Ġ _
ĠHow ard
Ġw rest
Ġunex pected
ĠCle veland
ĠF riend
Ġ2 50
Î¯ Î±
Ġb il
et he
ä» Ĭ
Ġno ch
ĠB udd
Ġdead line
Pe ople
Ġbrother s
Ġwhen ever
ist as
Ġcont rad
Ġunpre cedented
im ore
H S
Ġc am
y es
L Y
Ġscr ut
Ä± n
Ġo der
ĠSe an
Ġhor se
ĠB on
Ġb ot
arr ing
ĠÐ ¢
Ġn aturally
Ġcl ock
Ġt ie
Ġhead lines
th rough
Ġ19 60
ĠIndian a
Ġint im
Ġdes erve
og s
Ġstrugg led
Ġst ability
room s
Ġpropag anda
ĠB ase
ĠL ocal
Æ° á»
ind a
Ġdiv ided
âĶ Ģ
ĠAtl antic
od ed
ĠB uff
w alk
Ġsmart phone
ĠAl ber
Ġaim s
ĠIraq i
Ġschol ars
ĠK now
at us
ĠT ry
Ġ9 5
he ld
ĠChild ren
Ġc ens
Ġpred icted
ãģ¦ãģĦ ãģŁ
v ar
el son
V P
Ġtr illion
Ġinstruct ions
h op
Ġinf o
Ġton ight
Ġspirit ual
ĠExecut ive
Ġrock et
Ġsurv iv
ĠR un
Ġth orough
l ined
Ġroom s
Ġaccess ible
Ġquestion ed
av ed
W ell
Ġn as
Ġthreat ening
ĠB alt
Ġcont aining
Ġi P
ac hel
I E
Ġsatell ite
Ġo kay
ĠSh ould
Ġgener ations
áº ¡
Ġwal let
ĠÐº Ð°Ðº
ut ed
Ġpl ain
C o
we i
aut hor
Ġse arc
Ġprom ising
l ie
Ġrat ings
ĠJerem y
Ġm aps
Ġprofession als
Ġpresident e
Ġsh ame
Ġkil omet
Ġobject ive
Ġfoss il
st al
Ġto xic
h u
Ġhead quarters
ĠV en
Ġhy per
min ute
uck er
z ed
ĠAdd itionally
ĠO d
ĠCamer on
é «
ãĤ ¨
at iv
ĠK l
Ġproduc ers
r if
b at
Ġbro wn
ht ml
Ġpr Ã©
Ġpar alle
Ġ9 9
ĠS ant
Ġun ions
Ġpers ons
ĠTy pe
Ġa qu
6 9
Ġappoint ed
Ġg er
Ġsy mp
Ġh ung
ĠS D
Ġarg uing
Ġsh adow
a ud
ĠS in
Ġpopul ations
ĠTrans port
é Ŀ
Ġbur den
Ġveter ans
Ġemer ging
Ġc iting
act s
ĠL ater
Ġod ds
m ic
Ġoverse as
ĠÑģ Ð¾
Ã¤ h
Ġcerem ony
ĠUkrain ian
Ġar bit
Ġread er
b ow
e lection
m os
F O
Ġn urs
Ġl unch
ll a
Ġf iring
Ġd ust
Ġsubject s
ug s
Ġadmin ist
h all
Ġconsider ation
Ġcal m
Ġy ellow
Ġpr on
ist ant
h att
Ã¤ m
Ġf ing
Ġord inary
Ġein en
d on
ĠSt aff
Ġhigh lights
Ġg if
ĠHam ilton
om o
old s
x x
a wn
Ġbut t
ist le
ul ations
i ate
ĠMcC ain
op en
ĠEx press
anc er
ĠM uch
Ġvo ices
Î¼ Î±
Ġd ub
ren a
b ury
ĠBel g
ÃŃ n
Ġrestr ict
Ġ> >
Ð¼ Ð°
Ġfund ra
Ġbe ach
ĠÐ £
ĠÎ ½
Ġappro ached
if fe
Im age
ad ers
Ġc ogn
Ġcollabor ation
Ġproced ure
ãĥĥ ãĤ¯
ĠGovern or
ĠPro duct
as ury
Ġsp ots
Ġske pt
8 5
Ġla ug
Ġste pped
ĠB arc
pt on
Ġrece iver
Ġhy dro
Ġout rage
Ġdisp ute
Ġunder lying
Ġst ored
Ġsubsequ ent
we ek
v as
ĠMr s
ĠViet nam
Ġcomp at
Ġenh ance
ĠTh ings
8 9
Ġend orse
Ġmeaning ful
ĠA ccess
S c
and e
Ġf ate
Ġparticip ation
Ġp atch
oun ce
Ġexpand ing
m id
Ġsp ell
Ġh ub
Ġreve als
Ġdro ve
Ġche st
Ġprote in
ĠPent agon
ĠHar vard
Ġden y
ĠBr idge
æľ Ģ
w ill
Ġset up
ĠT ax
it ure
Ġe i
ĠInd ones
Ġe ase
og a
Ġf et
iet ies
id ades
Ġhost ed
Ġb urning
s ch
ac u
Ġl apt
Ġprov ision
m ind
ge red
ĠMag ic
L a
Ġf iction
ĠComm on
Ġconserv atives
Ġa z
ist en
Ġhyp ot
ou ri
ĠDr agon
ult ane
Ġfab ric
Ġpromot ing
Ġup load
T P
Ġimportant ly
ĠPalestin ians
Ġappear ances
ĠL am
Ġsurv ival
ĠF ind
Ġtren ds
ĠFig ure
ĠAn na
Ġdisc our
ĠBe ing
Ġer rors
Ġte a
Ġp ays
Ġdise ases
Ġarchitect ure
Ġcompet ing
ig a
mark et
ĠP ow
ĠTh ink
ri k
ç ľ
ĠEconom ic
Ġr ounds
Ġrec re
Ġfor cing
Ġbrill iant
ĠB oe
Ġw ir
Ġh ij
Ġcontact ed
Ġop ens
Ġdemonstr ated
Ġtact ics
ing e
St ar
Ġintro duction
Ð» ÑĮ
ĠV ik
ĠT am
st ep
Ġacqu ired
Ġde i
ors hip
Ġabandon ed
Ġclin ical
ÑģÑĤ Ð¾
Ġseg ment
ĠMar x
il der
ĠOther s
Ġser vers
if ier
Ġt un
Ġgather ing
Ġretire ment
ĠAnton io
Ġmanag ers
Ġsw im
ĠSil ver
Ġco in
ĠT able
ĠCr ime
20 17
ĠV lad
T E
Ġst y
ĠC R
Ġb ab
Ġco inc
Ġrev ol
Wh y
Ġv oc
ĠProte ction
Ġelect oral
Ġabs or
ĠN O
ĠMod el
Ġland ing
N ew
Ġrele ases
20 16
ĠCons ider
Ġadop t
å¯ ¾
ra f
åī į
usal em
ric ane
ĠT ennes
Ġsem i
Ġcom edy
Ġr ush
Ġd ating
Ġrecommend ations
Ġm ole
Ġd uration
ĠCar ter
Ġmod ule
Ġdial ogue
ĠB ox
Ġsuper ior
Ġcap tain
Ġmembers hip
æ ¸
is se
Ġm useum
Ġmin i
Ġbr ands
Ġcateg ories
che ck
Ġmus ical
Ġwitness es
Ġt ab
ĠE D
Ġfil ter
Ġdifferent ly
F i
Ġexecut ives
c u
Ġbl ank
é ļ
Ġmer ch
an Ã§
Ġs es
Ġtrem end
on er
Ġwant ing
ĠQ ual
or ious
Ġd ying
i ens
Ġsure ly
Ġexch anges
Ġtherap y
ĠT el
Ġpopular ity
ĠI ron
Ġc ow
htt ps
ĠB E
Ġt unn
Ġtop ics
Ġinnoc ent
Ġbi as
Ġw aves
ound ing
Ġpoint ing
Ġ **
Ġre verse
Ġdesign s
Ġinfect ion
Ġt ape
å Ģ
Ġqu ote
ãģĦ ãģ¦
åŃ ¦
Ġex ha
Ġrat io
Ġequ ality
Ġadv enture
è ³
ãģ« ãĤĪ
ÐµÐ½Ð¸ Ðµ
Ġscient ist
Ġg ut
ent er
âĢ¦ âĢ¦
f it
in ating
Ġsav ings
Ġro of
Ġp icks
eder ation
Ġein em
com p
Ġdeploy ed
ĠBr as
Ġsil ver
Ġre ar
ãģķ ãĤĵ
ĠRem ember
Ġt orn
j an
Ġclass ified
ack et
c z
ĠAr k
Ġre vers
Ġemot ion
cl aim
ol s
ĠCh ange
Ðº Ñĥ
ĠSm art
p en
p ed
ĠSim on
ÏĦ Îµ
ĠG il
ĠC ow
ĠW ik
Ġst ance
Ġf ighter
ĠSwed en
Ġsm ile
ĠW ould
ĠGree ce
st op
Ġwind ows
ç «
Ġart ificial
Ġbar rel
Ġag es
ĠV ers
Ġproced ures
h ard
z ing
Ġun ve
n ews
ĠPort ug
Ġf ond
ĠG DP
ac her
Ġà¤ ķ
ĠTot al
Ġdef icit
Ġb read
ann o
Ġimpl ications
Ġsc an
Ġsign ature
ĠBalt imore
åĽ ŀ
T R
Ġcl ip
Ġp elo
Ġsoc cer
oty pe
ĠS el
Ġsal t
ĠTai wan
Ġad vertisement
Ġrec ruit
B M
Ġcapital ism
Ġh ire
Ġunf air
ĠC ase
Ġexec ution
Ġch icken
ub ble
ç Ĳ
Ġ6 00
aw are
Ġorgan isation
Ġg ig
w ed
Ġgu ests
d ig
al ysis
Ġdemonstr ate
éĥ ¨
Ġsh ield
Ġmain tenance
Ġstud ied
ch ing
Ã ¬
Ġ vel
Ġag ed
est ed
Ġter r
f are
ĠMary land
oen ix
ber ry
Ġg ene
Ã© l
Ġut ility
ĠTr ust
Ġg ate
Ġb ow
Ġimp osed
or able
ãĤ¹ ãĥĪ
ä½ ĵ
N ow
ĠK urd
7 6
ac co
Ñī Ðµ
Ġport ray
ĠJ u
Ġcont ribution
Ġep id
æ ł
Â °
Ġc um
Ġh ip
ãĥ ĳ
ĠAm b
âĢ ĭ
ĠSt ation
ĠÙħ ÙĨ
Ġw ond
Ġphys ically
à¥ Ģ
ol as
ĠÑį ÑĤÐ¾
ĠW el
Ġrepe at
ilit ary
Ġf ool
Ġconfirm ation
r ation
Ġrhet oric
Ġspe aker
Ġdr one
Ġa x
Ġdec is
Ġout s
ĠS port
ond uct
on ic
Ġbill ions
Ġto ll
vere ign
ĠMal ays
ĠSo ft
é« ĺ
Ġleg ally
Î ²
ÑĤ Ð°
Ġdet ention
ĠJer usalem
ag g
ĠC PU
ĠÑĢÐ° Ð·
O K
ou ble
b ian
H T
Ġpass age
ier ce
Ġwealth y
Ġreform s
Ġed it
Ġro y
ĠChair man
ĠP sych
ĠS av
the less
Ġs orts
ail ed
Ġdiscuss ing
Ġdistrict s
st ra
ç¤ ¾
ĠE lection
Ġmeas ured
un ity
Ġg ross
ĠAb d
ĠNev ada
Ġconvention al
arch y
Ġvo or
ĠG ill
Ġdef ender
he tic
Ġrequire ment
Ġb ien
U C
Ġf ait
Ġsent enced
ĠF estival
Ġqu oted
Ġrem oval
Ġsuspect s
Ġresol ve
Ġcounter part
ĠH art
Ġemploy ed
ĠScott ish
Ġinst itution
Ġw et
Ġguid ance
Ãª me
Ġcoach ing
w ick
Ġdri ves
Ġ vert
r in
Ã ²
Ġviol ations
Ġson o
Ġneigh bour
æ¥ Ń
t op
Ġp uzz
Ġper o
iel der
Ġback ing
Ġn ous
Ġg ent
ih ad
Ġb irds
æĢ Ŀ
ãĥķ ãĤ
Ġdef ending
ĠRE AD
Ã ½
ĠCl imate
to o
Ġdifficult y
ĠJ a
ac o
ĠSt ock
omp son
Ġchild hood
S E
scrib e
ĠTennes see
Ð´ Ð¸
IL L
Ġtra ff
empor ary
ĠRe f
Ġanaly sts
Ġd ivers
ro ph
ri ors
c os
C an
T ON
Ġsett led
ĠL E
ĠW olf
Ġchar ity
ĠCh o
ut er
Ġhope fully
ke e
Ġ8 5
ĠO x
Ġjudg ment
Ġcirc le
em os
ĠP rom
Ġp in
Ġmin im
i Ã¨re
Ġphr ase
ĠN ame
ĠBru ce
Ø µ
e ren
Ġremark able
Ð¾Ð¼ Ñĥ
Ġopen ly
Ġmem ories
ĠJava Script
ĠC rit
Ġclot hing
H A
Ġ199 6
ĠF a
Ġn od
us er
Ġsubst ance
iz za
Ġdocument ary
ĠG ulf
Ġprecise ly
rib utes
ie v
ot ing
Ġtim ing
ĠÐ ĺ
ãģ ļ
Ġk m
Ðº ÑĢÐ°
Ġenthus i
Ġlo ose
ĠPh ill
Ġc abinet
ĠMur ray
Ġsecond ary
ĠF A
Ġimpact s
U M
Ġath letes
Ġ5 9
Ġc ig
ows ki
Ġcamp s
j er
Ġ ãĢĮ
ent al
ĠG ary
Ġpo ison
Ġdis order
èĥ ½
Ġsearch ing
im ir
p ow
Ġcomm e
on z
Ġp ill
Ġsim ultane
ix el
are r
Ð° Ð·
h ist
Ġsu a
ĠA y
ĠP y
Ġphenomen on
Ġw ur
Î½ Î±
ĠRub y
Ġstud ying
Ġp m
ĠSe g
Ġarg ues
ãĥ¼ãĥ Ī
ĠB urn
ie ren
Ġ199 7
Ġe lder
Ġsh ipping
Ġdam aged
arm a
ĠH u
Ġn erv
ish op
ãĥ Ĭ
Ġarri val
k an
s i
Ġk Ã¶n
C O
ude au
Ġprov ider
Ġpick ing
ĠAuthor ity
Ġeng agement
ater n
Ġd an
Ø ²
ãĤ »
Ġassoci ate
áº ¿
ĠE le
Ġcharg ing
j en
ĠO bs
Ġform ation
ve t
cept ions
Ġimp ression
ph a
Ġab ilities
the y
ĠFin ancial
Ġevery day
Ġass ass
Ġpull ing
Ġdiplom atic
Ġins ult
er ning
Ġt ired
Ġcre am
ĠAre a
Ġgr ade
ĠIndepend ent
br id
Ġeduc ational
row s
ĠFurther more
Ġre un
Ġm arc
ĠFut ure
Ġacc ord
ag ic
ib an
Ġc ette
Ġe uros
ar ante
Ġinfect ed
d iv
Ġad equ
Ġprompt ed
Ġcompens ation
ĠAn ti
ĠB an
Ð½Ñĭ Ð¹
ãĥ ĵ
Ġpost ing
G A
ĠEd itor
ĠS ound
Ġgradu ate
unic ations
Ġinst ances
le ft
Ġposs ess
ÑĨÐ¸ Ð¸
Ġse ed
ĠOrgan ization
Ġrep air
Ġprem ier
Ġfat al
Ġintegr ation
Ġsequ ence
ĠN ik
ãĤĤ ãģ®
Ġfrequ ent
ç ·
Ġ iz
Ġj er
sec urity
ad u
é ł
Ġgen re
åŃ Ĳ
ãģĤ ãĤĬ
Ġex empt
ĠRes p
Ġextra ordinary
ĠB M
it en
el ing
Ġinter ior
ne cess
ĠCo in
Ġrob ust
Ġl ad
Ġ 000
Ġm Ã¥
ĠCharl ie
Ġmanufacture rs
Ġencour aging
ĠF ern
Ġl oves
Ġinter ven
Ġf ires
all ing
Ġpresent ation
Ġtr aged
i Ã©n
ÈĽ i
Ġl iv
Ġentit led
ĠCap itol
Ġs its
Ġrook ie
Ġk a
Ġpers u
ĠO R
ĠB ow
Ġsustain able
Ġso vereign
arg et
bour ne
Ġch ronic
Ġline up
Ġhe lic
ol ph
ĠO sc
Ġpor que
s ub
Ġfl ights
Ġstop s
Ġle ct
Ġm ood
Ġmat hem
Ġ7 2
è¡ ¨
æī ĭ
Ġsub mit
by n
Ġtri als
l ink
ĠCop y
Ġt id
p ing
ĠD od
Ġbrut al
ĠA aron
Ġcommon ly
Ġs ag
Ġsen ators
look ing
Ġpro c
ĠE t
ĠC e
Ġover come
ãĢ İ
ĠTh ompson
Ġg es
let ed
ãĢ ı
Ġj ed
Ġinc hes
Ġexpl aining
Ġlog o
as ant
g ov
con st
ol ly
Ġdis h
ang le
Ñĩ Ð¸
ãģ¨ ãģĹãģ¦
r ics
S e
ĠP as
it ual
ĠAnd y
ĠÃ ¡
d ers
Ġshel ter
Ġfl ed
ĠC ost
ĠG h
Ġindic ates
Ġp Ãºblic
Ġl ui
Ġm isc
Ġcert ific
arante ed
ĠCl ark
7 9
n an
ĠK am
Ġprison ers
Ġgl ad
N e
ĠW ord
ĠAll iance
Ġroll ing
Ġ6 6
ocol ate
ative ly
ĠUS B
um ble
ĠUn til
ãĤ º
Q L
ĠÑģ Ð»
Ġprospect s
avana ugh
r ated
ĠAr senal
ĠS EC
ĠOlymp ic
ĠEvery thing
ĠTr udeau
Ġtranspa rency
ĠHun ter
Ġwed ding
Ġreg istration
hes is
Ġrac ing
ĠMet ro
Ġint r
Ġdemand ed
t ra
ĠY ang
I O
Ġpeace ful
ĠG es
Ġacqu is
p olit
Ġlo op
oc o
ven s
" )
ĠHe art
Ġorgan ic
ĠD al
Ġme g
**** ****
Ġexper iments
Ñħ Ð¾Ð´
Ġmiss ions
Ġans wered
Ġcop ies
ĠKent ucky
Ġtem pl
Ġdevelop ments
20 15
Ġmain taining
ĠB arr
Ġspect rum
## ##
Ġp es
ĠO cean
end ar
Ġappro aches
Ġcommunic ate
ĠB arn
ç ı
Ġprefer red
Ġco ins
Ã¡ rio
AR T
ĠG ab
Ġp el
Ġgraph ics
é £
Ġrec ipe
Å Ļ
ĠCl oud
p ack
ĠOffic er
Ġbirth day
ĠInte rest
Ġv it
Ġdecent ral
Ġcon ver
Ġev ident
ĠY an
sc he
Ġsm oking
h ire
D R
Ú ©
ak o
ĠJ ane
Ġliter ature
Ġgreat ly
ĠN SA
ãĥ Ł
Ġh ockey
ĠS ex
ĠDe ep
ĠPlay er
ĠW i
Ġprosecut or
" ,"
Ġz um
Ġmin isters
Ġvari able
ud o
Ġjournal ism
Ġse vent
Ġintegr ity
Ġcivil ian
20 18
ĠD utch
Ġres erv
Ġp ose
Ġrepresent ation
Ġcoll aps
Ġne uro
Ġf old
Ġt iss
Ġr iding
C ont
he rent
d ec
orne ys
Ġanonym ous
Ġconfig uration
alt ies
ri x
w al
Ġdomin ant
ĠÐ´ Ð¾
Ġown s
c ap
Ġrequ iring
Â Ĵ
Ķ ×
Ġins ight
m ans
Ġe ager
Ġin box
ĠOak land
ĠVict oria
ĠN ear
row ing
el ona
Ġp ocket
Ġcha os
Ġsho es
ãĥ¼ãĥ «
om y
ãĥ¼ãĥ ł
ĠEn t
Ġtw enty
Ġengine ers
ĠLe ban
Ġadop tion
ail able
ĠLe vel
ĠChrist opher
Ġelimin ate
æ İ
á» ĩ
ĠNot hing
Ġs ne
ĠF ant
an im
ĠSpe aker
Ġcas o
Ã± a
Ġ8 00
Ġfood s
Ġpar ad
g age
ĠG ordon
Ġnation wide
Ġcreat ure
Ġl ift
Ġdiv or
ĠW ol
ĠM ove
æ ĥ
ĠB ah
Ġtit led
Ġgu itar
op o
Ġs essions
Ġsix th
ĠF R
P L
c al
Ġw ounded
Ġattract ive
ãĥ §
Ġb owl
Ġpi Ã¹
ot te
ch i
Ġout comes
Ġz ur
Ġmoder ate
re k
Ġinter action
ĠM arg
Ø ®
éĸ ¢
Ġplayoff s
Ġass igned
ĠK y
Ġpri ze
Ġbe ating
ult y
Ġo h
ĠP ed
T O
Ġd up
m ath
Ġhelic op
Ġo v
ãģ§ ãĤĤ
Ġv il
Ġsign als
ĠRus sell
Ġsex ually
ri v
Ġ< /
Ġt ables
Ġadvoc ate
ĠN iger
Ġas sembly
Ġemploy ers
ĠPitt s
Ġthe ories
ĠPh oenix
em p
ct r
ĠBar b
is d
ĠAl an
duc es
ĠOr der
7 2
Ġconv ince
Ġt ons
ĠB ible
Ġrem oving
à¤ ¿
Ġkn ee
Ġir re
å½ ĵ
ap olis
er d
Ġst amp
lud e
Ġrank ing
pl ed
Ġtravel ing
Ġple ased
ãĢģ ãĢĮ
D E
ç ¨
Ġvolunte ers
Ġche aper
at al
ĠBrook lyn
Ġuncertain ty
h n
oll ar
ĠA ward
ĠK ash
Ġaccus ations
Ġf ue
Ġtal ented
ĠCor byn
ĠMcC onnell
Ġcar ries
ate ful
ĠSher iff
pt ions
Ġcho osing
Ġmus cle
2 50
ell en
Ġmoment um
ĠB ag
r Ã©
Ġbox es
Ġpregn ant
a fter
oph ob
Ġjump ed
ä» ¥
Ġpack ages
Ġalgorith m
7 4
ãĤ¤ ãĥ³
è £
AT CH
Ġpol ling
ĠM LS
Ġb uck
åħ ¨
ĠH amp
ĠMar ine
Ġ199 5
any ahu
ĠP ers
Ġless ons
est yle
uss i
Ġsp o
Ġse ized
ks i
Ġs ab
Ġett Ã¤
è »
Ġk omm
ĠTre asury
Ġvacc ine
d ep
ĠCo le
S ome
ĠI M
Ġfrequ ency
Ġbad ly
on o
Ġfil ing
Ġun t
ĠRes erve
Ø§ Ùħ
": "
20 19
ĠHer o
ist ance
B y
Ġm ath
Ġsi ÄĻ
Ã ®
ĠR ap
ĠV o
f i
Ġcol our
on ed
Ġstreng then
ĠK avanaugh
AS H
Ġland ed
Ġexpect s
ĠCo al
ĠMar ia
Ġinst ant
Ġcr us
Ġstat ist
or ous
Ġco ord
Ġcorrect ly
ĠCap tion
ĠCh annel
O b
ãĤĭ ãģ¨
Ġ ug
Ġlab our
ĠTok yo
Ġshe et
h uman
Ġrel ation
Ġcl er
Ġdes ert
Ġdream s
ĠR T
c up
ĠR io
Ġtort ure
Ġsur ge
ĠN ature
Ġdram atically
Ġ199 4
ĠV ar
D C
Ġbe ings
ĠEd ward
ĠÎ ³
ĠM other
Ġconcept s
ĠColl ins
Ñĸ Ð´
ĠP ence
Ġo rient
Ġl in
Ġaward ed
ĠE ss
ĠTh ird
Ġcreat ures
Ġall iance
Ġneighb ors
ij e
g ets
Ġweak ness
Ġdisappoint ed
Ġt el
ĠB enn
Ġwhere as
Ġ6 2
Ġlaunch ing
Ġest a
h h
ex p
m ers
Ġper ceived
Ġdes de
ur ities
ĠBarc elona
ãģ ¹
Ġth ro
r ank
Ġh iring
Ġstrugg les
ol id
Ġeng aging
Ġassum ed
ĠRob inson
t or
ac are
ol n
Ġn ode
n h
Ph oto
Ġfor um
oc he
Ġb old
Ġperiod s
Ġse ctions
Ġdist ingu
ĠM ail
å¾ Į
be ing
w ind
Ġbott le
ĠL ess
J ust
Ġdisplay ed
Ġconc erning
Ġ ich
erv ice
m art
on i
ix on
Ġy eah
it udes
Ġob sc
Ġc inem
Ġbatt les
Ġmin imal
j ar
Ġstat s
ĠT a
Ġinterview ed
Ġsc rat
Ġdet ained
ĠR y
t ig
an ie
ĠRuss ians
lud ed
e ur
ĠÐ ĳ
go vern
Ġmyster y
ĠCra ig
xt ure
er ies
ĠC orn
ĠE arly
Ġqu it
Ġpubl ishing
ĠQue ens
ĠP ant
ĠE S
Ġaut or
Ġev acu
em e
ag ine
Ġin aug
Ġexp enses
Ġf est
is dom
ĠB and
Ġh ay
Ġac id
Ġt ear
b art
Ġsh ocked
Ġgl obe
ĠEm pire
Ġd ell
Ġrefuge e
e ared
ÙĬ Ø©
çĽ ®
Ġconst itution
Ġk on
Ġm art
Ġdesper ate
ĠÐ³ Ð¾Ð´
Ġingred ients
che ll
Ġhost s
Ġp ued
app ropri
ĠM un
Ġcomp r
Ġkick ed
ĠÅ ¼
Ġep ic
Ġemot ions
Ġst ack
Ġrec alled
ue z
Ġagre ements
friend ly
Ġenv iron
ĠG a
Ġengine er
up er
Ġun de
Ġpun ishment
Ġpsych ological
Ġbul let
ĠM ap
ĠA us
sc reen
Ġembr ace
Ġvol unt
âĢ Ĳ
Ġn in
land o
se ction
ĠB ased
ĠK a
ĠNet anyahu
ĠH ad
ĠBe h
Ġall a
ĠD or
Ġlif etime
Ġintegr ated
Ġisol ated
Ġaccompl ish
Ġpass enger
r ate
r t
Ġpromot ion
Ð¼ Ðµ
Ġeconom ics
Ġshut down
Ġb ure
Ġacc um
Ġme hr
Ġ6 7
Ġsh irt
ĠL au
Ġn ose
Ġliber t
ast ing
inc ome
Ġdel ight
Ġdisapp ear
od ox
Ġrec overed
Ġgirl friend
Ġam endment
ĠOb am
ik h
Ġopp ose
Ġexplos ion
æ ŀ
play er
çı ¾
ĠE X
m ap
ç Ł
Ġfle e
Ġb ip
Ġresearc her
lyn n
Ġperform ances
pp ers
Ġfunction al
AT ION
u is
ĠT ower
Ġvis its
Ġdef ended
Ġhost ing
Ġ `
w ich
ĠM A
Ġme al
Ġch ip
Ġr h
hatt an
Ġimm une
Ðµ Ð·
ĠCh ampions
ĠWh it
ĠB Y
æ° Ĺ
è¦ ģ
Ġpat ri
Ġunder t
Ġpass word
Ġatt ending
Ġann oy
Ġn h
ĠG un
oc ated
gr ade
Ġ ÑĢ
Ġmunic ipal
Ð» Ð¾
Ġbut ter
ãĤ¿ ãĥ¼
Ġv Ã¦
Ġinequ ality
Ġkn ock
ãģĵ ãģ®
Ġal ign
Ġridic ulous
ig ious
ĠH ans
Ġrout es
re ck
Ġgen es
ĠMount ain
Ġ ud
ĠG ard
Ġref use
Ġtown s
ĠC ann
éĢ ļ
Ġend ors
Ġl ibr
Ġp unch
ĠL i
Ġide ology
l ings
Ġvir al
Ġgu aranteed
ĠK al
Ġm ol
ok er
Ġens uring
ft en
ĠU m
Ġcheck ing
ĠMiss ouri
Ġ6 8
St ation
7 00
Ġro ots
ä½ ¿
1 50
ac re
Ġsil ent
ro ck
rup ted
Ġste re
re ement
ĠD omin
ĠÎ¼ Îµ
ĠSt orm
Ġn g
ĠS essions
ĠN ative
b ound
Ġbl amed
ah ren
ĠM and
Ġhero es
Ġint ellig
Ġd ual
low er
ac les
ãĥ ¢
a eda
Ġ6 3
ÐµÑĤ ÑģÑı
ĠMedic are
Ġmigr ation
Ġnot able
Ġless on
Ġsent iment
Ġdepart ure
ĠIn n
ĠPol and
ĠMur phy
Ġdi am
Ġh anging
Ġcent uries
ĠD om
Ġoper ator
Ġcomprom ise
Ġ0 1
un ci
ĠP ython
Ġ Ø§Ø
Ġpro st
Ġsusp ic
Ġlob b
Ġd il
f a
à¤ Ĥ
Ġconf usion
Ġdis rupt
ĠH ug
enc er
ĠT s
V D
Ġdon ors
F S
ĠStud ies
d am
ĠVlad imir
åĨ ħ
ĠOver all
Ġf ont
Ġut ter
le ading
Ġfunction ality
åĬ Ľ
ãģĵ ãĤĮ
ä¸ ĭ
Ġlux ury
IC E
ĠH ung
Ġto do
Ġfight s
as er
Ġdest ination
Ġem bed
ĠAs ked
Ġtremend ous
b in
Ġsee ks
Ġdefe ated
ç Ħ
ĠÐ² ÑģÐµ
Ġpart ly
Ġde emed
æ µ
Ġst ro
Ġam bit
Ġinvest ed
ĠLook ing
ĠSte el
ĠAn aly
uer to
g s
Ġsh ops
Ġsyn t
ĠBu y
Ġwonder ing
bre aking
Ġen abled
Ġn el
Ġper ception
ĠPhot ograph
ĠPl ace
Ġd imin
ĠOtt awa
ĠPh ys
Y es
ĠCap tain
ãģĿ ãĤĮ
Ġc el
Ġar ts
e ffect
Ġv u
res hold
Ġpr ide
ĠN elson
Ġple asure
ĠTal iban
n ik
Ġtra iler
qu is
Ġk iss
? âĢĻ
Ġaccur acy
Ġfun c
Ġearn ings
Ġf are
ir i
aj a
Ø Į
ãģ Ń
Ġp ela
Ġdesign er
ĠSim p
ï¼ Ĵ
20 14
âĢĿ )
ĠMan hattan
Ġdescrib ing
Ġinnov ative
g ate
ik k
ĠT oy
f ers
Ġicon ic
ici ary
Ġk l
ĠPitts burgh
D B
æĹ¥ æľ¬
ĠD ak
Ġbi ological
Ġsusp ension
ell i
ÑĪ Ð¸
str ong
áº £
Ġsp an
ĠH ide
ĠT alk
ĠW y
ast a
Ġl uc
se ct
amp a
it Ãł
ĠEnter tain
for ward
ĠR ound
Ġexpect ing
Ġmiss iles
Ġload ed
ĠD ate
Ġv ocal
Ġcitizens hip
Ġegg s
ĠHawai i
Ġblock ing
Ġinspir ation
Ġs wit
ad en
c io
U D
ag u
Ġv enture
ĠØ ¯
E E
Ġn em
Ġar c
Ġlong time
ãģ »
6 3
anc ell
Ġkn ife
í ķ
Ġrenew able
AT ED
Ġclos est
Ġstead y
ĠVict or
Ġjud icial
up t
Ġspe akers
IC K
ĠBl ood
Ġcour age
ĠA B
ĠS ection
Ġdes ktop
g ie
in os
Ġel abor
ç ¶
Ġ Ñħ
Ġcomm ander
w ords
Ġb ags
av al
ĠAM D
ĠS N
9 3
Ġrele asing
Ġgra ve
Ġtar iffs
ĠMar io
Ġfa ire
on ing
ĠAir port
Ïģ Î¹
Ġtamb Ã©m
ĠMel bourne
O r
Ġprivile ge
on ia
åľ °
Ġsc ared
Ġs v
i ary
Ġintim id
or o
Ġun necess
Ġpack ed
au f
Ġpro portion
Ġt ensions
Ġbe ll
ĠLib ya
Ġpres ents
Ġinvestig ated
Ġexp ense
Ġdis par
Ġab stract
ä ¹
ĠF act
Ġbure auc
Ġmotiv ated
Ġteam mates
ob b
Ġm uit
ĠWar ner
ĠD ick
Ġsup rem
Ġexclus ively
ĠPro gress
é ķ
ri ke
Ġspec ulation
ĠSte am
Ġrest ore
Ġpubl ish
Ġnow here
Ġd it
N ews
Ġdro pping
Ġamb assador
ĠE V
ãģŁ ãĤģ
Ġbo om
Ġle aked
× ¨
ĠArgent ina
htt p
Ġ199 2
ĠFore st
ĠAd ams
ĠW inter
ĠSp ir
Ġign or
Ġqual ified
Ġaccomp an
Ġacknow ledge
D on
Ġl Ã¤
Ġprosec ution
ĠLeg isl
ate ur
Ġaddress ing
Ġprotect ions
ied er
st an
Ġthe ft
Ð¸ Ñģ
Ġaccept able
Ġwh istle
g ood
ĠJ os
ĠM erc
ug ar
Ġresident ial
Ġte eth
Ø ·
æĺ İ
Ġprof ound
Ġle ur
ari ans
ĠMan ager
ÑĢÐ¾ Ñģ
Ġopp osing
Ġsurround ed
wh ite
le ep
Ġra ises
Ġm ice
gu ard
ĠJ ess
ĠAss ad
Ġ1 000
Ġres ort
Ġcur ious
s ome
Ã¡ l
Ġdocument ation
/ .
( "
ĠR ome
ian i
Ġspread ing
ãģ£ ãģ¦ãģĦãĤĭ
ĠHamp shire
ous es
Ġhol es
ient e
Ġparalle l
ĠEntertain ment
an ne
Ġcred its
ond a
c ard
Ġre ass
ĠSen ior
Ġgl ob
Ġparticip ating
ĠTe xt
net ic
Ġ6 1
Ġp ension
ÑĪ Ðµ
Ġinvest ing
off s
Ġdeliver ing
ing ham
Ġjust ify
Ġconscious ness
Ġal ly
ĠâĢ ĭ
found er
ac cept
ĠMont real
on te
he ro
Ġdom inated
Ġroll ed
æ ±
Ġk ann
Ġg ym
Ġcol leg
it ement
ank a
Ġ ÑĨ
Ġcap s
Ġ7 6
ug by
ĠW right
Ġdes k
ill o
Ġmem o
åı ĸ
ĠC itiz
Ġmilit ants
Ġb ird
ĠS ep
Ġnerv ous
áº ¥
Ġconf used
ĠFil m
w id
å ķ
Ġf ert
ri el
ĠR h
Ġdevast ating
Ġinter ference
âĢ¦ .
am ous
Ġe ar
7 3
f il
Ġstart up
ĠD ub
id d
ĠCanad ians
ä¸ į
Ġent ity
r ition
å¤ ļ
ĠK ur
Ġca ution
ĠNE W
L et
ĠO il
Ġvo id
t ics
om ic
Ġh arsh
æ° ı
ĠCor p
ick ed
ãĥ¼ãĥ ī
b ur
Ġoper ators
Ġaccept ing
ĠGi ants
Ġant ib
Ġsl ot
Ġch ips
Ġthe ore
Ġfing ers
ĠCamp aign
8 4
Ġchalleng ed
ĠV ery
çĲ Ĩ
ĠV in
Ġfail s
Ġcrimin als
Ġback s
Ġbom bs
ĠDep uty
ĠMiss iss
c ience
Ġcrit eria
Ġjur isd
ist ing
Ġtri ps
ĠÂ» ,
ĠÎ Ń
ĠWith in
Ġg olf
Ġe arning
R ep
Ġhand led
ĠM obile
Ġhe s
ĠObam acare
ĠP i
åĮ ĸ
æķ °
ĠEnvironment al
Ġscrut iny
ĠP ap
Ġexpert ise
Ġdecre ase
ĠC hen
Ġche ese
ĠG ib
Ġproject ed
ĠS M
U p
es h
. ),
Ġs que
Ġocc urs
Ġmir ror
Ġp ig
izar re
9 4
ĠEd ition
ĠAl t
ast ed
ĠC ould
âĶĢ âĶĢ
Ġsu ck
ĠC os
Ġsoph istic
Ġkill er
ĠG re
ĠL ibrary
Ġrec k
ĠComm ons
lim ited
d f
çĶ »
. ]
Ġexecut ed
Ġinter actions
Ġtod os
Ġmon ster
ĠG O
Ġcontain er
- >
p ot
Ġgr at
ĠH old
ĠÑģ Ð¿
7 1
ĠP T
æ ©
Ġpre st
c at
Ð° Ñģ
ĠStand ard
Ġb ases
Ġlif estyle
Ġz ijn
ĠØ ´
Ġc es
Ġreview ed
ĠB h
ãģķãĤĮ ãģŁ
Ġilleg ally
ĠCur rently
Ġl un
am an
Ġtrad ed
fort able
ï¼ Ĳ
ĠBel ow
b us
Ġdisc rimin
ĠM ind
Ġfavour ite
ĠEd it
Ġp ending
Ġsurv ived
Ġcheck ed
ĠP ope
9 2
ĠM i
Ġsafe ly
Ġcont rary
ĠÃ §
Ġind ict
a ver
Ð¸ Ð·
ç ©
ch arg
ch ild
Ġ ).
a Ã§Ãµes
ĠC old
ĠM ov
ĠPatri ots
ore r
Ġst ocks
Ġt rop
Ġdec or
t est
Ġke en
X X
ĠK rist
Ġfle et
ĠAnd re
ĠCont in
ĠRe agan
Ġfuck ing
éķ ·
Ġpolitic ian
IS T
Ġcont emporary
Ġbacter ia
ãģĿ ãģ®
ĠS ad
Ġbrief ly
Ġ ê
Ġle an
ĠA rena
ust ing
Ġexam ine
Ġsc ar
ĠJim my
æ ı
Ġbab ies
å İ
Ġproduct ive
od a
c op
ĠÙ Ĭ
Ġatt orneys
ĠCont act
Ġhousehold s
z b
ĠaÃ± os
Ġcat ast
Ð°Ð» Ð°
st art
6 1
ĠR osen
ar se
Ġover night
ĠBr us
prof ile
æ³ ķ
ĠÎ½ Î±
ĠCh rome
ãĥ³ ãĥĪ
lic hen
Ġcon secut
6 2
Ġmob il
amb ling
ĠÏĦÎ· ÏĤ
à¤ ¨
Ġdist ribut
Ġconven ient
L O
Ġsp otted
Ġcourt esy
Ġd urch
Ġanal ys
Ġgu ards
Ġbank rupt
Ġtransm ission
Ġinv asion
Ġunder ground
ĠR onald
ĠTr ue
ãģª ãģı
Ġout standing
Ġan che
Ġhighlight ed
ĠLu ke
Ùĩ Ø§
Ġexplicit ly
ĠD rive
ĠCarl os
ab ad
ĠHo ly
Ġfl our
ĠS aint
ump h
Wh ile
Ġre wards
Ġport fol
ĠM oney
Ġforgot ten
am ents
Ġtransfer red
Ġdelay ed
Ġ19 50
z one
Ġst ating
S te
ĠÐ ĵ
ĠP oll
Ġjun ior
Ġexperi encing
ĠBe yond
ĠNet her
Ġanc est
ĠA w
Ġsing er
ãģ® ãģ§
Ġrevolution ary
Ġt ears
ĠPlay Station
im mer
ud a
g ence
oc ial
Ġmean while
Ġcryptocur rencies
Ġsimultane ously
Ġm ile
g el
Ġambit ious
d og
Ġr ivals
Ġprevent ing
Ġ199 3
rent s
Ġstat ic
f ather
Ġs z
ĠH ann
ĠN ich
ĠPhilipp ines
Ġb ump
k m
Ġexist ed
ass ion
te ch
ble m
Ġavail ability
as se
iz ations
ĠF un
en as
ĠE C
Ġsole ly
ĠdÃ© c
Ġl ady
Ġexpl oring
u y
ĠS ac
8 3
UT ERS
iv an
ĠSm all
ĠF lynn
Ġn ost
Ġt ak
orm al
Ġsust ained
Ġinev itable
Ġsy nd
ĠU I
Ġeditor ial
ĠK ings
Ġo xy
Ġcross ing
ĠSte wart
Ġtraged y
Ġappoint ment
ÃŃ t
p g
Ġappl ies
ĠCh all
ĠCommission er
im os
Ñı ÑĤ
un al
T e
Ġman ual
Ġdepend ent
Ġam pl
Ġcon j
ĠÐ¿ ÑĢÐµÐ´
ĠE b
ĠBat man
ut a
Ġp ens
he it
Ġbet a
ah oo
ĠUS D
Ġconv iction
ĠCon vention
ĠAb u
R O
Ġm ant
I nd
am o
Ġt ale
ir ates
et a
Ġvari ables
Ġhun ting
ĠN i
DA Y
Ġrefe rences
Ġas pir
r ous
ĠInvest ig
ĠGr iff
ĠComm and
Ġj Ã¡
Ġcon ced
Ġcompet itors
Ġbre ast
ĠO cc
Ø ¶
ĠH IV
Ġan ch
Ġimp ose
Ġpr Ã©s
ĠO k
Ġaffect s
is ode
æ ´
at tered
f ielder
Ġcompl ained
Ġt ension
Ġdisp os
è¨ ĺ
Ġb arg
ĠN azi
ĠMcD onald
ĠN az
Ġpost er
Ġburn ed
Ġrec y
ĠB order
ĠB C
Î½ Î¿
ethe less
× ľ
inc oln
Ġpol ar
ĠJer ry
itt y
ĠF if
ĠCom put
ĠDu ke
g ang
u h
ĠL arry
ĠJac ob
ĠBu ilding
Ġa ussi
Ġgame play
ter y
ĠÐ¿ ÑĢÐµ
j amin
ĠRod rig
ĠGr ant
Ġpe er
Ġmet h
Ġth reshold
ĠP interest
ĠRog er
Ġentr ance
ĠN ash
Ġsto pping
ĠH ell
de v
ri j
f ile
o a
Ġit er
Ġabs urd
e an
ĠFix ed
ç Ń
for mer
uc ed
ĠOr lando
Ġcour ses
w all
Ġprovin cial
Ġcharacter istics
ĠE ffect
k ar
om i
â Ĥ¬
ĠN ancy
Ġcom ics
Ġl ane
Ġelect ron
ÏĦ Î¹
A K
Ġenter prise
ĠF ight
ĠAl ong
Ġball s
ĠSaf ety
Ġbrief ing
Ġstim ul
ä» £
Ġfl av
M ay
ĠStan ford
ãģĹ ãģĦ
Ġpres erve
Ġquestion ing
Ġbuy ers
Ġent ities
Ġoccasion ally
Ġor bit
s ize
Ã¼ ck
Ġform ula
Ġsim ilarly
Ġref ers
ĠK yle
Ġge gen
ĠKash mir
ĠDo ctor
Ġb its
IV E
ree k
Ġconsider able
Ġreflect s
ot ion
he art
Ġas semb
Ġeng ines
ĠPriv acy
ĠF le
Ġwal ks
c ott
il st
ĠÃ ī
Ġcomp elling
Ġst ressed
ãģ¾ ãģ§
in formation
ĠJ en
Ġcount ies
ter ror
Ġsupp orter
Ġg arden
ĠR ah
Ġproduc es
ĠW ATCH
Ġhuman itarian
ij k
Ġdisag ree
ĠHot el
ĠMit chell
it utes
Ġtr ains
ous ing
ÏĦ Î¹Îº
Ġmand ate
Ġs ou
m illion
Ġbur ied
ĠCon c
Ġd ign
Ġconflic ts
Ġb io
Ġpre view
aj o
Ġs ist
ĠAlber ta
Ġath letic
p ol
Ġse u
ãģĵãģ¨ ãģĮ
ĠS to
Ġadv ised
Ġoccas ions
ĠM itt
Ġto ile
ail ing
Ġcou ples
Ġbre ach
Ġsold ier
Ġcogn itive
N G
Ġattract ed
ul se
Ġfig ured
R es
Ġcompl iance
Ġact ress
Ġcle ared
ĠF arm
Ġcur ve
ĠCorpor ation
ĠF el
ot al
Ġcor rupt
Ġp ad
at z
Ð ¡
Î ¾
åº ¦
th ood
Ġst unning
âĢ ³
ĠP om
Ġkey board
Ġf its
ipp i
Ġreb els
Ġmod ified
Ġdis abled
Ġsurprising ly
r ange
b est
Ġiniti atives
l ib
ress ing
ĠB aker
ier no
Ġanim ation
Ġprov isions
Ġclean ing
Ġexplo it
Ġun se
Ã¡ ri
ĠC row
ĠEag les
Ã³ s
Ġan os
Ġd ir
N ame
g us
Ġback up
Ġtranspa rent
Ġsp y
Ġs Ã©
angu age
Ġass ists
Ġr az
Ġse in
D onald
] [
Ġinstall ation
ĠMem bers
ĠH ERE
Ġins ert
Ġ20 21
Ġang le
ĠBl u
f unction
Ġcreat or
l ia
ic ism
Ġven ue
Ġw ise
ĠD A
Ġarrest s
A fter
ag ne
å ĥ
t it
Ġsepar ated
Ġve gan
ãģ Ķ
O f
ĠSum mer
Ġle ak
ĠG arc
ĠBras il
Ġparam eters
Ġenviron ments
olit an
Ġsocial ist
Ġk un
ĠF ather
Ġpra ised
Ġwire less
form ance
Ġreal istic
Ġl ens
ĠI ce
Ġviol ated
çī ©
t ical
Ġagric ulture
Ġo ught
âĢľ ,
Ġtaxp ayers
Ġo k
is o
Ġarg u
c our
ro c
ĠHit ler
Î¼ Îµ
Ġunf ortunately
ĠL en
Ġwitness ed
ĠMer kel
Ġdro ps
Ġsa ke
ĠO w
Ġcor rel
Ġmod est
in stein
Ġn iet
m are
ãĤ §
P I
ĠM om
Ġf az
ï¼ Ł
Ġcy cl
éĩ ĳ
Ġdeb ates
F rom
Ġfire arms
ĠÃº lt
ãģ¦ãģĦ ãģ¾ãģĻ
win ning
Ġr all
Ġad ap
Ġ199 1
Ð° Ð´
st ock
ĠM ana
le ans
rif ice
E l
ĠN ap
ĠPr inc
Ð¶ Ð´
j on
ock er
Ġre actions
ĠJ uan
A m
ik o
ac ies
O s
ĠBund es
Ġroy al
Ġbel t
Ġfor b
um m
out e
9 1
Ġphys ics
Ġdepart ments
Ġf ishing
ĠW ant
Ġn ou
è ¾
ĠP uerto
Ġautom atic
Ġint rig
ab ling
ter ior
Ġgr ants
ĠMus k
Ð¸ Ðº
Ġd uties
Ġun ter
Ġf ed
ĠOrig in
ĠPer ry
ĠK it
Ġpain ful
ĠCongress ional
Ġsleep ing
im s
Ġrepe al
ort e
Ġwin ners
ip edia
Ġb ands
Ġcult iv
is hers
govern ment
Ġrespect ive
pa id
ĠOr ange
Ġ ÑĤÐ¾
Ð° Ñı
Ġrel uct
Ġrespond ing
ĠRE UTERS
ĠL incoln
Ġb und
Ġk h
Ġlapt op
ĠL ady
ĠIndones ia
ancell or
ip er
Ġf urn
Ġhom osexual
Ġposs ibilities
ĠU b
Ġpromot ed
ĠKurd ish
Ġpar ks
ica id
ĠMod ern
Ġclin ic
ab el
ĠÙ Ĩ
elt a
Ġlay ers
Ġd ressed
Ġund ers
Ġste al
ĠAlex and
ĠNether lands
i ac
Ġovers ight
ãģ® ãģ¯
Ġadministr ative
Ġd irty
Ġpan ic
Ġpain ting
ĠEx change
Ġmyster ious
Ġrel atives
end en
ĠS ide
Ġb one
Ġcross ed
U E
Ġexc use
Ġcook ing
h ou
ĠI an
Ġproduct ivity
Ġoccup ied
Ġre nd
ĠPost ed
ov o
ĠAgain st
Ġun re
e ven
Ġannoun cing
ri en
Ġover d
ĠP ear
ĠMac ron
ĠÑį ÑĤ
Ġbo ards
Ġcirc uit
Ġimp ressed
ars on
Ġg ew
ĠG PU
ĠD ist
ĠCam bridge
ĠÎ± ÏĢ
ro t
ĠHar per
Ġimp rison
AC K
Ġvi able
Ġconsecut ive
Ġmarg inal
s ki
Ġmet ers
Ġp ag
ĠAl aska
com ed
ĠBen jamin
Ġplan es
th ur
Ġdest ro
it bart
Ġr anging
åł ±
Ġspeed s
Ġin her
sh ore
Ñĸ Ð²
Ġaf irm
ĠD at
ĠK ir
back ed
gr oup
ĠMor ning
ia h
Ġequ ity
ç Ĥ
ĠM C
Ġearth qu
ber y
et z
Ġlimit ations
ĠReg ard
Ġpr icing
Ġtamb iÃ©n
ĠHam as
h ome
Ġa wards
ĠBe at
ŀ ×
Ġtrust ed
Ġoper ational
u est
Ġr ice
tt es
ĠS em
Ġstri p
ë ĭ
ĠOr leans
Ġw y
ĠBlock chain
Ġgr ateful
Ġtechn ological
ĠNe ed
Ġquant um
t ains
d ata
Ġ7 8
ĠW ard
c s
Ġm Ã©d
Ġab und
Ġmand atory
i ors
Ġshoot er
io x
Ġwe ig
ah n
Ä ģ
ÑĤ Ðµ
Ġdes erves
ĠS ay
ĠÐ´ Ð»Ñı
Ġmur dered
ĠA bs
ĠBr and
Ġbul k
Ġvis a
Ġt um
A ss
Ġpros per
ĠCub a
Ġc ave
Ġinflu ential
ĠG and
ab out
ar med
Ġpred ec
Ġinterpret ation
ul u
lic he
ib t
Ġsec ured
ĠMed icaid
Ġve z
ĠTod d
ĠH op
Ġ198 9
Ġv ibr
Ġb izarre
Ġres erve
ond s
Ġdeal t
ĠE ve
ĠK night
u en
åĵ ģ
at ics
ĠÐ¸ Ð½
è §
Ġsp ray
Ġevol ved
Ġpr in
Ġh iding
Ġbuild s
duct ive
Ġuncom fortable
Ġpan els
ĠPubl ished
l aim
Ġindic ation
Ġ6 9
Ġconserv ation
ĠK arl
he ll
Ġneighborhood s
ĠBl ake
Ġsuggest ions
ĠMot or
Ġappear ing
ĠAm y
Ġkid n
Ġpat ent
åħ ¬
Ġnon profit
Ġt oug
Ġprepar ation
Ġcomb ine
at ile
Ġv ed
Ġhope ful
ĠBet ween
ass a
Ġcru el
ĠFin ance
Ġdemonstr ation
Ġha z
Ġret ain
book s
Ġm Ãªme
Ġfrustr ation
Ġbene ath
Ġconcentr ation
Ġadvoc acy
c ount
ĠStan ley
Ġpurch ases
Ġsum mary
ĠÙģ ÙĬ
ĠS wit
in ance
in ite
ĠD raft
ĠDe an
Ġfocus es
Ġemploy er
å §
Ġ Ñĸ
Ġbug s
qu al
Ã¶ s
ĠO m
Ġrestr icted
Ġproceed ings
ian g
l ash
Ġover l
Ġcelebr ated
Ġk u
Ġrob ots
Ġb other
l at
Ġcop s
Ġoper ated
Ġn ick
åľ ¨
Ġde ux
ĠIn side
ĠD J
Ġh unt
ãĥ į
Ġa i
ĠSt ra
ĠS or
il ation
ÑģÑĤ Ð°Ð²
ĠPe ace
ĠN ord
ĠR ain
Ġfl avor
Ġanticip ated
Ġimmigr ant
Ġc her
Ġv ie
Ġrel ie
Ġsoc i
b urn
Ġisol ation
p x
ĠFor ces
Ġpra ise
c ery
Ġcount less
Ġca uc
Ġenfor ce
ur u
Ġscen arios
Ġto wer
Ġcollect ing
Ġprint ed
Ġpro l
ĠH P
æ Ł
Ġrec ession
Ġme ets
ĠCoal ition
ĠAngel a
r int
ĠLouis iana
out ube
Ġinc omp
ĠN atural
ĠiP ad
Ġadv ent
r ons
ĠI V
ĠOsc ar
Ġcomm ands
Ġprior ities
æ© Ł
Ġdeploy ment
Ġact ed
Ġlibr aries
Ġident ical
ĠSub scribe
ĠEx c
è ģ
Ġbeat en
ĠL ions
ell ar
Ġhonest ly
co ins
Ġreflect ed
ĠOlymp ics
Ġc Ã³
Ġsubsequ ently
Ġmas ks
Ġch amber
and ed
ĠPlay ers
Ġsubsc ription
port ed
Ġcont ents
Ġdr um
Ġcomm od
A E
Ġd al
? )
\ \
Ġfin ishing
un o
Ġequ ipped
ĠR C
boy s
ĠF ederation
ĠFO X
ĠEuro pa
AL L
â Ħ
Ġdispl ays
Ġinst antly
Ġdep os
Ġprop ri
Ġbre w
Ġdocument ed
Ġpregn ancy
ĠTe h
Ġple aded
Ġapp lying
ig o
Ġv om
en z
p ace
ur ches
c ular
Ġcomput ing
Ġ7 7
Ġce ase
S emit
ĠMississ ippi
Ġc rown
Ġsupposed ly
ĠAny one
S D
Ġtempor arily
Ġres idence
uts ch
Ġr iders
Ġcap ability
ĠL ie
Ġbar riers
Ġbe ef
ik er
ul ent
Ġw isdom
ĠM D
Ġsh ocking
man uel
e u
Ġspark ed
Ġover t
Ġch ocolate
Î» Î»
th odox
Ð² Ð¸
Ġadd iction
Ġcomplex ity
ĠB art
Ġm ul
H L
Ġtrig gered
ĠP red
ry ing
ĠMedic ine
Ġemphas is
Ġaccompan ied
ĠW u
Ġdirect ors
Ġto ss
Ġv ous
oc us
Ġphotograph s
s ur
Ġbur st
Ġpress ing
Ġchemical s
ak u
Ġunderstand s
ĠCol omb
r ag
ĠDe al
ĠPr int
Ġ7 00
ĠÐº Ð¾Ð½
Ġwithdraw al
20 20
Ġwel comed
ãģĦ ãģŁ
Ġenjoy ing
Ġwe aken
Ġexam ined
Ġle verage
Ġwe igh
Ġdon ation
Ġlight ing
? '
Ġend less
b age
ah a
Ġreven ues
ĠÐºÐ¾ÑĤÐ¾ ÑĢÑĭ
Ġcelebr ation
R P
ĠCh uck
ĠBrus sels
Ġex ports
IN E
Ġgraph ic
Ġmax im
ĠC and
Ġsc rew
Ġcar rier
R uss
Ġse eds
Ġcomp ly
ĠR ic
S C
Ġm ouse
Ġc argo
for cement
st a
ĠF ast
Ġ7 3
m ons
ay ed
ĠSe lect
Ġs izes
Ġacquis ition
ĠWay ne
Ġal ike
ĠHind u
Ġincor rect
Ġrad ar
ĠG it
Ġsuggest ion
Ġp esso
Ġrespond ents
Ġsa fer
Ġ ÏĮ
Ġshe d
æ ¨
Ġb is
Ġheart s
Ġdiv ide
Ġpubl isher
Ġcontroll er
Ġbath room
k ward
Ġtreat ing
ĠR ank
8 2
ĠI de
Ġl ag
Ġg reet
Ġfast est
Î¿ Ïį
Ġappro ve
Ġoff season
Ġen ables
ur as
ĠTre k
Ġoper ates
Ġqual ify
Å£ i
p op
ĠÅ¼ e
Ġtrans formation
N et
Ġtr ucks
Ġse ctors
ĠB R
Ã¤ ll
vers ion
Ġhor rible
M B
C al
ĠO mar
Ġw ore
om ed
Ġbl ess
Ġflex ible
Ġsub tle
Ġold est
f irst
Ġaud iences
Ġunnecess ary
ãĥ Ļ
Ġaw ful
Ġres igned
p ur
Î± Î½
ĠMc M
Ġtour ists
Ġquiet ly
Ġview ing
om ach
Ġelder ly
roll ing
t z
st ring
Ġp ou
ĠJ oh
ĠP ur
Ġdr inks
Ġ __
Ã¤ nd
Ġthe ater
Ġinvest or
Ġn odes
ĠBes ides
Ġtut orial
aw ks
ĠFriend s
Ġunder mine
ĠM E
Ġres erved
Ġgreen house
ÙĦ Ùī
or ate
art isan
ob by
Ġaccount able
ÐµÐ½ Ð½Ð¾
id al
S U
ä¸ ĸ
ĠWat son
anc hes
æ ²
Ġdem o
Ġdel le
Ġorganis ations
ĠG ene
ĠSh a
ãģ Ĵ
Ġeconom ies
Ġargu ably
Ġad vertis
( '
Ġrad iation
Ġremem bered
Ġst ir
ĠD ri
20 13
Ġsophistic ated
ib les
ĠB TC
en h
ern el
ĠÃ ª
ĠFl ash
he red
ĠSim ilarly
ĠPri or
Ġexperiment al
lim inary
ĠAl most
Ġmother s
æĪ Ĳ
Ġamong st
ĠRes ear
ut her
ĠT ory
ĠC rown
ÃĥÃĤÃĥÃĤ ÃĥÃĤÃĥÃĤ
Ġcompl ain
Ġess ay
ĠCirc uit
onym ous
unt u
Ġthe r
ĠCommun ist
Ġin appropri
k ind
b ot
ĠV a
Ġtraff icking
op t
Ġsurviv ors
Ġsignific ance
ĠV P
Ġemer ge
à ´
Ġj ihad
ĠH i
ec onom
ĠBr andon
Ġdecl are
Ġc ad
ĠâĢľ [
ĠInt ro
ĠG onz
us k
Ġdef ect
les h
ke ley
abb ing
ĠCur rent
ĠA ve
c re
I B
ent a
Ġreve aling
Ġharm ful
ãģ¨ ãģª
tic a
Ġad j
ĠPet e
b ably
ãģĭ ãģ£ãģŁ
m ain
Ġpow ered
y ch
in als
Ġint ens
ĠW iki
Ġhistor ically
Ġoxy gen
Ġworld s
ãģĿ ãģĨ
A FP
Ġrepl acing
ĠF ab
Ġtou ched
ĠLaw rence
Ġbomb ing
ĠEv ans
ãĤ ²
ĠCamp bell
Ġm aj
Ġn un
---------------- ----------------
Ġmechanism s
Ġcom ed
Ġst abil
ĠL uck
Ġeth ics
Ġaw ait
ĠF ried
Ġcontribut ing
ĠM aine
Ġhapp iness
ĠD ra
Ñ Ķ
Ġaltern atives
Ġflex ibility
Ġnight s
C ol
ĠSp ot
Ġtravel ed
ĠF DA
Ġdiscipl ine
Ġexpl oration
ier re
Ġ7 1
ol er
Ġintellig ent
op les
ĠN umber
Ġd ent
Ġ: :
Îµ Î¯
s uch
ĠCat al
ens en
Ġcalcul ated
Ġadvant ages
ĠD og
us a
Ġun l
Ġref using
Ġpr Ã³
Ġsupp lement
ĠPart ners
art ic
on ies
A V
b ol
ĠWh atever
or ient
le tt
à¥ ĭ
ĠQue bec
ĠU RL
n on
Ġpen alties
ic her
n amed
um ing
qu ality
ãĤ ±
Ð³ Ð¸
Ġgrad ually
Ġas c
Ġann ually
M C
ace ut
Ġz ones
Ġsc hem
åı ¯
Ġt anks
ĠEgypt ian
de velop
Å Ħ
ĠDak ota
ĠSoft ware
Ġconduct ing
Ġdisapp eared
ential ly
ie i
Ġregul ators
Ġpr ayer
Ġdesign ated
Ġcontact s
ĠM ul
ĠCount ry
lam m
Ġfrustr ated
Ġconvers ion
Ġdr ones
Ġrese mb
ĠL isa
ĠTy ler
Ġthem es
Ġmanufacture r
ĠÄĳ á»
av an
Ġsh ake
ĠFire f
Ġped est
ĠBec k
Ġcrow ds
å¤ ĸ
ĠH unt
N E
ĠAdd ed
s ign
ĠPolit ical
Ġinflu enced
Ġapolog ize
ãģ« ãģ¤
th ink
Ġd ivid
id i
Ġ0 2
Ġw ound
ne red
Ġm akers
ĠP ok
Ġtra v
ĠSh ah
Ġbond s
Ġhost ile
ÐµÐ½ ÑĮ
accept able
Ġalt ogether
Ġmisc onduct
ult s
ĠEm ploy
M ar
âĦ ¢
Ġagric ultural
ow ing
Ġaff air
Ġfasc inating
ĠA th
Ġm asc
Ġimm ense
I d
ĠK o
h ill
Ġor ange
Ġsol l
abet es
ĠAl tern
Ġfr ank
Ġportfol io
ĠWar riors
Ġfr act
Ġwild life
au er
ĠLink ed
in ho
Ġteen ager
ĠF ol
Ġpun ish
Ġcons ists
ĠSte ph
ĠHe y
sem ble
Ġgent le
Ġc it
ĠS earch
ent h
l ag
e g
Ġt empt
Ð Ĳ
Ġreg ret
Ġcondem ned
Ġprevent ed
Ġ7 4
M E
Ã¤ ng
Ð· Ð°
Ġdiagn osed
Ġst ab
ĠM ens
Ġinst itutional
Ġ) ;
ĠPr im
Ġg aining
ĠT ampa
Ġst arter
ĠSy n
ĠÏĦÎ· Î½
Ġstrong est
ĠÐ² Ð¾
ment ed
ĠR angers
æĦ Ł
Ġpsych iat
Ġbound aries
ĠOb viously
al g
ĠC el
sh ot
ĠS alt
ÃŃ as
Ġs her
Ġf itness
tr ack
ĠAn s
Ġtiss ue
ãĥ Ŀ
t wo
ĠAss istant
f ig
Ġparliament ary
N T
Ġliber ty
ĠR ol
Ġp y
m un
Ġdis k
ĠAss ange
at Äĥ
der n
ĠS witch
ĠIC E
Ġt ends
Ġsu itable
Ñĥ Ð¿
Ġl one
8 1
ĠU ser
Ġrus hed
ĠK as
Ġgovern o
ĠMalays ia
ĠF oto
å¥ ³
ch arge
s ing
~ ~
ath on
Ġprinc ip
Ġunder min
ĠO pt
Ġlong est
Ġdam n
Ġcoordin ator
Ġpos ed
ĠS ong
ĠB uck
Ġf illing
ism s
h alf
Ð½ Ñĸ
zer land
Ġres ume
Ġconcl usions
ĠBr ady
Ġass ured
s ource
ver ning
Ġlif ted
Ġcal endar
Ġ× Ķ×
Ġ( )
ĠF ile
Ġa pro
Ġare na
Ġr itual
Ġsl ide
ĠD ue
ĠF ro
Ġwarn ings
ĠStud io
m other
Ġpart ially
ĠG R
Ġpl acing
Ġsubscrib e
Ġfol der
Ġse i
ec k
Ġne ur
ict s
Ġc rop
Ġgold en
Ġsty les
ĠCh ile
Ġconvert ed
Ġperm itted
Ġdes ired
Ġdecentral ized
ĠNH S
ĠNe ither
Ġop io
ĠF ra
ĠM ission
Ġgr up
ri ans
Ġform ally
Ġoccup ation
ĠBoe ing
Ġretail ers
ĠWhat s
st orm
ĠDe b
Ġch ains
Ã¼ h
Ġimplement ing
om er
ĠA ven
Ġtrans cript
um ar
Ġpled ged
ĠMe et
Ġacqu ire
ul k
ĠJ S
Ġde ce
s upp
ĠNe il
Ġdur ante
Ġcomple tion
ĠJo in
Ġhack ers
Ġdetect ed
Ġnot ably
ãĥ³ ãĤ°
Ġsac rifice
Ġc ats
ĠJ oy
il o
ĠÐ¾ Ð´
Ġrece ives
ãĥ Ģ
aceut ical
ãĤĮ ãģ°
Ø± Ùĥ
à¤ ¤
Ġcl uster
Ġbel oved
Ġst omach
in itely
d et
ĠC ov
ĠJ ake
am ine
Ġexplos ive
ĠH end
Ġmotiv ation
Ġoptim istic
ĠM AR
Ġg el
p y
Ġa an
Ġtele phone
Ġfle w
out heast
ĠEr d
ĠInd ians
at re
am en
ãģł ãģĳ
Ġv ague
ĠHT ML
ap h
ĠN at
Ġhar vest
Ġabs ent
ĠConserv atives
ri or
= âĢĿ
Ġpe ers
l arge
Ġexec ute
ro d
Ġsm ell
Ġident ifying
ĠM B
Ġ3 60
pie ce
Ġurg ing
ĠNC AA
ĠWW E
Ġn ull
Ġn aked
ĠOffic ials
pr ises
l ass
ĠÐł Ð¾Ñģ
ĠB L
ol an
Ġhear ings
Ġrem inder
ĠMars hall
ĠAn ne
ĠLear n
ĠU PD
Ġpress ed
ÑĢÐ° Ð½
Ġt at
Ġshif ted
Ġwind s
lic ation
P s
Ġpar l
ĠHar vey
ĠLa ura
T y
Ġvolunte er
Ġher itage
ĠSt ars
. :
ĠAr ts
Ġas h
ortun ate
Ġwork force
Ġsc ary
Ġc ab
ĠAcc ount
Ġb a
Ġfac ulty
S L
Ġwork place
ĠMag azine
ĠMichel le
ĠD est
ĠShe l
pl ic
Ġd iz
Ġur ge
Ġaw kward
ĠSpe ed
Ġstr ain
ĠCont ent
al id
ĠG B
ĠOx ford
Ġdam aging
Ġrep ly
Ġa le
ĠBl og
Ġscreen ing
ĠP L
ĠS ave
Ġp ink
Ġfire f
it os
Ġpart isan
Ġsevent h
Ġwh is
æľ Ł
Ġret ali
iss ance
å® ¶
Ġin hab
Ġmon etary
ĠCh ap
ĠA G
Ġg rip
ent es
ĠÐ± ÑĥÐ´
ĠBor is
Ġlog ical
ĠMor ris
Ġm ud
ĠPark er
ĠJ ong
c ient
yn c
Ġresol ved
Ġm ild
Ġdraft ed
Ġcondem n
ail and
r ane
Ġsuper v
ĠLuc as
est one
ĠH um
ac ular
ĠD R
oc ate
ĠPortug al
Ġl Ãł
Ġser ial
Ġimper ial
Ġs Ã³
Ġpo et
ĠR u
ĠSwed ish
Ġac res
ĠA u
ĠBang l
ĠSc he
ĠA wards
Ġs Ã£o
Ġbar rier
ĠJenn ifer
mind ed
åĲ į
Ġy ard
f ish
ĠUn d
Ã¤ s
Ġg host
ĠK ick
ĠA gr
Ġhead line
Ġpat rol
ãĤ· ãĥ§
Ġsatisf ied
Ġmed i
Ġe u
un ting
Ġepid emic
Ġan ime
ĠPhil ip
ĠR at
Ġcreat ors
c ode
et ch
Ġwra pped
ĠAdd iction
Ġinc ons
ock ets
ĠSwit zerland
ĠÄ į
Ġv iel
ne ver
Ġes se
er ving
Ġt une
c n
ĠÐº Ð¾Ð¼
å£ ²
ĠRead ing
ĠV irt
r ar
Ġmort gage
Ġresign ation
Ġregard ed
ry ption
å Ł
m ission
Ġhack ing
Ġemb assy
Ġappe als
ÅĤ a
se g
Ġrespect ed
Ġcr ude
æ ¬
Ġform a
ĠSo on
OS T
Ġcommission er
ĠStud ents
Ġgl i
Ġattend ance
ĠMan ning
N ET
umb ai
åĵ ¡
Ġbe ars
Ġdiscl osure
è Ī
Ġhat red
Ġg ard
ĠN ag
Ġinv ite
Ġprotect ive
EC T
Ð¾Ð² Ð¾
Ġdr ought
Ġarri ving
olog ically
Ġinn ings
Ġf Ã¥
ĠW orks
Ġc ub
Ġtim eline
Ġexp ed
ĠVer mont
Ġat he
ĠThe resa
Ġn ic
g ree
Ġobserv ations
Ġglob ally
Ġmount ains
ĠAr ound
ãģ ¸
Ġide ological
it ivity
as a
ĠC ond
Ġmill enn
Ġaccompl ished
ĠD ise
Ġexc itement
Ġto b
ĠH E
ĠAr ctic
pow ered
m ay
ugh ters
form ed
ou ds
ac a
Ġf uer
Ġachieve ment
Ġs ons
Ġult ra
ĠR ail
ugg ing
pr ising
p os
ÃŃ an
Ġw ishes
ĠM ust
20 12
Ġconstruct ed
Ġgovern ance
spe cific
Ġlicens ed
Ġdec iding
Ġreb el
Ġdirect ions
ĠDr ug
Ġple a
Ġb ubble
Ġimport ed
ĠP in
Ġtra pped
ĠSus an
enn a
Ġtreat ments
ĠKe ith
ĠTra vel
Ġc ous
ĠR oom
Ġa ide
et ta
ĠIm agine
Ġcr icket
ĠB ou
Ġsolid arity
Ġcirc les
ĠM ember
Ġs ends
Ġpurs uing
B ook
ĠBer keley
é ħ
Ġfl ip
ĠB ab
Ġre ign
ĠTeh ran
Ġhigh way
Ġe ars
ĠK on
ĠLt d
Ġ8 2
Ġpoor ly
Ïİ Î½
w estern
Ġa ce
P al
uk i
ĠB os
RE S
ĠK le
Ġre hab
Ġf ru
ÑģÐº Ð¾Ð¹
ãĥ¼ ãĤ¹
Ġunder way
pl ing
Ġtransl ation
Ġcolle ague
Ġshoot ings
ĠSer ge
Ġfree ly
Ġed iting
id ays
umb led
d isc
ag raph
cent ury
ia z
ç ½
Ġdifficult ies
ĠAut o
ĠY ahoo
ING TON
bo ards
ĠGu y
Ġsec ular
Ġcro ps
Ġp ione
wid th
Ġbreak down
ĠBre itbart
ĠCh ronic
ig ers
Ġconst rain
åĨ Ĩ
ĠÎº Î±
or ig
ĠCh apter
Ġcontroll ing
ut z
Ġtra uma
Ġtempl ate
Ġlegend ary
ĠTh under
Ġclos ure
Ġcomment ary
ĠCopy right
art e
am y
ĠRe act
RE E
ĠH ua
Ġdel ays
Ġun o
Ġspace craft
IT Y
ĠTem ple
ĠSomet hing
ĠSw iss
Ġw o
Ð´ Ðµ
Ġpartic les
im age
Ã§ o
Ġinf ant
es is
Ð° Ð¹
ĠT reat
Ġsa uce
spe ed
Ġt ong
Ġelect rical
ĠIm pro
ure r
Ð½Ñĭ Ð¼
Ġsens or
Ġwur de
Ġbreak fast
Ñĥ ÑĢ
ĠT ill
ĠC ut
Ġc iv
ĠFer gus
oy d
è µ
ĠMar co
Ġprocess or
s ized
ĠS W
ĠC ash
i Äĩ
ĠCre ate
Ġdisturb ing
Ġmut ual
ĠRe id
ĠJ ets
Ãª s
ur an
Ġbit ter
ĠCl ar
ĠTh ailand
Ġad vers
ah an
Ġsk al
Ġres erves
od ge
Ġell er
Ġa ug
ĠHom eland
ĠOl iver
Ġ0 9
ato es
Ġb ully
Ġqu ando
ĠGet ting
Ġaccept ance
omm en
Ġremind ed
á» ĳ
Ġhy brid
ĠGu ide
Ġsec rets
p in
Ġminor ities
Ġtr ash
ĠArk ansas
ãĥ¼ ãĤ¸
O G
ES S
ĠInc re
Ġst ark
ĠK irk
OR T
Ġre aches
Ġneg lect
Ġalgorith ms
u ccess
m itt
Ġme als
U I
ĠPet ers
ra k
Ġsing ing
ĠM ort
ĠM ais
Ġm ales
Ġqu otes
Ġinfect ions
ÑĢÐµ Ð¼
ĠSc iences
ĠX i
Ġmeant ime
P er
Ġout let
ĠØ§ÙĦ Øª
ĠR EL
ĠP un
at iva
Ġins ane
gr ounds
ĠR oll
ul le
en ess
ra pe
======== ========
ĠNever theless
ĠA qu
C D
Ġdist ant
Ġdeleg ates
th al
Ġunve iled
ch ron
Ġr i
Ġab ort
ä¸ »
dri ven
keep er
Ġsent ences
Ġren der
orm on
d rop
t able
Ġrum ors
st ore
Ī Ĵ
Ġfinanc ing
Ġdo ctr
Ġer up
ard ed
ier on
Ġcat al
Ġt ang
ãĤ ¬
Ġint ensity
Ġb ir
ĠCle an
ĠUnivers al
æ ®
Ġsepar ation
ĠAn im
Ġt urb
Ġnewsp apers
f re
ĠG arden
hand ed
o ard
Ġlegisl ature
Ġinst inct
N Y
Ġdet ain
Ġdefend ers
Ġl u
è© ±
ĠÐ¾ Ð¿
le ments
v ious
ĠBar ry
Ġh alt
Ġwa ited
Ġc ake
ĠRepresent atives
ĠR achel
Ġbip artisan
ç« ĭ
f ix
ĠV eter
ĠGr ay
ĠHis pan
r us
ĠC her
ĠQu ick
ĠÅ ¡
ĠE ight
åĬ ł
ĠSte in
Ġpain ted
Ġcro re
Ġlist ing
Ġaud it
Ġam end
Ġdeclar ation
Ġpri est
Ġste ep
ĠS elf
Ġdis g
st ruct
ib e
ĠWork ing
Ġcapital ist
es a
Ġassum ption
ĠÐ¿ ÐµÑĢÐµ
ĠÙ ĩ
Ġbreat hing
ĠM ilitary
ĠF CC
ĠFor um
Ġspecial ist
ation ally
ĠBre tt
C NN
iber al
Ġsac rific
Ġeth ical
Ġg re
Ġ18 0
ĠHur ricane
rem lin
Ġl anes
Ġmechan ics
Ġsh orter
ĠSt ay
val ue
Ġbal anced
ier a
Ġl ang
Ġdon ated
Ġfundra ising
Ġj ew
Ġgrab bed
Ġbenefic ial
ĠT ob
æĦ ı
iz able
Ġd ys
Ġst a
Ġor g
b ig
D es
ãĤ ½
ubl in
rop olitan
Ġag greg
ĠRub io
ĠEvent ually
Ġb ones
Ġp are
ĠCon n
Ġparticip ated
ed ed
ĠT an
Ġavo ided
Ġch ap
t ail
Ġab used
e a
ov ic
ĠLeban on
ĠÐ» Ð¸
cl usion
Ġdev oted
Ġincl usion
Ġug ly
v id
B L
ĠFrank lin
ĠÂ ¿
Ġsusp icious
are ttes
ĠAct iv
Ġsw ord
r idge
ĠFant asy
son aro
ĠC ass
Ġc ri
Ġoff set
W A
ĠÂ ·
ĠComm unications
ãģ§ãģį ãĤĭ
Ġrel i
Ġhab its
Ġcanc elled
Ġcor n
Ġmag ical
M od
ĠP ick
be at
Ġg em
ĠResear chers
Ġline back
og g
Ġgif ts
\ /
Ġun ity
Ġdis pro
Ġdirect ory
row th
Ġtr agic
Ġincent ives
Ġwor ship
Ġinc umb
Ġtest ified
Ġb ru
Ġtechn ically
ĠRel ations
Ġdoub led
Ġworth y
Ġra id
ĠAd vis
em ail
Îµ ÏĤ
Ġfro zen
IT H
ro v
Ġpassion ate
ĠN PR
roll er
Ġkn ocked
ĠÃ¥ r
Ġch urches
cc a
Ġfr ight
Ġcons olid
Ġgr asp
oll ah
Ġrefe ren
ic ut
Â ®
Ġf ren
Ġafter math
pres ident
ĠMake up
Ġapproach ing
ip her
ĠEp isode
Ġa inda
M us
Ġsn aps
Ġb icy
à¤ ķ
ok o
ĠG raph
Ġcred ibility
Ġs Ã¤
Ġs our
h ai
it ably
ĠG ates
Ġdeliber ately
æ ¯
ĠDe utsch
ĠO P
ĠLiber ty
G M
Ñ Ĭ
Ġconsequ ence
ol ved
S ec
Ġj okes
Ġshif ts
Ġpurch asing
ĠWork ers
ç ±
ĠÐ Ĺ
hes s
Ġmoment o
ĠL ock
od ay
er g
ĠÃª tre
Ġaffili ate
Ġgrow s
ĠHol land
ren der
Ġconclud e
ãģĪ ãĤĭ
Ġc er
ur red
ch ar
st ic
Ġtable t
Ġp ist
Ġfar ms
ĠV or
Ġurg ent
x im
ÑĨ Ñĸ
Ġd ip
Ġf ence
ĠZ el
ĠAut om
ĠR ams
Ġinstr uments
ĠReg ional
ĠEx am
w s
Ġ8 8
ĠR ico
Ġtunn el
Ð½ Ñĥ
Ġsoon er
ĠO t
ot ton
bl ock
ĠM umbai
Ġattack er
Ġflo ating
Ġbatter ies
ĠR ou
Ġp orts
Ġaccount ing
ĠM ann
itte es
U P
Le aks
Ġtob acco
Ġaffect ing
Ġcast ing
s Ã¥
Ġqu ery
ĠS A
ç ¬
ron es
ith ub
Ġperm its
Ġinter rog
ad vant
ĠQ B
hol der
Ġtem po
Ø «
Ġro cks
ãĥĥ ãĥĹ
Ġan th
ĠDoug las
au kee
Ġentreprene urs
vert ed
le ton
cc iÃ³n
æĿ ¥
c m
Ġorient ation
Ġsm ugg
ĠD anny
Ġexcess ive
ãĤĮ ãĤĭ
Ġevalu ate
bor ne
g ro
Ġbus es
Ġtext s
çķ Į
m us
Ġpen et
ĠTurn er
Ġimport s
Ġin mates
ĠG ob
ĠFergus on
Ġw ings
ĠStud ios
ĠG as
ãĤ ĩ
Ġcomp osition
ĠTer ry
Ġbutt ons
ĠCor ps
ack er
ĠG ive
uss ion
he alth
w he
Ġdivor ce
Ġpart ial
Ġtermin al
ĠBet ter
Ġa est
Ġtrab al
Ã¶ g
ust ers
ĠSol ar
æľ ī
Ġdesign ers
ĠRog ers
bec ause
Ġ( "
ĠÙĪ Ø§ÙĦ
Ġprev al
Ġfail ures
Ġunf ortunate
d irect
Ġtem ple
ĠØ ³
Ġboy friend
Ġa pr
ĠZ ero
Ġce iling
é Ł
Ġcont am
Ġgo verning
Ġpurs uit
Ġobser ve
Ġsla very
Ġres on
ĠR ow
ij a
ĠC inc
ĠSn ap
Ġtour ism
Ð¸ Ð²
ĠÐ ķ
Ġgall ery
ĠW E
Ġm amm
point s
Ġemp res
ĠSer ver
ĠPakistan i
ãĥ ı
ale y
b ul
He y
Ġlicens ing
ĠT ell
Ġs ans
Ġ1 10
ĠN u
Ġconnect ing
Ġwid th
Ġcount ing
ĠD M
Ġhum or
Ġdr unk
Ġn ue
ed i
ĠTer ror
Ġintent ions
Ġprint ing
Ġexp end
Ġrot ation
ĠM aking
Ġgr an
z ent
ĠBuff alo
Ġsubsid ies
Ã¡ r
av i
Ġauthor ized
Ġfin es
ar ound
ĠP ros
Ġti ene
Ġten ure
ĠF isher
Ġintro ducing
Ġch ampions
ĠBol sonaro
ĠPr in
ĠCD C
Ġvulner ability
op ard
Ġhe aven
Ġ0 3
Ġnegoti ate
Ġha be
att i
Ġc odes
air y
( );
Ġsw ift
ĠH uff
× Ķ
ĠK el
ĠAbb ott
Ġre iter
ĠRob in
ĠRec ord
ĠÎ ·
å® ī
ĠUp dated
arth y
ĠBu ild
ĠÐ¼ Ðµ
amp s
Ġenh anced
Ġmed ian
ĠUn it
ĠA uf
on ge
ĠInd igenous
st age
own ers
Ġback lash
ĠO wn
p ath
Ã¨ me
ĠPart ic
Ġthrow s
Ġident ification
Ġcontin ent
im ens
ĠEmer gency
Ġverd ict
A ny
Ġembed ded
f en
ĠR ice
ĠNE WS
Ġlobb ying
Ġstruct ural
æī Ģ
Ġdec ides
ud ad
ĠNear ly
s ky
ĠD iam
mar ks
Ġau ction
Ġatt ributed
Ġver ify
ĠM illion
Ġref res
ĠN ixon
ĠA x
ull ah
w aukee
Ù İ
th an
Ġd ice
Ġis lands
b st
ĠÑģÐ² Ð¾
oty pes
Ġab ol
ĠS ent
Ġf ierce
Ġfemin ist
Ġautonom ous
h ave
Ġlength y
Ġvac ation
Ġpre liminary
eli hood
ĠAL L
Ġdist inction
Ġassum ing
ĠNor way
ĠGand hi
Ġthreat en
en za
Ġcollaps ed
ĠSal v
Ġrank ings
æ ĭ
Ġl ung
Ġcle ver
Ġche er
g ary
C L
ĠCh and
ĠBrazil ian
ĠS aints
ĠCol lect
Ġrif le
Ġliber als
resp ons
Ġtr ace
ĠP ad
ĠCB D
ĠH ills
AS T
Ġl ip
are st
ĠB uzz
ĠG PS
Ġlegit im
Ġvig il
Ġshif ting
ĠConnect icut
ĠImm igration
ĠB B
it Ã¤
Ġ8 4
Ġfu els
ÃŁ en
ÑģÑĤ Ð²Ð°
Ġpl aint
z el
the m
ĠÅ ¾
Ġout door
ãģ¾ ãģĽ
ãĤ ¶
Ġpled ge
Ġcompat ible
Ġfun eral
ĠW R
med ia
Ñī Ð¸
ĠW ASH
Ġt in
ĠRet urn
!! !
ĠMet hod
n is
Ġh ors
Ġqu arant
h m
Ġess ence
Ġg rie
Ġcomp iled
Ġcons iders
æĶ ¿
pp o
aw s
ĠPom pe
ĠN ad
ĠAn alysis
ud ed
Ġappe aling
Ġincent ive
osit ory
ocument ed
Ġsuspic ion
ĠN in
Ġmar ine
Ġhelicop ter
e i
Ġbillion aire
Ã¢ nd
ĠChristian ity
ic ity
Ġog sÃ¥
Ġcry ing
Ġflu id
ĠMad ison
el ve
Ġair line
Ġcelebr ity
ĠLGBT Q
ĠSe ven
ĠP AC
æĸ ĩ
Ġorgan izing
Ġpred ictions
ĠCom merce
çŁ ¥
Ġimag ination
Ġlaws uits
Ġl yr
ç ¾
ĠMana fort
Ġsu ed
Ġout right
ĠQ atar
Ġadequ ate
inn ati
e or
Ġc ada
ĠIs s
Ġprob ability
ĠL LC
ier ung
arent ly
ĠC arr
ĠJul ian
ĠP il
ÐºÐ° Ð·
a ul
Ġcap ac
ĠL ED
ĠC ab
Ġint end
f ar
Ġan arch
Ġ7 9
ĠDr ag
k ers
I X
ĠCharl otte
ĠErd ogan
at in
ĠSt op
Ġwond ered
ĠCo ach
op ing
Ġd ash
Ġg j
ĠR af
ĠR ud
Ġse ct
Ġrom antic
iz ard
Ġcult ures
æ §
ĠÑĤ Ðµ
w i
Ġs ido
Ġret rie
Ġm aker
ĠN ach
è «
Ġcal c
Ġ198 8
Ġmen os
éĢ £
f old
ĠTo o
ĠAl b
Ġbu zz
ĠSh adow
é¡ Į
Ġreg ards
Ġunf old
Ġsens ors
ĠS end
Ø§ ÛĮ
ĠG ate
Ġindic ating
ĠD ublin
ather ine
B ec
ĠN ar
at ical
Ġr ib
Ġdetect ion
a id
Ð¸ ÑĩÐµ
Ġdo se
Ġgro cery
Ġin sect
Ġrec ount
ĠA irl
ĠF em
Ġarrang ement
ing ing
ript ions
n ia
im i
Ġadm its
Ġcolleg es
ĠEp stein
Ġdem ol
Ġp izza
ĠN athan
ĠId ent
Ġqu ad
Ġsmart phones
Ġdam ages
ast ically
Ġcom un
ug ged
Ġcon cess
Ġm m
if ting
P ress
ĠIm per
ĠH BO
ĠSystem s
ĠInde x
Ġcomp os
cont rolled
Ġmatch ing
Ġj og
Ġeconom ist
ĠH at
g ra
re ach
Â «
Ġ8 1
ĠG ET
ess ional
Ġte ens
ĠCent ury
Ġag ing
E d
Ð³ Ð°
Ġcomp assion
ãģ§ ãģĤãĤĭ
ul pt
Ġ198 4
ĠLeg al
Ġslow er
F r
Ġloc als
iffe rent
Ġtra its
st ory
F T
sec ond
Ġcare ers
w ear
H ub
Ġcur rencies
Ã± o
end ent
Ġind igenous
ĠUn iverse
pl ant
ĠIs a
Ġden ial
Ġdis put
ĠU l
Ġcelebr ating
Ġc od
Ġavo iding
ĠOb ject
å¸ Ĥ
Ġsupport ive
ĠPaul o
ĠDef ence
Ġl ap
Ġpod er
Ġautom ated
E ven
Ġcontinu ous
Ġb ass
ok a
Ð» Ðµ
app er
Î¯ Î½
iam o
Ġele ph
ĠAd vent
ĠÐ¼ Ð¾Ð¶
Ġdetermin ation
ĠÙ ĥ
Ġche f
Ġinter fe
ĠR AM
åĪ ©
Ġre cept
Ġgener ous
ĠRes ources
Ġvert ical
ĠColumb us
Ġn ons
Ġconsult ant
Ġins ights
Ġendors ed
Ġemp ower
pe ction
ĠKer ry
ov an
Ġfacilit ate
âĢ¦ âĢĿ
Ġpres crib
Ġflood ing
Ġwilling ness
Ġpre ference
ĠK ate
L D
ĠNob ody
Ġbott les
it ative
ĠB ros
Ġbr ains
ĠLyn ch
Ġto w
ãģł ãģ£ãģŁ
Ġfirm ly
Ġc ort
Ġl ake
åı Ĺ
ĠÐłÐ¾Ñģ ÑģÐ¸
Ġdub bed
Ġun anim
Ġinappropri ate
oca ust
itt en
Ġmedic ation
ĠG host
Ġvill ages
f its
Ġrenew ed
ĠR ace
ĠWel come
Ġcu ando
Ġp ap
Ġp ub
Ġbet ray
Ġhe m
Ġoccas ional
ik ing
Ġdraw s
arc er
ĠWH O
ruct ive
pl an
ential s
s chool
è ¼
ĠIs lands
ĠF at
ĠSh ar
b ank
Ġrel ating
Ġd ont
å¤ ī
Ġr ip
Ġcertific ate
Ġinst ruction
ul ative
ĠWASH INGTON
ĠD ouble
ĠJ ar
Ġd ive
ic ia
Ġemp ire
col or
ĠB ash
Ġ10 1
ÑĤÐ¸ Ð²
g iving
ass er
Ġh oney
ĠT ar
ĠL iving
ĠB ears
Ġb urg
Ġav ait
Ġking dom
im er
Ġlas er
Ġadv ances
ĠJ av
ĠBud get
Ġmechan ical
ĠScient ists
Ġanim ated
ĠSnow den
ĠElect ric
Ġd irt
Ġpure ly
Ġfound ing
ĠÐ½ Ð¾
Ġthere by
AN T
ĠML B
C om
Ã¤ hr
Ġproblem atic
ort heast
Ġb ust
ant h
Ġfe ared
ĠSil icon
m outh
ĠMem orial
ĠK an
ĠWe iss
Ġgener ating
Ġsoc ieties
Ġhold ers
ĠCinc innati
AR D
Ġd ensity
Ġm ock
Ġprec ious
Ġfar ming
M I
Ġp iv
Ġaccount ability
Ġhe aling
çī ¹
Ġe arl
Ġadm ission
Ġ8 3
Ġcount ed
Ġde leted
G r
m aster
-- -
an os
ĠK ol
Ġun acceptable
V iew
Ġcr ashed
ĠÃ ĸ
Ġmid fielder
ig ma
Â £
Ġinter active
Ġtouchdown s
t Ã³
Ġgr ace
Ġlack ing
Ġqu o
ect or
ĠM itch
Ð¸ÑĤ ÐµÐ»ÑĮ
Ġrus hing
Ġfr action
ĠLu is
ĠMil waukee
ĠHua wei
Ġstraight forward
Ġret reat
Ġpresum ably
Ġdisappoint ing
ĠH us
Ġarm or
Ġbra ve
Ġlim iting
ĠHel p
Ġmis leading
E uro
Ġmigr ant
Ġh Ã¡
Ġsu cc
Ġda ughters
ĠCh arg
ĠM ack
j ek
P E
Ġdi abetes
iz a
ĠT u
ĠVis it
Ġed ited
ĠS ens
Ġinf ring
Ġaff irm
Ġshort age
Ġsupp ose
Ġsher iff
Ġtend ency
ç¶ ļ
ad ows
Ġoblig ation
ac ent
Ġor b
ĠI RS
act or
ĠMin or
Ġind irect
Ġeconom ists
ĠRec ently
Ġ= =
Ġrent al
Ġ9 8
Ġmass es
Ġk i
Ġap ology
Ġwhere ver
Ġhen ce
Ġcomment ed
ĠIn it
Ġener g
T ime
ĠMad uro
ĠEst ado
Ġexp ose
Ġ8 6
Ġdisp ens
pro of
Ġmarket place
Ġcounterpart s
Ġsu ite
fund ed
ĠPri ze
ãĤ ĥ
Ġd ann
ĠAg reement
Ġe leg
æ° ĳ
ĠPro cess
Ġacc using
ĠK remlin
Ġex empl
ĠH alf
Ġev angel
ks en
ĠK ind
Ġclar ity
Ġprot otype
Ġlik elihood
writ ten
is ible
Ð¾ ÑĢÐ¾
ĠSpir it
Ġtransform ed
en ne
ĠP our
ĠLe af
Ġtaxp ayer
âĢĿ :
ĠI c
Ġa j
ĠUr ban
ĠPh one
Ġcomp aring
ĠMoh ammed
ar Ã¡
A ct
Ġaccur ately
Ġagre es
Ġobserv ation
Ġdestro ying
Ġscream ing
ĠP ast
ĠAl bert
Ġconfident ial
ĠBangl adesh
v als
ĠÎ±ÏĢ ÏĮ
ĠBrad ley
ĠTransport ation
Ġcre ep
it et
ne g
Ã¶ l
Ġroutine ly
n atural
Ġfac ial
Ġbe k
Ġnav igate
Ġw enn
ï¿½ ï¿½
ç´ Ħ
ĠCal gary
p se
Ġover look
Ġrecru iting
Ġtradition ally
Ġsearc hes
Ġt ier
Ġloc ally
op ia
Ġv ag
Ġvol t
Ġtw ist
ĠF ac
Î ¶
ĠE ither
H H
ĠWiki Leaks
V A
ĠK och
n ormal
Ġbr anches
ok u
Ġm ont
ãģ«ãģ¤ ãģĦãģ¦
ĠMach ine
ir able
not e
ĠI v
Ġbl oc
Ġshe er
Ġpath s
d ays
Ġ13 0
Ġint u
Ġhas h
Ġqu el
Ġtri ple
ias m
Ġspot light
ul um
f o
ĠRec ords
it as
Ġshould ers
Ġlock down
ĠPal ace
ĠAgr ic
Ġdemonstr ations
ĠChe m
Ġfeed ing
ell es
Ġgar bage
s omet
ĠC osta
ĠSp encer
ĠT E
Ġatt itudes
ĠT ool
Ġstre ak
F ig
ãģ« ãĤĤ
r one
k g
l r
ãĥ ¯
ric a
Ġsp are
ĠL ang
ĠP ara
åķ ı
ĠNews let
Ġcorrespond ing
Ġd umb
Ġlay out
h in
ĠPok Ã©
Ġplan ets
Ġed itors
Ġc ute
umb ling
Ġout lined
ĠMcC arthy
Ġ198 6
ãģ ³
Ġindict ment
ĠM all
Ġlab els
ãģ¾ãģĽ ãĤĵ
Ð¾Ð»ÑĮ ÐºÐ¾
ren thood
anc o
Ġp upp
ĠB ed
y ang
b rit
ĠStart ing
a que
Ġ** *
Ġc amb
ke it
f am
Ġun rest
Ġestabl ishing
Ġp sy
IG HT
Ġgrand e
ĠF L
l ast
ĠC M
ĠBelg ium
enn y
ress ive
ĠDet ails
ĠH R
ĠOrig inal
ĠG ay
r ide
Ġcorpor ation
ĠPost s
ĠJam ie
ĠAr thur
g h
inn ed
er ver
Ġje g
i pt
Ġwhistle b
Ġn Ã¤
Ġmagn itude
Ġsu its
Ġpos es
Ġg low
em i
Ð½Ð° Ñı
pe ople
Ġpresident s
k k
ĠC art
ĠSc ar
Ġto y
Î¹ Ïĥ
åĲ ĳ
Ġnew est
Ġh ill
ze ch
> >
Ġinc on
Ġjump ing
ĠS ale
ĠØ Ń
Ġpil ots
ĠUPD ATE
Ġen abling
Ġmod ules
rep resent
ĠÏĢ Î¿Ïħ
un ted
Ġprocess ed
Ñĥ Ð¼
el n
ĠW ait
ĠK ath
Ġspons ored
ick ets
Ġfulf ill
Ð¾Ð² Ð°
Ġanonym ity
Ñĥ Ð¶
ĠAirl ines
St ate
abl o
Ġcomp ound
ĠW ire
Ġo st
Ä ĳ
ard i
Ġschem es
ĠMer ced
pe red
Ġ9 6
ĠS O
ĠR O
ĠG ot
ipp le
Ġr iot
ĠC rist
Ġassum ptions
Ġpre jud
ç Ĭ
f ive
H D
Ġsk illed
a fe
Ġinf amous
ĠAl f
ĠÏĥ Ïħ
Ġp ir
u ction
Ġtravell ing
ili ation
Ġlast ed
tr ue
P res
Ġwrest ling
Ġadjust ed
Ġencoun tered
Ġder ived
ĠL ane
Ġclimb ing
Ġdiscl ose
Ġloyal ty
Ġcreat ivity
p ublic
ol ine
Ġtra p
Ġrecommend ation
n esty
g ot
Ġp ants
aj e
Ġtr im
ĠB ond
Ġ8 7
b ie
ĠEd wards
d ale
Ġsan ct
èĢ ĥ
w hen
ĠWe bs
Ġc ents
Ġb oring
ĠJud iciary
pp y
Ġw ip
Ġse gu
Ġin ch
Ġdis advant
ion ed
ĠN A
Ġle agues
Ġl oving
Ġmess aging
Ã Ĺ
eter min
out ing
Ġpar ade
Ġmet a
Äĥ r
ĠBre ak
ĠWik ipedia
writ er
roll s
ĠW er
ĠVi ol
ĠPolit ics
ĠS oul
ĠÐ» Ñİ
Ġcost ly
Ġevalu ation
Ġtour ist
Ġteen age
ĠC BC
Ð² Ðµ
ĠT C
ĠTO DAY
Ġreal m
Bec ause
Ġhe d
ĠMove ment
Ġscrat ch
ĠF u
ĠÐ¾ Ð½
tig ieg
ĠLe v
Ġment ally
Ġjust ified
Ġsc al
Ġsevere ly
ãģ¨ æĢĿ
oub ted
Ġconv inc
Ġarri ves
sell ing
ro ots
an za
ĠInte gr
ĠM ason
ĠPhill ips
Ġ9 2
p ic
Ġref lection
Ġpriv ately
Ġexerc ises
ul ing
å ¢
Ġim mer
Ġ197 9
g on
ĠGi ul
Ġpost p
iox ide
Ġexcept ional
Ġyour s
ain er
ac ious
Ġmon sters
ĠK ap
Ġfol k
Ġgrav ity
ĠV el
Ġearl iest
Ġrel ies
ĠEb ola
Ã¡ c
Ġle ver
Ġdark ness
Ġred es
ĠC i
Ġsil ly
ĠWal mart
ĠMarc us
Ġdon ate
Ġbed room
IM E
ĠÑģ Ð°Ð¼
ĠPro secut
Ġwh ites
Ġcur b
ÙĬ ÙĨ
en o
Ġper ce
br is
Ġball ots
ĠBe ast
Ġâ Ĩ
ĠLinked In
Ġpreced ent
Ġtoile t
Ġaccomp any
ord able
ĠB ak
ĠH orn
h at
ĠJeff erson
Ġmod es
ĠD ies
Ġste pping
ĠD VD
Ġst ays
Ġexcept ions
ĠAdd itional
Ġbelie ving
Ġoblig ations
min ister
Ġ uit
Ġconsum e
Ġinf er
Ġprior it
Ġpe ut
Ġelimin ated
Ġren ov
Ġg an
ĠÐ Ľ
Ġcancel ed
Ġlaug hing
ĠM aur
ĠÐ£ ÐºÑĢÐ°
Ġthorough ly
Ġdiagn osis
de al
Ġorgan ize
b rew
Ġtun ed
Ġrep ublic
9 00
ĠAC L
Ġve t
Ã¦ r
Ġd ess
Ġ' '
or ical
V R
Ġoff shore
Ġcor ners
b ast
p ired
Ġtrib al
Ġaggress ion
Ġm Ã¼
c el
Ġca ut
ĠD ennis
ĠHigh way
ãģķãĤĮ ãĤĭ
Ġflow ers
h um
Ġat Ã©
Ġf ame
be an
Ġbankrupt cy
ĠSur vey
it ated
omm y
ĠT D
Ġdesper ately
1 10
Ðµ ÑĢÐ°
ĠAn imal
ann ers
ĠY ears
de gree
or ph
Ġpe oples
id ges
Ġout er
p it
Ã¡ri os
ĠIn iti
Ġs ink
Ġk er
her ic
Ġnegoti ating
Ġindepend ently
ä¸ ĩ
Ġspec ified
Ġarrang ements
ĠRe form
ĠS ach
Ġvend ors
Ġbes ides
Ġmet ab
Ġimpact ed
ĠAr men
connect ed
Ø ¸
ĠK os
Ġcon vey
ĠAh med
Ġmid st
Ġdemon st
Ġsl ip
Ġchart s
ĠT arget
ĠT weet
ĠH ig
Ġmal ware
ĠCy ber
ãĥ© ãĤ¤
ing en
add y
ĠØ ®
ĠCom b
Ġinter im
Ġ9 3
Ġpre ferences
ĠD ays
Ġtrad em
ĠEd ge
Ġe j
Ġdel icious
Ã´ t
Ġsequ el
ĠGarc ia
ĠSch umer
Ġun le
Ġprohib ited
ar u
Ġstream s
ĠGl enn
Ġfrustr ating
Ġcont rat
op es
ĠSud an
Ġ0 8
erv ation
Ġal umin
ra h
ĠMu ham
ĠCast ro
Ġd angers
Ġin ex
Ġsubscrib ers
E s
ĠTit le
Ġcompar able
ĠAuthor ities
ib il
leg raph
Ġf ib
Ġw are
Ġevent ual
Ġrespons ibilities
arn a
ic io
Ġfundament ally
Ġmu y
ĠEl sa
ĠR ot
ĠCow boys
qu ire
Ġhydro gen
Ġv owed
ĠP OL
Ġpar agraph
ĠV A
f ly
Ġdecre ased
ĠÐµ Ð³Ð¾
ĠPict ure
ĠMS NBC
Ġsp awn
Ã ī
Ġpriv at
art s
m el
Ġdis orders
Ġexpress ing
Ġbe re
ne ath
Ġconsum ed
un ge
ĠÎ ¸
Ġcart oon
Ïģ Î¬
ÅĤ o
Ġre duces
Ġlove ly
Ġcoast al
olute ly
Ġgen et
li ers
Ġcivil ization
Ġaver aged
r ou
Ġfore sts
Ġve to
ãģĹ ãģĭ
Ġtreat y
ĠHe at
Ġmort ality
e en
ĠO kay
Ġnational ist
ĠH appy
Ġrecre ational
Ġstat ue
Ġend e
ĠJess ica
Ġp ause
ĠIn v
ĠBry ant
p rom
Ġdiscl osed
? !
Ġfriends hip
Ġcolon ial
Ġh i
Ġmi xture
Ġviol ating
Ġent ries
ĠM aj
cl osure
ĠStud y
Ġexha ust
Ġsuper vis
Ġcontract ors
ĠFer r
Ġfire arm
f an
Ġmuit o
Ġ0 4
Ġwas h
éĿ ¢
ĠJeff rey
ĠLiber als
ãĥ ľ
Ġc in
Ġpres cription
g io
ãģĮ ãģĤãĤĭ
Ġcred ible
ãĥ³ãĥ ī
éģ ¸
ke es
Ġsound ed
sy stem
Ġd re
vi ol
Ġwar fare
ĠC T
ĠTr aining
ĠW onder
ĠVer izon
Ġfresh man
ĠApp e
.âĢĻ âĢĿ
ĠC abinet
Ġb ite
Ġrec alls
Ġrap ed
Ġris en
l arg
ĠPol ish
ĠComp an
Ġwhe els
Ġun h
Ġprev ention
Ġse iz
n ational
ĠH ud
ĠTH IS
ĠBl ues
Ġexam ination
Ġp ode
ĠBron cos
Ġover see
irm ingham
f al
ĠSur v
ĠL ost
ĠMon th
as ters
Ġy ang
it is
ĠPr adesh
Ġastron aut
ĠB annon
Ġveget ables
Ġmotor cy
h ad
B ER
ĠÎµ ÏĢ
ĠSt ring
Ġho ly
è ī
oubted ly
Ġaccommod ate
ĠBenn ett
Ġamb ul
Ġhot els
Ġa ides
ĠSh in
lev ant
h ang
Ġd ag
20 11
Ġsub po
Ġden ying
å ģ
Ġenc rypt
Ġinv alid
Ġst er
ĠM VP
run ner
Ġpract ically
ĠW oman
Ġ198 7
ĠS orry
ĠA ld
C omp
Ġle ather
Ġlast ing
Ġorganiz ers
Ġign oring
Ġan o
Ġ Ú©
Ġswim ming
ĠN ut
Ġcor rid
ç İ
ĠE sc
Ġan te
Ġz omb
ĠTele gram
ond o
t u
owe en
Ġswe eping
ĠM M
Æ ¡
Ġsn ap
æĪ ¦
Ġ ub
ĳ ×
ab ul
Ġhung ry
Ġwh ilst
ĠK or
Ġj ack
Ġinter cept
Ġsh y
Ġsocial ism
Ġsovereign ty
Ġenc ryption
ĠD NC
Ġdecl ining
Ġpow der
ĠJohn ny
ĠTrib une
Ġrh yth
Ġins ists
oot ing
OM E
çĽ ¸
ĠTit an
OR K
ÑģÐº Ð¾Ð³Ð¾
ĠJ ared
we g
ĠGl ass
Ġgam ers
Ġsign atures
Ġh ood
Ġeduc ated
Ġ14 0
ÑģÑĤÐ² Ð¾
al in
ĠÎ³ Î¹Î±
Ġearthqu ake
ĠG reens
ĠMerced es
Ġup side
Ġvol umes
ĠÎ ķ
Ġcent res
ĠB illy
ag em
ĠRich mond
ãĤĮ ãģŁ
Ġ9 7
ĠB ird
Ġref usal
ĠSt ream
Ġtr Ã¨s
Ġland l
ĠF an
Ġfilm ing
ĠLeg end
Ġr age
ĠF ly
R ed
Ġobject ives
æŀ ľ
t ag
ch air
ĠP ath
Ġdi ver
ĠM ans
en en
Ġperman ently
att a
eng u
Ġroll s
ĠW inn
Ġ3 50
ç± ³
ĠPet erson
ÐµÐ» Ð¸
Ġsl ave
Ġmid night
Ġcon form
ç ¥
ĠM ade
en i
Ġpsych ology
Ġgenuine ly
Ġb ind
Ġsh aped
ĠSh ield
ĠS F
ĠQueens land
Ġ Ïĩ
Ġcomple ting
ĠGold man
ĠD ash
ĠAr c
AR S
oc aly
ĠPl anned
o ons
Ġbelong s
sp ace
ĠAr n
ĠK az
ĠC ertain
Ġform ing
Ġver b
ĠBarb ara
Ġmat ched
Ġr Ã©s
IL E
Ġtong ue
ĠÑģ Ðµ
ĠWall ace
Ġd ern
ĠAtt ack
Ġimag ined
Ġind ef
ip h
ĠF itz
P T
k le
Ġtransl ated
ĠSp ider
ah o
ĠBut tigieg
Ġclass room
ĠT ogether
ĠD I
Ġrel ate
Ð» Ñİ
Ġd ioxide
ĠTr uth
ang o
ĠT rav
ĠSw ift
Ġfel ony
ĠZe it
Wh o
Ġs isters
he id
ott om
ĠkÃ¶n nen
Ġstatist ical
Ġassault ed
Ġexplo itation
Ġle v
Ð± Ð¾ÑĤ
Ġrev ised
ĠUlt imately
Ã¤ tt
Ġgar age
Ġk ernel
ĠL em
Ġtw itter
ul ator
Ġexhib ition
Ġins urg
ull a
und a
ĠT ol
Ġachie ving
Ġr ou
do ing
Ġlabor atory
cul es
ĠPompe o
Ġtack les
Ġover ha
Ġal iens
ins ula
ĠNiger ia
ĠBern ard
Ġinter f
Ġb out
ĠLight ning
H C
ĠA br
ĠB ren
ĠStud ent
Is rael
ĠCov id
Ġh orn
Ġves sel
Ġinc oming
Ġeight h
Ġpret end
Ġcoc aine
ĠBook s
Ġsucceed ed
ĠK ush
and ez
Ġesc aped
Ġwor den
Ġext ends
ĠQu Ã©
Ġconf using
Ã¥ n
Ġrec ur
Ġw ounds
Ġprot agon
Ġhard est
ĠS ri
Ġin hib
mun ition
ck er
ĠSh ang
Ġreason ing
ĠChrist ie
e ast
ĠpolÃŃtic a
ĠC arson
ull ivan
å Ħ
ĠH ern
Ġref und
Ġless er
u ation
Ġ9 11
Ã¡ t
ĠS pect
ĠA F
Ġne at
Ġdecl aring
ig ue
ot er
Ġcomp osed
Ġenthus iasm
Ġreview ing
n ost
Ġv ic
Ġv ai
ĠM I
ĠK ay
worth y
ÅĽ ci
è ¶
Ġ0 7
Ġcont empl
Ġman ages
ĠEm b
Ġinter medi
Ġeffect iveness
Ġj ug
pro te
ĠRe ed
we b
Ġun st
Ġdem ographic
Ġflow s
.. ."
Ġsh ore
Ġst raw
acc ur
Ġhas ta
pro v
ãģŁ ãģ¡
Ġvari ation
bl ack
Ġ ÑĢÑĥ
work ing
Ġsol ved
ĠN ep
Ġw reck
Ġpos it
ĠNot es
bor ough
ĠB irmingham
g irl
ĠL G
ĠCitiz ens
Ġto ys
Äĥ ri
Ġspect acular
th irds
Ġnur se
ĠDise ase
Ġlyr ics
st arter
ĠPlan et
Ġle aks
A b
Ġmal icious
èª ŀ
Ġro d
ì Ĺ
ãĥ Ħ
Ġsuper hero
ul in
turn ed
Ġteen agers
Ġhat te
Ġt ribute
Ġse am
ĠPa renthood
D ata
Ġwor n
Ġphotograp her
Ġdemonstr ates
ĠC reek
J ohn
uls ion
Ġorig ins
Ġmid field
Ġmon ument
ĠSo x
Ġm og
Ġinj ust
Ġelabor ate
Ġrub ber
ĠL amb
ĠPow ell
Ġatt ributes
Ġli ability
Ġdig it
Ġgu er
l ies
à¤ ²
ig m
AS S
Ġsur pass
ĠPro per
Ġswit ched
Ġfe ver
ind e
ãĢ ħ
Ġret ro
Ġinev itably
Ġinc arcer
US D
ĠClass ic
Ġd ated
Ġor che
Ġtrad itions
Ġsc rap
ĠI G
ĠG aming
AM E
Ġban ning
Ġlos es
ĠStr ong
Ġlaun ches
Ġt ub
Ġo ct
Ġkill s
ĠPo ly
Ġgr ain
Ġdign ity
Ġrebu ild
ĠVill age
Ġn it
ĠPokÃ© mon
Ġ198 5
ĠUp on
un c
Ġn uts
ĠI g
Ġsell s
Ġdu o
Ġp ile
ĠL ic
Ġadapt ation
Ġc ache
Ġw rap
Ġpubl ishers
te am
ĠW ang
ÑĢ Ñı
Y eah
Ġdeal ers
ĠE sp
ĠC SS
h l
s is
vo ir
Ġmin ers
Ġdefin ing
Ġnom inated
ĠM MA
Ġn an
Ġlic enses
Ã »
ĠWal ter
ä¿ ¡
Ø °
Ġj est
h is
ten ham
ĠA ber
ur l
ios ity
B E
ier ra
heim er
ell ation
ÏĦ Î¬
Ġ ig
ĠRa iders
Ġb inary
Ġtrad ers
ĠJ oint
Ġmob ility
oss ier
ĠHarr ison
ĠPD F
ĠGall ery
Ð ŀ
Ġsatell ites
Ġprov oc
è Ĥ
Ġch am
ĠGo ing
h ole
r ice
Ġdec ks
ĠMart ine
ĠList en
Ġs ib
Ġanaly ze
Ġprem iere
m ile
èª ¿
ĠR ing
L ook
Ġsc ulpt
Ġfunction ing
ke ys
od o
Ġsubstant ially
or p
n ÃŃ
Ġarch ae
Ġ9 1
ĠEngine ering
ri que
ĠJ in
ĠNash ville
Ġunc ons
Ġresp ir
ide o
in ate
Ġw ieder
per t
ec hes
Ġis so
U s
IC O
Ġde re
Ġdif fer
Ġh orm
ĠSch olar
T ION
Ġw ard
åĪ Ŀ
ĠK umar
ĠEn joy
Ġpr ay
Ġm all
gr ad
iv os
Ñĥ Ð±
æĽ ¸
ĠM ix
Ñ ĳ
Ġm ph
Ġr ated
ãģ¾ ãģŁ
Ġsal v
we alth
ĠØ ±
oc ity
ĠRe lease
ad t
ret ion
ac ia
Ã¨ res
Ġo le
à¤ ¸
Ġmain tains
ĠI BM
Ġun lock
Ġlegisl ators
h Ãµes
ĠCor onavirus
Ġpred omin
Ġterrit ories
ph p
Ġwood en
Ġfin ale
Ġed ges
Ġcommit ments
æ Ĵ
ĠRegard less
Ġendorse ment
ĠSoc cer
Ġregul ate
c rit
Ġafter wards
Ġdefend ants
ĠV M
Ġpuzz le
Ġmem orial
Ġad verse
ĠSt a
Ġ8 9
oh l
Ġbehavi ors
f our
act ic
ĠPalest ine
Ġobser vers
ĠInter ior
ĠCom ments
Ġ19 30
Ġm undo
Ġtri umph
Ġjo ins
ĠAn a
ĠH ousing
ãģ® ãģĭ
ĠBrook s
Ġmag netic
ord e
ĠZ ion
Ġath lete
Ġl ips
im iento
Ġdeter ior
Ġgo b
ĠMens chen
Ġembr aced
> <
Ġtransl ate
Ġgener ic
Ø§Ø ¯
n u
Ġch ase
Ġout fit
P ost
Ġfort un
k ov
am ation
Ð¸ Ð»Ð¸
Ñ į
Ġtax i
oss a
ian ces
uk a
ure rs
Ġsurve ys
ĠHol ocaust
end ant
ĠIndust ry
Ġle af
ĠBry an
Ġm ature
oc ide
Ġ0 6
Ġs id
ĠN as
Ġm ens
Ġinsp ire
Ġcl ash
os hi
Ġdies e
ĠAl ice
et ti
st atus
ĠB ishop
Ġc ure
ÏĦ Î±Î¹
at ility
çļĦ ãģª
r il
Ġfrank ly
ik t
isc her
Ch rist
ort ez
art a
Ġb atch
ĠZ ucker
ĠCom ment
uff icient
Ġinf lamm
ob i
ĠChief s
us o
Ġinvent ory
in as
Ġab oard
il ia
y d
Ġkill ings
ĠU P
Ġcomm itting
ĠBrown s
Ġk or
Ġf oul
Ġp ac
çµ Ĳ
ĠCl in
ãĥª ãĥ¼
Ġres il
Ġcar riers
Ġcrowd ed
Â Ķ
Ġun ited
Ġsport ing
Ġaim ing
ĠSil va
ak y
Ġr am
Ġqual ities
Ã´ ng
Ð² ÐµÑĢ
Ġcru ise
ĠTe a
u um
fr ame
h ots
Ġb ij
Ġcook ies
åĪ ¶
ut ing
Ġcomm ittees
ĠOcc up
ĠS ources
ic iÃ³n
ĠC ris
Ġres id
Ġpe u
Ġconsist ency
Ġaccident ally
Ġfinancial ly
Ġtoler ance
hor a
Ġmill ones
ard e
Ġg a
ĠDO J
Ġmem or
w rite
ain es
ĠN DP
ÑģÑĤ Ð°
G ener
Ġcont r
ĠD ynam
Ġjurisd iction
Ġi T
pp e
p ay
ĠA j
ĠÐ· Ð°Ðº
Ġname ly
ĠT S
Ġnom bre
os o
p i
Ġun ch
bl og
Ġout look
Ġanaly zed
Ġdep osit
Ġpro d
ĠBl air
ĠDiam ond
r ise
ÙĬ Ø±
Ġimm ers
Ġspec ify
ĠPriv ate
Ġste aling
ĠC arm
ãĤĵ ãģª
oll o
Ġ9 4
res pect
Ġcatch ing
ĠDen mark
Ġtouch ing
Ġtrans fers
Ġfor ums
Ġk ont
Ġwor ries
Ġsac red
ĠApp arently
ĠR as
Ġs unt
Ġth umb
ĠW a
Ġtr as
ĠCl ose
Ġf ancy
Ġk Ã¤
Ġconfront ed
Ġskept ical
ĠPh D
ap or
Ġâ Ĺ
Ġpers ist
In st
rend ra
Ġfin als
Î» Î¿
ä» ĺ
Ġn Ã¥
Ġg rey
Ġmeasure ments
Ġt ire
ĠM IT
Ġblood y
Ġrel ent
Ġsp ends
Ġ í
Ġhon our
u u
aret te
Ġtest ify
Ġpat ience
Ġren dering
ĠS K
Ġter rain
ĠF ace
Ġval ued
Ġk tÃ³
Ġunder neath
at ers
ĠH ost
Ġstri ker
Ġp se
Ġ0 5
ĠA er
at on
T Y
Ġin ability
Ġentreprene ur
ĠUb untu
ĠVik ings
ab an
Ġnight mare
Ġt ant
ĠBol ton
ĠF ew
ĠT aking
ĠâĢ ķ
pl ess
Ġmilit ant
ĠHall oween
Ġac ute
Ð Ł
ĠÎ ĳ
Ġun limited
ĠTh ous
Ġviol ate
Ġsh apes
Ġde bris
ĠGirl s
Ġl ig
Ð¾Ð³ Ð´Ð°
ĠS old
ĠD in
20 10
ist ically
ro se
o op
b t
Ġpr ayers
Ġam munition
ĠJo el
ãĤ¤ ãĥĪ
Ġves sels
c ill
al ous
ĠWhats App
F ile
Ġre lying
ash i
ĠU ne
ĠBut ler
æ ħ
Ġinv itation
I Z
em b
Ġsubject ed
Ġca res
Ġmos que
ĠIslam ist
ĠØ¹ ÙĦÙī
Ġprof itable
Ġ( +
Ġp ipe
are z
Ġbroad band
ĠC ox
Ġsal aries
c aster
Ġabsor b
Ġex agger
ĠColomb ia
Ġd ancing
Ġa ument
oth y
Ġload ing
our ge
Ġformer ly
Ġdoub ts
Ġdis ability
Ġpe pper
c ie
ĠG ear
Ġpro jet
Ġn y
writ ing
Ġhe al
g rav
ĠIns ider
raw l
ist o
om atic
Ġre pr
ĠF ish
ĠRe ally
ĠMor rison
ĠT ag
Ġste am
} }
ĠÃ© l
Ġlaug hed
Ġdefend ant
ĠSpace X
Ġw and
Ġrall ies
Ġoccur ring
Ġrein for
Ġident ities
Ãª m
ĠR oth
Ġattack ers
Ġany time
Ġnation ally
Ġmusic ians
Ġdel ivers
Ġconsult ing
d b
ĠB uc
ĠDeutsch land
ch l
Ġbureauc rat
un ct
Ġwar r
Ġju ice
Ġfil med
Ġbroad ly
Ġad oles
Ġf ict
ĠP ract
ĠProf ile
ass en
Ġl leg
Ġincl usive
ĠAdv anced
ID S
Ñĥ Ñĩ
re v
Ġluc r
Ġab uses
ÙĪ Ø±
an as
Ġstro ke
Ġpesso as
ĠRodrig uez
Ġswe ep
ĠJ ak
1 20
Ñĭ Ñħ
ĠØ¨ Ø§ÙĦ
umb lr
ĠMuham mad
Ġpharm aceutical
ange red
ĠCu omo
ĠCr iminal
Ġà¤ ¹
Ġcontain ers
Ġchem istry
Ġf oster
bu ilding
Ġalert s
Ġcontribut or
ĠHope fully
Ġm im
ĠSp urs
Ġcauc us
j pg
ĠT ak
Ġfix es
cl usive
if i
Ġl ined
Ġlabel ed
ĠSum mit
ĠT un
ĠF ortunately
athe tic
ãĢ ĳ
ic ians
Ġbreak through
Ġstrict ly
Ġopt ional
Ġaltern ate
O O
Ġdynam ics
ĠPer formance
Ġgr ay
ĠToy ota
Ġg aps
C he
inf o
duct ions
Ġlin ear
ĠCry pto
çĦ ¡
ãĢ Ĳ
Ġsk ip
Ġne o
Ġre ception
ĠMil an
Ġreason ably
åı¯ èĥ½
Ġext ending
Ġn arc
Ġstr ings
ĠSome one
ä½ ķ
effect ive
ĠK aren
Ġdispro portion
Ġlack s
Ġf art
ĠT igers
Ġfavor able
ug u
ìĿ ´
st ation
ĠZ ach
Ġdetermin ing
Ġphysic ian
Ġsch on
Ġsist ema
D I
al is
Ġpred iction
Ġrest ored
ĠN acional
ĠComput er
ĠOper ation
const itutional
Ġsp ells
Ġtw in
Ġconven ience
X T
iz ont
Ġsh ipped
Ġtrad es
Ġspons or
Ġle ap
Ð ļ
Îµ Î½
Ġor al
ĠH ockey
ĠC zech
Ġphot ography
ĠC F
Ġplug in
Ġth irty
ĠFiref ox
Ġbr as
Ġdomin ance
Ġa ired
G S
Ġalbum s
Ġinv ented
Ġpro claim
Ġlock er
ĠM ol
Ġn og
ĠL ate
Ġkilomet ers
Ġneighbour hood
Ġd ot
Ġs ier
Ġn ap
Ġprop ose
éĽ Ĩ
á» ģ
Ġh acer
Ġban ner
Ġswitch ing
Ġcred entials
Ġp airs
ane y
âĢ ķ
p ad
O ver
Ġsomet ime
ï¼ ĵ
Ġperson as
Ġdomin ate
âĢĶâĢĶâĢĶâĢĶ âĢĶâĢĶâĢĶâĢĶ
f eld
Ġgod s
Ġp iano
å ĸ
ĠPresident ial
Ġsatisf action
ĠB elt
Ġcustom s
ĠWood s
min ster
ipp er
Ġsubm ission
ãĥ İ
Ġhe ter
Ġb ikes
Ġfem ales
è§ £
ai ro
z illa
ning en
Ġbusiness man
Ð ł
m and
Ġlist ened
Ġdon or
çµ Į
Ġfr ames
Ġhun ger
Ġment ions
ĠM ath
roph ic
EL L
Ġcomprom ised
ĠÃ ¸
à¤ ¯
Ġrel ied
éĽ »
ĠStr ateg
ĠA K
ĠCl ay
2 000
r Ã³
ĠA V
ĠQu inn
Ġapplic able
M ed
Ø§ Ùģ
ĠT ib
ãĤĪ ãĤĬ
Ġintegr ate
Ġexpect ation
ĠThrough out
T oday
Ġorgan ised
Ġoffer ings
Ġbe ers
Ġden ies
ĠM atch
Ġspir its
ĠPack ers
Ġqu arters
Ġsa u
ãĤ Ģ
ĠÃ© s
ĠP ink
rit t
Ġf lesh
ä¿ Ŀ
in ery
ob a
Ġsp ite
Ġg ente
Ġmount ed
s ic
ĠPre vention
Ġprov ing
Ġnot orious
á» Ļ
ĠL ot
ĠE N
Ġnew er
Ġpredec essor
Ġ ul
Ġhors es
O ut
ĠFin land
Ġel le
Ġtra um
Ġarr anged
ãĤĪãģĨ ãģª
ĠÏĢ ÏģÎ¿
Ġà¤ ¸
Ø £
ch ant
Ġn est
Ġsepar ately
s pr
ĠFour th
Ġpro xy
ĠG P
ĠD im
Ġg ibt
Ġnot ified
on el
l os
ĠK ill
Ġregul ated
Ġgl ory
Ġr ings
Ġanalys es
B re
ĠG rey
ĠO g
Ġbo ats
Ġv id
ĠD rew
ism e
Ġpre season
Ġen f
Ty pe
Ġd ense
Ġ16 0
AC E
ĠLe ave
ĠFl ight
ĠC P
Ġlay ing
Ġt v
Ġcomple ment
ĠI R
Ġtrick y
Ġcl ouds
âĢĿ âĢĶ
ĠCon clusion
ĠJ obs
Ġour s
ĠFin n
ĠC auc
Ġinter section
ãģĹ ãģ¾
ĠÂ» .
ĠLim ited
Ġcon se
Ġpr isons
ĠN um
Ġal tered
ĠE P
mont on
Ġconsult ation
Ġp ockets
lig t
art en
ãĥĨ ãĤ£
Ġconc ur
omet own
ĠAr med
Ġsu e
ĠPict ures
oul os
rane an
es se
Ġtact ic
ĠW ITH
èª į
Ġvict ories
ĠCub an
Ġsc am
Ġs ul
äº Ī
Ġquant ity
ĠVide os
ĠH az
Ġcont re
Ġm elt
ĠF ans
ĠGriff in
ĠCh amber
econom ic
s ocial
Ġpro long
M r
ĠBob by
Ĳ ×
Ġsan ction
Ġart if
Ġint ensive
ĠUs ers
form ing
ĠChall enge
ĠÃ İ
Ġinvestig ative
ĠH ello
Ġmus cles
Ġund oubtedly
Ġb inding
Ġsum mon
Ġpers istent
ĠT on
ro le
ĠVers ion
Ġarbit rary
IF A
em bre
Ġnav igation
c ost
orient ed
è º
Ġp ound
Ã ¯
Ġenc ont
gener ation
ĠRep orts
Ġsuccess or
ĠH ass
Ð Ŀ
Ġm ast
ĠPrin cess
off icial
est abl
Ġne ural
ĠK i
Ġj am
ĠSpe cific
Ġv Ãł
un i
Ġ198 2
Ġconsider ably
on ial
Ġnecess ity
g reen
ĠYan kees
ĠC ape
Ġt an
es ity
ãĤĪãģĨ ãģ«
Ġhand y
Ġmem orable
US A
Ġthro at
o vers
ĠMan uel
r amento
Ġmar ry
ĠDa wn
ĠL ed
ism a
ĠD aw
Ð½Ð¸ Ðº
ĠS pl
n ut
ol ves
Ġturn out
ĠR B
ĠD ow
ĠP ic
ade qu
Ġfact ories
Ġnovel s
cl osed
ung le
Ġmin er
Ġsk ull
ĠBag hd
Ġcy cling
Ġd onde
Ġconvinc ing
Ġl ately
Bl ack
Ġgu ilt
Ġg eb
ons ored
ÑģÐºÐ¸ Ð¹
âĢľ .
Ġde lete
Ġlineback er
ĠNob el
ĠT ask
i ros
) (
Ġa kt
ĠM ob
ie ve
H P
Ġb ans
ĠB aby
Ġpot ent
ÑģÐºÐ¸ Ñħ
ĠM ormon
æĿ ±
æĥ ħ
if a
Ġrisk y
ëĭ ¤
Ġprovin ces
Ġcont ing
ÑĤÐ¾ ÑĢ
ĠWebs ite
Ġstart ups
é£ Ł
Ġr ides
Ġachieve ments
Ġint ends
S ee
Ġanch or
u cc
Ġdis ruption
Ġantib iot
Ġth á»
Ġworry ing
Ġl ÃŃ
Ġha v
çµ Ħ
Ġsexual ity
ĠAll ah
ĠB anks
Ġnu est
ç ł
Ġnewslet ters
f alls
ÙĪ ÙĨ
Ġglass es
ĠProt est
ĠMartine z
r Ã¤
as ma
ro gen
ĠSch iff
ĠN y
Ġdist ribute
ur bs
Ġsymbol s
opo ly
Ġkick ing
olph ins
val id
et o
ĠTra il
ĠB O
brit ies
Ġcens orship
åħ Ī
ĠB rend
ĠREL ATED
ĠBr ight
ÎŃ ÏĤ
Ġc erc
ĠGiul iani
Ġhol idays
Ġdis gr
Ġtheat ers
anc ies
Ġtact ical
Ġ9 00
} ,
Ġutter ly
........ ........
Ġfor k
ind ex
Ġf isher
head ed
Ġcontract or
Ġa pt
Ġdat as
W orld
ç¤ º
ivid ual
Ġm ate
ĠN ine
us c
ĠB ear
ĠD ans
Ġsuprem ac
Ġre ct
ĠÐ¾ Ñģ
Ġcas a
Ġnorm s
ĠÑ ī
b as
Ġcrew s
ĠØ§ÙĦ Ø¹
ĠR acing
av id
ĠQuest ion
ib l
Ġstr anger
oc cup
ĠAust ria
Ġdiv isions
ĠM aterial
Ġclick ing
m ith
In t
Ġn ive
Ġspons ors
Ġgal axy
ci as
Ġdiscour se
Ġcrack down
our ke
ĠR ush
Ġmet res
Ġtre asure
ĠAud io
Ġcool ing
Ġmed al
Ġ ic
Ð½Ð¸ Ð¼
Ġpict ured
Ġâ Ķ
Ġpublic ations
Ġstaff ers
Ġsp at
Ġfam ously
V M
ĠReg ion
ane ous
Ġvolunt ary
ĠMajor ity
ĠS ett
cast le
Ġparam eter
ĠIC O
ĠM ik
ĠL O
ĠCoun ter
n ings
ĠM Ã©
Mus lim
Ġintention ally
Ġo x
Ð½Ð¾ Ðµ
ĠN RA
ĠEnter prise
ĠJes se
ĠIc eland
Ġprof iles
Ġa y
Ġdefin itive
Ġelev ated
Ġf iber
vent ions
Ġdoctr ine
Ġbattle field
Ġris es
ĠS B
Ġmur ders
Ġspe eches
Ð½ Ð¾Ð¼
ĠMont ana
ĠSp iel
å° ı
it us
ĠÐ´ Ðµ
Å ¯
Ġp up
ĠSam uel
ust ain
Ġ× ľ
Ġbl end
ĠPat rol
Ġvari ations
G C
Ġevol ve
ĠaÃ± o
ĠPH OT
ĠH A
ĠL akers
Ġtr icks
ĠWe ather
Ġassoci ations
d ling
ĠSh op
Ġshow er
ĠÐĿ Ð°
Ġhas ht
é ¦
ÑĢÐ° Ð·
Ġmer it
ĠÐ¿ ÑĢÐ°Ð²
Ġdesign ing
M ark
Ġsw ept
ĠC ant
tic ally
Ġmet ap
ĠS L
Ġstick ing
v ance
Ġcorrespond ent
Ġst yl
undred s
ĠJos Ã©
ĠForm ula
Ġincumb ent
ĠOffic ial
ud s
ĠEn forcement
Ġclass ical
ĠR aw
ĠN am
Ġ q
Ġrep et
Ġhypot hesis
Ġupgr ades
èŃ °
ãĤ² ãĥ¼ãĥł
Ġinv isible
Ġrapp ort
ĠBe gin
ĠV atic
Ġnurs es
Ġunw illing
ĠMot ors
æŃ £
Ġchar ter
Ġth ri
ĠMag n
Ġv in
ĠL ok
Ġz oom
er ting
Ġelectron ics
ĠN ico
ĠFe atures
ĠEd monton
Ġde ut
ĠB ald
Ġlif ting
ĠA ub
Ġqual ifying
R T
Ġdiss ent
Ġn erve
Ġk icks
cont rol
Ġpl ag
Ġg ri
ab i
Ð¾Ð± Ñĭ
ĠF REE
Ġmass acre
Ġmic ros
ÑĤ Ñĥ
Ġfor am
ĠiT unes
f ight
Ġsol ving
Ġant es
Ġa ston
red ict
Ġcampaign ing
Ġprov es
Ġ19 20
Ġ20 30
ĠNS W
ĠAct ually
Ġsec urities
Ġaut ism
Ġprec ision
anche z
ĠPal m
Ġcl ause
Ġsub mar
Ġhor rific
Ġadvis ory
ment ioned
D em
Ġh ind
Ġfort une
Ġopio id
Ġgen ius
pri v
ĠAs k
Ġenc ore
ĠZ one
Ġke ine
ĠLear ning
ĠBM W
Ġhero in
le en
Ġart work
ĠÃ ľ
Ġopt ed
Ġunc overed
Ġtourn aments
Ġflaw s
Ġpl ac
Ġcy cles
ãĥ ļ
Ġmet rics
ÙĬ Ùģ
ĠBe aut
Ġb ats
Ġtrib e
ĠCol in
u ity
ac hers
Ġ ),
ĠTot tenham
Ġ ÑĪ
j or
Ġbelong ing
Ġsearc hed
ĠHug hes
Ġrevel ation
ĠIniti ative
Ð» ÐµÐ½
b ull
K K
M ost
Ġc ant
ĠÐ ¯
Ġland mark
Ġbes ide
unn ed
Ġb arr
az ed
Ġremem bers
ĠE RA
ĠrÃ© g
pe c
ĠWe ap
ĠM ut
Ġtext ure
Ġhe ated
Ġpresent ing
ĠH im
Ġs lic
sh irt
Ġpack aging
Ġinf lic
G u
k om
b one
Ġmist aken
Ġmake up
Ġpromot ional
s ite
è¨ Ń
ĠT at
ĠObs erv
load s
Ġgrand mother
ãĥķãĤ ¡
Ġl ied
Ġannoy ing
Ġun law
Ġqu ot
ĠBull s
Ġexpress ions
ĠL l
Ġbl own
Ġsu ic
Ġcl ashes
ber n
ope z
Ġsum mar
Ġconfront ation
Ġal beit
Ġaggress ively
Ġp ale
ãģį ãģŁ
ĠMov ie
ĠHT TP
Ġpl ates
Ġcateg or
ac i
Ġs oup
Ġd read
V al
port ant
Ġd rown
Ġv Ã¤
sh ow
Ġyoung est
Ġe fter
Ġa ster
ent ions
Ġover time
Ġno v
å Ĥ
ĠLat ino
Ġuse less
est i
ĠD ian
ĠSh aw
Ġobst acles
os ures
Ġstimul us
M en
b ad
Ġblack s
ĠPerson al
Ġch ant
ĠS und
ĠDub ai
Ġtrack ed
ĠT i
ord o
ĠAmb assador
ĠGab riel
Ġrece ivers
ling ton
ĠVal ent
Î¿Ïħ Î½
Ġl ing
Ġexc luded
Ġ198 3
ĠE lement
ĠÐ¼ Ð¸
Ġin herent
e very
an ium
Ġcul min
s n
ĠÎ ²
ĠCry stal
ris k
Ġiss uing
per or
Ġpat ron
ĠCh a
leg al
Ġcont empt
Ġh ike
çĶ °
è¾ ¼
ĠEm ily
Ġc m
Ġpit cher
ograp her
Ð Ĵ
Ġle ase
amp ed
st y
Ġadvis ers
Ġprotocol s
Ġextrem ist
Ġexhib it
ĠSC P
iv i
tt i
Ġl ending
ĠI ch
k h
Ġsharp ly
l ocal
Ġauthor itarian
ĠP and
Ġcon gr
Ġvacc ines
ĠAl pha
ĠCann abis
Ġb ast
Ġmind set
Ġf itting
all ow
Ð¼ Ñĥ
Ġint imate
Ġj ets
ĠComp et
ĠBoy s
Ġsettle ments
az ines
Ġpued e
ĠL arge
ĠLeon ard
Ġmanip ulation
ĠCard inals
ch Ã©
Ġvar ied
Ġv ida
y ers
Ġhor izon
Ġun aware
Ġ Ïħ
iv ia
br and
ĠW ade
ĠF oster
Ġdep uis
K e
ĠT ommy
ĠMc L
Ġimm unity
ĠCast le
the tic
ĠNa rendra
Ġcur s
Ġaest hetic
Ġnot ification
Ġgi ants
Ġse aled
Ġconst ru
ĠR ust
Ġbi ology
ĠM arl
R R
Ġreluct ant
Ġbe aring
Ġrecip es
Ġshare holders
l ay
Ġar ise
n t
Ġiniti ated
Ġdisappoint ment
Ġst akes
Ðµ Ñģ
Ġca f
ie u
n ames
Ïĥ ÎµÎ¹
ĠL ives
Ġmod ify
Ġclar ify
Ġco at
ipp ers
L ist
Ġpass ive
ĠIn g
zb ollah
br aska
Ġb ureau
ĠÂ ĵ
he astern
Ġsens itivity
ĠMar ie
Ġo li
ĠX ia
ĠC ulture
Ġfree ze
int age
th ree
è ĭ
Ġsocial ly
ĠØ ¬
op oulos
ĠWell s
Ġsa ves
Ïģ Î¯
Ġread ily
er i
ĠS Ã£o
ãĤ·ãĥ§ ãĥ³
ç§ ģ
ra ham
Ġes per
Ã© p
Ġres ur
Ġse al
u ke
Ġaccord ance
at ro
ist Ã¤
un ks
Ġext rad
co very
Ġp ier
Ġdr ill
ĠG ren
ĠB orn
Ġautom ation
t w
Ġrev is
ĠJosh ua
Ġbench mark
omet er
Ġt ube
ĠÐ ¤
Ġfoot print
Ġattend ees
Ġorder ing
ĠH ence
Ġminist ro
ne h
ul ates
ĠR PG
Ġd are
Ġhack ed
Ġapp et
Ġshe ets
E r
ĠWe instein
Ġelect ro
ĠS ales
ĠR ivers
i Ã£o
Ġatt ribute
reg ular
min ent
Ġbuff er
ĠK il
ĠM T
B ay
Ġthr illed
ĠShang hai
ĠY ellow
Ġair pl
app ro
se en
Ġr ab
Ġt anto
ĠL ion
c all
Ġsp ike
éģ ĵ
Ġcritic ised
å¿ ĥ
aus ible
ĠImper ial
Î® ÏĤ
Ñĭ Ð²Ð°
ĠPl atform
Ch ina
ĠQ aeda
ĠO z
Ġsec uring
Ġtroub led
ĠYou th
Ġrevel ations
p df
ĠN ex
E m
ĠÐ Ń
o qu
Ġqu ien
ĠL oc
ĠLe aders
sp oken
Ġfin ances
Ġvill ain
ĠR S
Ä± r
ful l
AS E
Ġemp resa
R ight
Ġcur ric
Ġsubst itute
Ġelimin ating
ĠTh ai
Ġreal ise
ĠÐ´ ÑĢÑĥ
Ġsc ra
ĠF ame
Ġbul lets
ĠHispan ic
if iers
ind ust
ĠBre aking
or us
ĠM ine
ĠI L
ĠPr ide
lin ing
Ġsynd rome
ÑĨÐ¸ Ñı
Ġg ou
ON E
ric ht
Ġund ocumented
ĠW ing
ãĤŃ ãĥ£
Ġsh aking
ĠSand y
Ġfurn iture
çĤ ¹
g om
Ġ196 8
âĸĪâĸĪ âĸĪâĸĪ
å¿ ľ
h im
et ooth
ĠB ody
ĠUn ter
Ġreal ised
ĠRe yn
c amp
at ched
ĠHung ary
ar in
bel iev
Â ·
ĠDes cription
RE D
Ġcalcul ate
A re
Ġabort ions
im ated
Ġrefres hing
Ġinhab it
Ġsince re
ie val
ĠStat istics
Ġir rit
Ġfe as
cont ent
Ġmac ro
so ever
cas io
ãĥ Ķ
ĠH ait
ãĤĩ ãģĨ
ĠI o
Ġ( Â£
Ġst icks
Ġc ord
ĠVatic an
ĠBeng al
Ġbr ush
ĠP ret
ĠSim ilar
Ġefficient ly
us hing
ĠEr n
Ġintern ationally
ĠSh i
ĠTh rones
Ġoff enders
He re
Ġdownload ed
ful ness
adu ate
ĠBrother s
Ġoff ence
ĠV ent
Ġsl ammed
Ġcar ing
ze it
Ġsl ated
ĠNY C
ĠE M
Ġstead ily
cul us
t ake
Ġcasual ties
Ġdr ain
Ġreal iz
Ġhead er
oll en
Ġ198 1
Ġwho ever
as ures
ĠP E
Ġscript s
ĠC ool
ĠUn less
éĩ į
ĠA part
ĠTr ad
ĠCh ase
Ġpron ounced
Ġdef ines
Ġtheore tical
Ġtri o
w ering
Ġprompt ing
ĺ ħ
Ġremind s
ĠD j
ĠCh ad
ĠSt re
Ġhistor ian
d ess
Ġmis under
th ird
Ġ12 5
ĠSe bast
U G
ve z
Ġrun ner
im en
ĠSe ah
Ġlegal ization
st at
ĠWeek ly
ĠD h
Ġprev ents
Ġtroub ling
Ġflee ing
ĠÏĥ ÏĦÎ·
ud ge
Ð½ Ð¾Ð²
Ġ197 3
Ġby pass
re ra
ĠCh ancellor
Ġover head
ap y
p c
ot ive
ĠInter view
ĠHol mes
Ġc ual
Ġliter ary
Ġsp ill
Ġh anno
ĠB omb
Ġmet ric
ĠAff ordable
ĠT ab
Ġl ighter
Ġman ually
Ġdism ant
Ġart istic
m ax
Ġd orm
ĠÏĥ ÏĦÎ¿
Ġprosper ity
Ġsw ap
Ġimpl ies
Ġes e
ĠE L
ĠOffic ers
Ġattract ion
ĠBe er
Ġfre el
ĠM ode
Ġpress ures
ç ¢
Ġhy pe
ĠSh o
ĠA ur
Ġmeas uring
Ġnetwork ing
ĠClar ke
t ax
Ġf als
ar an
Is lam
Ġo ok
Ġch airs
Ïī ÏĤ
ĠRepresent ative
ain ted
Y our
ĠInn ov
Ġencour ages
ount y
ĠÃ Ĺ
I ES
ĠH ab
Ġin accur
ãģ« å¯¾
ĠS ite
Ġconst it
Ġg ambling
Ġav ant
ĠRe ce
ort ing
Ġsent encing
ĠKen ya
Ïģ ÏĮ
Ġdist ancing
Ġo Ã¹
ĠRec ent
ĠS anchez
Ġbr ick
Ġtr ump
ophob ia
Ġsub urban
ĠO C
Ġc ope
å¼ ·
ĠCar ib
Ġbo oth
ĠHer ald
ĠÐ² Ð¾Ð·
ĠNov a
ĠH S
Ġtra ject
Ġc yn
Ġunder go
ĠL iqu
Ġcous in
mer cial
Ïģ Î³
s qu
Ġsl aves
as ive
ĠPre vious
Ġp ars
se arch
els h
ãĤĵ ãģ§
ÑģÑĤÐ² ÐµÐ½
Ġa os
ĠReg ister
Ġj acket
Ġd ia
ĠNe braska
ĠP ir
Ġopp ression
Ġguarant ees
de z
ĠE aster
ed uc
Ġt am
fe ira
s an
Ġneed ing
Ġteam mate
Ġassemb led
Ġdisp utes
¸ ı
Ġlit igation
ĠGl obe
ĠTrav is
ific ant
ĠO ften
Ġdis ast
ĠTer min
us hed
Ġcor ps
Ġsoc iet
Ġfl ames
ĠC av
Ġb ay
w ait
Ġe con
Ġman eu
Ġterr ifying
Ġel ites
Ġpass port
ĠSac ramento
Ġwarn s
Ġthreat ens
Ġconstrain ts
ĠM ig
ĠS ize
ĠY e
sec ution
ĠS id
ä¸ĸ çķĮ
G od
Ġseg reg
ĠH onda
Ġl y
ĠPoint s
Ġreven ge
Ġst arring
Ġmult ipl
ĠM is
Ġsub way
Ġalumin um
ĠBrew ing
Ġadminist rators
Ġg ast
ident ified
ĠS EO
Ġp ant
ĠM atter
ĠR al
r v
å¿ ħ
Ġsu ited
ĠKush ner
ĠT ree
ĠPant hers
F irst
ĠG A
Ġ196 7
Ġinc omes
ĠW or
ĠCom plete
Ġint act
IS A
esc ope
Ġbeh ave
ic hen
ac cess
Ġstate wide
dep th
ĠHe zbollah
ĠP ierre
ĠZ en
ĠQuÃ© bec
IT E
am pton
Ñģ Ð»Ð¸
à ¦
st ruction
ĠRod gers
ĠUS S
Ġpack s
Ġconv ictions
Ġt ast
Ġcon ferences
yl an
ong yang
Ġg le
Ġjail ed
Ġdies el
ĠL ux
Ġrep ository
ĠNew ton
Ġcrit ically
Ġstar ters
Ð¾ Ðµ
ĠR A
Ġwhat soever
Ġanaly tics
Ġapplic ants
ĠEs pecially
ĠMarg aret
ĠBase ball
Ġprote ins
ĠEd die
ĠOther wise
Ġproject ions
oun cing
ĠO casio
Ġat e
ial e
m is
200 9
Ġm ush
ateg ory
I AL
play ing
charg ed
ĠD ame
ĠCoun sel
Ġbed s
ĠVo ice
th reat
Ġent ers
Ġdest ructive
Ġincre ment
Ġdeleg ation
im eter
Ġd y
Ġ197 6
w ald
ik ed
Ùħ ÙĦ
ĠC rew
Ġvary ing
Ġlink ing
e fficient
Ġadap ted
is u
Ġquestion able
ĠApp ro
ÐµÑĢ Ð¶
Ġdim ension
Ġarch ive
Ġemphas ized
ãģĳ ãĤĭ
rib ly
ĠD oc
ĠDe ut
ĠMed iter
an ut
k ill
C ortez
Ġres et
Æ°á» £
Ġcharacter ized
act ing
ĠÑĢÐ° Ñģ
ĠP orter
es pecially
Ġins pection
Ġpro port
m em
ãĥĹ ãĥŃ
Ġfar mer
ne apolis
ĠAf D
Ġgrand father
ĠEv il
% ),
ĠW es
æ ¼
W here
Ġcrit ique
ĠLegisl ature
ĠT ouch
Ð½Ð¾ ÑģÑĤÐ¸
r ir
Ġsa il
ĠSte ele
Ġcommun ist
ĠTH AT
ĠHe avy
it ary
ij i
ĠS ullivan
d an
E U
ĠSen ators
Ġtoug her
in ar
i ott
uster ity
ier i
et en
ĠWord Press
ĠÃ©t ait
ĠØ§ÙĦØ £
Ġvari ant
Ġneighbor ing
am as
Ġover ly
Ġshow case
uc le
Ġnons ense
Ġhyp oc
Ġinc om
ĠJ ob
Ġcost ume
Ġdr illing
ĠSuper man
if iable
ar as
ĠCons umer
Ġdrag ged
ĠD elta
Ġcome back
Ð°Ð½Ð¸ Ñı
Ġ197 5
Ġch i
å° ĳ
OR D
Ġder iv
ãĥĩ ãĤ£
Ġd ining
ĠCom ing
Ġn asty
Ġforeign ers
Ġh ometown
it Ã©s
Ġhabit at
Ġa k
J e
Ġflaw ed
re ich
Ġh u
Ġtroub les
e ze
Ġremote ly
ĠBer g
ĠP ul
Ġswe at
Ġconf irms
Ð°ÑĤ Ð¸
Ġsuppl ied
ĠH ack
ĠGr an
ĠVirt ual
Ġup hold
terror ism
ĠDet ect
Ġcoll ision
Ġle thal
ãĤį ãģĨ
osp el
ĠÐ´ Ð¾Ð»
ĠA verage
se in
Ġham mer
Pres ident
Ġcomm em
Ġflo at
Ġn Ãº
z n
ĠÐ¿Ð¾ ÑĤ
Ġup s
Ġreject ion
Ġh ogy
Ġgl imp
ĠR ut
Ġlight ning
Ġemotion ally
Ġble w
l io
Ġ20 22
áº¥ t
ĠS ierra
Ġgu ided
Ø§Ø ³
Ġh ilar
ĠAle ppo
ĠCompan ies
ĠS ter
ĠD ear
EN D
Ġentertain ing
Ġfinger print
. ).
Ġconnect ivity
z u
ĠCom ics
ĠWest minster
ĠP G
Ġappreci ated
Ġint ake
ĠOper ations
è ±
ĠN GO
Ġglimp se
1 000
ĠÐ´ ÐµÐ»
Ġcinem a
Ġembarrass ing
Ġboot s
æ º
az ioni
ask et
Ġeconom ically
Ġmount ing
ÐµÑĢ Ð²
Ġto oth
ĠVin cent
Ġpartners hips
ĠHer itage
izz ard
Ġcompl aining
Ġhaz ard
Ġoff line
Ãª te
Ġuns uccess
ĠCh ip
ust a
Ġmag azines
ĠC ell
Ġcele brities
ugh s
ap a
Ġa irst
Ġproceed s
Ġcoll usion
by e
m ember
Ġbarrel s
H is
Ġkn ees
Ġr ivers
Ġcred ited
ĠV ote
at able
ĠThe atre
Ġdist ress
ch at
Ġnurs ing
Ġpitch ing
ce ans
Ġre de
Ġdisc retion
if s
Ġsel v
w ould
Ġatt ach
ĠAd rian
ĠIsrael is
Ġsp raw
Euro pe
Ġfunc ion
ĠP ra
Ġliv est
Ġm ig
ĠC amb
ĠH et
áº §
Î¹ Î¿
ĠBroad way
m und
Ġne ces
g ue
Ġsusp end
ĠvÃ¦ re
Ġhand les
l iter
y on
Ġl akh
ĠSt u
ĠFR OM
Ġst ole
ĠVis ual
Ġseek ers
Ġz o
ĠCh an
ĠFerr ari
ĠOr thodox
ĠW AR
f Ã¶r
in is
Ġin k
g reat
el ed
ĠPy ongyang
c ano
ĠL uther
Ġc ui
Ġthe or
c Ã©
Ġnon etheless
Ġd airy
Ġprob able
Ġforth coming
ĠB ene
Ġk its
Ġr im
pro duct
Ġhe els
Ġen roll
Ġutil ize
act iv
M ore
ĠÐ³Ð¾Ð´ Ð°
ĠC ancer
Ġrecon c
Ġin adequ
Ġcontinu ously
ĠF IFA
Ġsex y
Ġapart ments
am iento
Ġequ ation
Ġsecret ly
ĠÐ §
Ġstory t
ĠL opez
E A
Ġprem ise
ĠT rip
Ġhe y
ĠC it
Ġexam ining
ow itz
Ġcon greg
Ġhed ge
Ġbatt ling
Ġm old
ĠÂ Ń
av ailable
Ġneutral ity
Ġdiv is
Ġtable ts
ĠCreat ive
ĠTh or
Ġspecial ized
Ġbud gets
Ġdim ensions
ĠDem on
Ġprim er
atter ing
Ġconst itute
Ðº Ðµ
vel t
ĠNe g
Ġrest art
tic o
ĠChronic le
Ġevangel ical
ĠGit Hub
Ġp ul
ĠN R
R ead
ĠM oss
Ġwh oles
ĠGreat er
ĠBaghd ad
Ġg orge
C omm
Ġv est
Ġz w
II I
Ġinstall ing
Ġr ugby
ĠHop kins
Ġadvis or
ĠL is
Ġun constitutional
Ġgrass roots
ict ing
Ġ" [
ç Ŀ
åİ Ł
Ġaccording ly
ĠB row
ĠK ids
Ġdict ators
ĠMet al
Ġpun ished
Ã¤ v
Ġcorrel ation
ĠDun can
Ġvac uum
ve ment
Ġdispl aced
ĠAny way
Ġles bian
Ġindic ator
ĠJ ah
Ġevolution ary
Ġmerch and
Ø³ Øª
ĠÐ´ Ð°
ĠP P
Ġcooper ate
ĠSol id
Ġwe ed
Ġacc idents
Ġstri pped
child ren
Ġboss es
ch ief
Ġcat ches
ĠCry pt
ãģ«ãģª ãĤĭ
Ġflags hip
æ Ĥ
Ġneur ons
Ġmain land
ĠN J
0000 0000
st ick
Ġhel met
Ġassoci ates
pp ling
h it
ĠMon te
ĠSt age
ĠAbd ul
oot s
Ġsupp liers
ĠEm manuel
Ġsup reme
is ke
ĠNaz is
Ġaccount ed
ĠMin neapolis
Ġneg lig
ĠEm ma
Ġ( -
æĸ Ļ
ãĤ¹ ãĤ¿
Ġinflu ences
Ġintrig uing
em er
Ġmanufact ured
c d
Ġgou vern
à¤ ¹
D ef
Ġkom mer
AN S
ir s
Ġren dered
B N
Ġjust ification
Ġen acted
Ġ197 2
Ġrest rain
aze era
áº Ń
Ġcolumn ist
Ġvirt ue
ir ies
M D
ish a
Ġsc are
ãĥ Ľ
Ġassass ination
if ully
ov ich
p ound
Ġpre y
Ġun int
uss y
ĠAn k
ĠIndust rial
ĠB io
od er
og o
our d
Ġreb ell
Ġsle e
ĠNot ice
Ġst ones
ĠC NBC
p her
less ness
ĠPed ro
Ä± nd
ott a
è¿ ĳ
éļ Ľ
Ġdistingu ish
Ġser Ã¡
ĠOut side
Ġ197 8
ĠAsh ley
ĠJ ahr
f u
Ġover th
å¾ Ĺ
ĠGener ation
Ġc ement
ipe g
ãģĬ ãĤĬ
Ġdemonst rators
Ġdeliber ate
Ġinstruct ed
Ġsem pre
æ´ »
AC T
St ring
ĠL ower
ĠP ixel
ĠSeah awks
Ġprotest ing
que z
Ġinterfe re
Ġquest o
Ø§Ø ¡
ãģĦ ãģ¾ãģĻ
Ġassess ed
ç¢ º
Ġgest ure
ĠN ode
ĠLouis ville
Ġw rist
Ġnin th
Ġgl ance
Ġmes mo
de ep
Ġvis ibility
ĠUS C
i Ã§Ã£o
ĠS QL
stan bul
Ġnice ly
ĠC ert
ĠAg ent
he res
f ires
Ġshow c
ĠW elsh
rat t
ĠMarket ing
Ġload s
ĠPal mer
ĠÐ¶ Ðµ
Ġpur ple
ĠSchool s
ĠBr ig
" ;
Ġbas ement
ĠNot re
ĠP aper
ĠA ri
ĠRes ults
Ġcul p
ĠÎ £
Ġamb itions
ne x
Ġch unk
Ġse pt
Ġsub t
Ġhel m
ĠM az
Ġcompan ion
ĠBas ic
Ġpo le
y outube
T hen
ĠCol lection
Ġs ang
Ã¶ t
Ġd ug
ĠWild life
ĠPrem ium
he rently
ĠF ocus
Ġexpl ored
y our
Ġcongr at
Ġcou pled
ĠJ ag
es ar
çĶ ·
Ġsc i
Ġinf ilt
av in
Ġmatch up
Ġso y
Ġsatisf y
Ġthread s
ĠBook er
iz ers
M on
Ġstud ios
Ġseg undo
ĠJ ama
Ñģ Ð°
Ġcollect ions
ÑĢ Ð¾Ð¼
Ġ19 40
Äĥ t
Ġanal og
Ġport rait
ĠRe x
ĠSt rip
int a
ĠNew castle
Ġbook ed
Ġstrength s
ĠPar ad
d ollar
ĠGl as
Ġback wards
Ġdisc ont
ĠEth i
ĠD ire
ost o
Ġt ous
Ġc ups
ĠCarib bean
Ġdiv ine
em po
av ia
oc used
Ġignor ance
Ġgr im
Ġrehab ilit
Ġtrib es
ĠA WS
Ġassign ment
Ġdes ires
al so
col m
ĠCustom s
Ġtu ition
Ġte aches
Ġoverwhelming ly
Ð°ÑĤ ÐµÐ»ÑĮ
s un
Ġblog s
Ġqu Ã©
ig s
Ġens ures
Ġl iver
Ġlibert arian
Ġand roid
ĠÐ¼ Ñĭ
Ġ196 9
Ġcor rection
sp an
ä¾ ¡
Ġintegr al
o ft
© ×
ĠR ule
Ġc á»
R ourke
ĠA FL
Ġsur g
iv as
Ġtal ents
Ġcomp iler
ĠM ong
aj u
Ġmarg ins
n om
ill es
Ġoff enses
Ġback grounds
ĠSc reen
Ġunc le
ÃŁ e
t al
Ġrevers ed
K S
Ġal igned
m ist
Ġ ÑĢÐ¾Ñģ
Ġrandom ly
ĠH em
ĠAnt ar
Ġc attle
Ġreg istr
ãĤĵ ãģł
Ġro oted
Ġcoord ination
Ġsimpl er
Ġcert ified
æĻĤ éĸĵ
Ġrecord ings
Ñı Ð²
ĠY ale
ri kes
Ġs per
ĠC AN
Ġperson a
ĠGr ace
p al
Ġab rupt
ĠB eth
Ġj ag
x ico
Ġtradem ark
Ġeas iest
ue go
ĠC ele
at isf
Ġsub urbs
Ġconcentr ated
Ġd ossier
pro cess
Ġfavor ites
Ġà¤ ®
Ġgradu ated
ĠAl ways
Ġhor izont
Ġconclud es
b ane
ĠE asy
ĠTer ms
ĠJ et
Ġresc ued
à¤ ®
How ever
ĠSimp son
r aged
Ġref uses
az u
Ġob esity
Ġcomp act
Ġcolumn s
Cal if
ĠIndian apolis
Ġsol icit
Ġdef enses
Ã¡ m
igr ant
Ġd od
Ġr ag
u Ã©s
Ġh ated
ĠS oph
ë Ĭ
Ġpr z
A cc
ĠB P
ĠÏĦ ÏīÎ½
pe z
B R
Ġcalcul ations
ol ve
Ġimpl icit
Ġg reed
un to
Ġtou ches
os ity
Ġann i
ĠShort ly
Ġmole cules
ĠK end
Ġam en
sc ript
uff ed
Ġrob bery
Ġdiplom ats
Ġfru its
Ġalleg ation
Ġslow ing
Ġmilit ar
Ġver ified
hol m
Ġlic ence
Ġdis hes
Ġcr ashes
ãĤĵ ãģ§ãģĻ
B rien
Ġval or
Ġp ard
ĠRo ose
W ill
ik an
Ġrecruit ment
Ġten ants
Ġflow ing
Ġexp ans
Ġcle aring
ĠArch itect
Ġpract icing
ĠPolit ico
T T
Ġmulti player
ĠThous ands
Ã¼ hr
ÑĦ Ð¾ÑĢ
Ġj ou
ĠOrigin ally
ĠS ask
Ġsubst ances
Ġecho ed
Ġam ateur
Ġport al
Ġencoun ters
ot to
ĠInst all
ad h
ĠCent ers
Ġbully ing
èº «
ul d
Ġactiv ated
Ġsur plus
!! !!
F eed
ĠWinn ipeg
ĠSa fe
ien en
âĢ ¢
Ġshout ing
Ġl id
Ġdisast rous
ĠTe lev
ĠT ap
Ġdeport ation
Ġr ats
á» Ľ
Ġpl acement
Ġcons cience
ator ial
Ġrad i
ill ery
Ġminim ize
Ġrecover ing
ĠZucker berg
G er
Ġinterpret ed
ĠH off
Ġimag ery
Ġaffili ated
ĠY u
Ã¢ t
Ġinput s
Ġing en
ĠA CC
Ø¯ Ùħ
Ġactiv ism
ĠÐº Ð°
Ġcoord inated
Ġla v
ĠImp act
Q aeda
uten ant
Ġp uck
Ġc abin
Ġcontin ually
Ġsl ice
Ġhab ÃŃa
Ġsh ook
on ut
y ll
Ġshout ed
Ġcar n
ĠSimp ly
Ġinject ion
Ñĭ Ðµ
ĠG az
ĠD rop
Ġexpl oded
Ġple asant
ĠÃİ n
Ġ ï
Ġstorm s
ĠK hal
ĠAgric ulture
ĠMediter ranean
ri ages
r ams
æ± º
l isted
Ġla zy
m u
s im
ft y
ÃŃ vel
ag ain
âĢĿ ).
an ed
ĠSun ni
Ġda wn
é ĺ
Ġt ennis
ĠAv ailable
reb be
Ġamb ition
Ġit al
ĠL ag
ĠDem ocracy
Ġtask ed
Ð ĳ
ĠMin i
orn o
el ines
Ġst ap
ÃŃ cul
éĢ ²
ĠC urt
Ġtransport ed
ĠComm ander
Ġsp am
ĠBas ically
ĠBr ain
Ġen qu
Ġass ure
F I
Ġapp ar
ĠÐ¿Ð¾ ÑģÐ»
M obile
Ġappreci ation
m atic
ĠSpot ify
ĠØ ¥
Ñĩ Ð½Ð¾
ol t
Ġover view
D r
1 30
lud es
Ġshe ep
Ġcompet itor
Ġsh oe
ĠD S
ĠUn ity
Ġbas eline
Ġpark ed
×Ļ× Ŀ
ĠSe oul
Ġfix ing
Ġbet ting
Ġdup lic
ĠG ang
ãģĹ ãĤĩãģĨ
ĠNo ah
Ġirre levant
Ġt Ã©
Ġextrem ists
ĠPod cast
Ġo ath
ic er
Ġd ich
ĠPar ks
ĠArab ic
ĠHud son
ĠT W
Ġra ids
Ġass im
ib a
ĠI gn
ĠPot ter
Ġanx ious
t ry
le ased
Ġru in
Ġle i
ress es
hen d
Ġn aming
Ø§Ø ¨
' :
z os
Ġih re
m ill
ĠR ules
Ġj ul
Ġto pped
g em
ĠMon ster
ĠW A
Ġdepos its
ĠIns pect
ĠWe re
åĳ ³
ĠG N
Ġwhistleb lower
ĠS V
ĠTw enty
Ġseg ments
Ġpolic ing
ĠVal ue
Ġinter pre
Ġinspir ing
Ġgot ta
Ġsurvey ed
å¼ ı
ach i
Ġan om
ĠCl a
dri ving
ter ing
Ġsk etch
ĠDaniel s
ys on
Ġm uk
Ġl ament
er ie
Ġwas ted
Ġportray ed
Ġmed itation
Ġoverha ul
Ġh ref
Ġcertain ty
ĠGer mans
ĠMe g
head s
ĠInterest ingly
ĠFin als
M any
Ġim minent
Ġapp la
Ġnum er
Ã¼ t
Ġpull s
ĠÐ¿ Ð¾Ðº
an ic
Ġprogress ion
D ay
ĠF o
] :
Ġevol ving
um my
ĠCom ic
Ġab usive
ĠWu han
Ġque ue
Ġrec urs
ĠPro bably
Ġprotect s
ĠE TH
ul ously
Ġsymb olic
ĠÎ ł
Ġprom in
reg ard
ĠÎ± Î½
Ġle urs
ens on
Ġhe ating
Ġadjust ments
ĠSt ories
Ġunp redict
act ory
ed ge
ĠÐ¸ Ð¼
Ġdem ocrat
ĠSqu ad
ash a
ĠUlt imate
åĭ Ļ
ĠCrit ics
ens ed
Ġquarant ine
gom ery
iment al
e urs
ĠLabor atory
Ġj ourn
Ġn acional
ĠMon itor
Ġcom unic
Ġair ports
ĠJun ior
ĠCur ry
um i
ĠMet ropolitan
Ġpr one
ĠN ak
å® ¹
s ervice
iz ards
g ow
B ron
ĠK ot
Ġven ues
Ġphilosoph ical
r ained
Ġtrop ical
ĠS lo
Ġwe aker
ĠK id
il ateral
ÃŃ d
Ġde le
Ġtrab aj
at em
200 8
Ġv ÃŃ
Ġm Ã¡
ĠV ision
alth ough
Ġpost ers
Ġbre ed
3 50
is ia
A h
imens ional
Î¿ Î½
Ġeduc ate
ĠSpr ings
ĠB ark
ĠÏĦ Î±
Ġe k
def ined
ĠY am
ph is
ĠUC LA
s ight
ĠU AE
âĢĿ ?
atur a
b ag
ĠnÃº mer
ĠFern ando
ĠV ia
Ġst int
anÃ§ ais
ĠMin ist
epend ent
Ġcas ino
ĠProgress ive
ber ger
Ġboy cott
Ġmet ro
Ġsag t
ĠPartic ip
Ġfiref ighters
ĠMal colm
acer b
Ġdem ocr
Ġpredict able
Ġdep uties
Ġadminist rator
G ood
Ġbreat he
en v
Ġcal ories
Ġpr is
ĠPe rez
Ġmo ist
ut i
Ġavo ir
åº Ĺ
mid t
ĠNorm an
iz i
atern al
Ġt ide
Ġe rect
h aw
æĮ ģ
Ġnut rition
Ġcont ender
Ġpr iced
S ource
Ġm apping
Ġoptim al
ÑģÑĤ Ð°Ð½
Ġobst ruction
Ð¸ Ñı
au ge
Ġrecogn ise
uter te
Ġfav ored
Ġen velop
å§ ĭ
Ġmo ins
ĠW itness
ĠT ow
ĠW ag
ÈĽ ii
Ã³ g
ê ³
ac ion
ĠE ye
Ġ ..
Ġadj acent
u ate
Ġbe z
ip se
Americ ans
ĠP RE
Ġclim bed
Ġr und
ĠConf eder
Ġ12 8
bro ok
ch ts
Ġpopul ist
ĠU T
ĠAnd rea
Ġposition ed
Ġimp osing
Ġind ie
Ġpro xim
ur ious
n ah
Ġcig arettes
ĠS weet
ĠW als
ĠG ins
Ġalleg es
Ġmark ing
Ġut ilities
z Äħ
Ġst agger
Ġe ld
ĠSub ject
sh ould
ĠM ons
Ġinc ap
Ġn iche
Ã¤ ch
ĠM es
pect ives
Ġfut ures
re on
Ġl aps
ÙĪ ÙĦ
s u
p ose
ĠPol ize
c am
ĠU g
Ġr ipped
Ġtw elve
Ġk ans
Ġwrong doing
Ð¸ Ðµ
ur ry
ĠDra ke
ç¬ ¬
Ġbe ats
l ength
ET A
Ġa fore
Ġmasc ul
Äĥ m
iz aÃ§Ã£o
Ġpublic ity
ĠS uz
Ġelect orate
Ġtreat s
Ġ197 4
b oth
Ġver bal
Ġporn ography
Ġsm iling
fe ren
' )
Î¼ ÎŃ
Ġnational s
ĠR unning
Ġ197 7
Ġb arn
atern ity
G e
Ġfound ers
ch os
Ġment ality
æ° ´
Ġautonom y
ï½ ŀ
im ination
Ġlog ging
Ð¼ ÐµÑĢ
Ġimportant e
ĠSteven s
op ath
éĩ İ
æĮ ĩ
t ar
ĠÐ½Ð° Ð¿
Ġcatast rophic
m iss
ãĥĹ ãĥ¬
ÅĤ y
ĠSc ore
t at
ĠÃ§ a
ĠS r
ĠZ immer
Ġweig hed
ĠT umblr
Ġbe ast
ĠC ou
Ġr ans
________________ ________________
Ġc ensus
ĠGr ound
Ġpart ido
ĠAnd ers
Ġwat ches
éĢ ģ
Ġout dated
Ġpick up
Ð ľ
arm ing
ĠGM T
Ġaer ial
Ġdr agon
C ap
b ach
own er
ĠWrit ing
l ation
Ġsk i
ĠCle arly
Ġexplo ited
Ġtravell ed
Ġdirect ing
Ġans wering
Ġempres as
al one
Ġanth rop
Ġvulner abilities
ĠÙ Ĥ
Ġdig est
r ill
ĠB att
ale z
Donald Trump
ĠÑģÑĤ ÑĢÐ°
Ġawait ing
Ð¾Ñģ ÑĮ
Ġw oke
ĠSing le
Ã¤n der
Ġaccess ed
op ol
Ġmart ial
ĠK urt
ĠH ob
Ġqu eries
Ġprop osition
Ġgradu ates
Ġsynt ax
p unk
ĠP os
man y
ĠSU V
un que
ĠW alt
æ§ ĺ
Ġmin ors
çĬ ¶
Ġtravel s
Ġmet er
Ġst iff
ĠPro zent
Ġacadem ics
Ġdisput ed
Ġcontribut ors
Ġnav al
Ġencrypt ed
âĢ¦ ]
run ning
Ġy oga
ĠS outheast
Ġbuy er
Ġfact ions
ĠQu ant
ãģĵãģ¨ ãĤĴ
ĠCourt esy
Ġrecip ients
Ġprison er
ier te
Ġpost season
cl ub
Ġoptim ism
Ġdispos al
Ðµ Ðµ
Ġv ind
ins ki
ĠD w
åĳ Ĭ
A I
ĠPop ular
Ġque en
Ġupload ed
l ied
Ġlog s
ĠRoose velt
Ġre op
f inal
uff le
ĠExper ience
ÑģÑĤ ÑĥÐ¿
uck ed
» ¿
ophob ic
Ġend angered
Ð ĺ
C OM
Ġdes erved
Ġphysic ians
Ġve ctor
Ġimpro per
ĠSim ple
ud en
ĠHy per
Ġ- --
Ġgrup o
Ġmot ive
Ð° Ð¼Ð¸
P oint
ĠK ane
ĠÐŁ Ð¾
Ġassert ion
Ġst aring
Ġrecru ited
Ġmanip ulate
ĠCL ICK
n Ã©
ĠÃ ¢
ad ays
Ġdo i
ĠBa iley
in vest
Ġbl unt
j ed
z ione
ç ®
Ġreb ounds
es k
Ġp ets
ĠDel aware
ĠF alls
Ġcomp ounds
Ġclin ics
ĠV ert
Ġbe ans
Ġenv ision
Ã¸ l
Ġcry stal
Ð» ÐµÐº
åħ ĥ
Ġg Ã©n
ãģĵ ãĤį
c ry
ĠR ating
it ored
ĠS eth
Th ose
Ġinf inite
ĠG am
Ġdown s
P r
Ġhighlight ing
Ġdig ging
ãģª ãģĭãģ£ãģŁ
Ġdef er
Ã© ri
Ġdress ing
Ġapr Ã¨s
ĠL ocation
Ġsubscrib ing
ĠA RE
asc us
ren de
Ġ197 1
Ġt ags
Ġacceler ate
ĠProte ct
ĠCase y
ĠPr ison
Ġconstitu ents
Ġch ick
ar ak
ĠM ari
ĠKick starter
ĠFal con
Ġprim a
Ñĭ Ð¹
Ġdil ig
ĠO culus
Ġs od
Ġvo iced
Ġrepro ductive
ast ics
ĠVeter ans
ĠPro blem
Ġcl ips
it ime
com merce
Ã¼ nd
Ġt ender
ĠShe ll
Ġsl ogan
Ġc res
Ġpat ches
ig ating
Ġlucr ative
Ġa usterity
in h
conf ig
prising ly
Ġcommod ity
Ġth rive
Ġdelight ed
ic os
ĠDe rek
Ġcent ered
let te
Ġamend ments
Ġoverwhel med
Ġadv ancing
ĠMar in
Ġblank et
s w
ogen ic
Ġamb ig
Ġlack ed
Ġreli ability
çľ Ł
Ïĥ Îµ
C ar
ĠX L
Ġg arant
j em
Ġcollect ively
Ġman ga
ãģª ãĤī
Ġinvestig ator
Ġto e
ĠMas ters
Ġfortun ate
Ġd war
sec ret
real DonaldTrump
el se
om on
ĠBr is
Ġp ob
ĠH undreds
ĠEurope ans
Ġl od
ĠG rowth
w en
æķ Ļ
ator ies
Ġex acerb
Ġfil ters
Ġw ield
sc hen
Ġbras ile
en es
uc iÃ³n
em Ã¡s
ĠGib son
at os
ht e
Ġtem ps
Ġf t
Ġnational ism
Ġcommer ce
Ġpart ir
ĠEll iott
ĠNich olas
ĠSt rike
Ġdies er
Ġsl ipped
ĠAb raham
Ġretail er
Ġcommission ed
ns ic
ĠAp ollo
Ġstab bed
ĠL az
Ð´ ÐµÐ»
Ġc ough
æ¬ ¡
Ġstake holders
Ġpurs ued
Ġprec ip
omet ric
t te
Ġb ored
Ġpo ised
ĠD ylan
Ġport able
Ġnot ifications
ĠAh mad
Ġbon uses
ĠVP N
lig a
ĠJul ia
ĠJo ined
Ġwild ly
Ġa in
Ġemb argo
Ġop ener
Ġorg ans
id ity
Ġsh ine
Ġwatch dog
Ġastron om
Ġtrans c
Ġgen ocide
Ġincorpor ate
Ġstat ute
ç Ĺ
Ġsp here
Ġble eding
ĠE c
ĠP oke
ĠÎ »
Ġbr idges
at te
Ġg ly
av our
U K
Ġto wers
ĠBlu etooth
ĠN ok
Ġp estic
AC A
ä» ĸ
ĠJ O
% ).
ĠL aden
æŁ »
Ġcirc ulation
Ġg ren
p ict
ĠB rief
res se
AT H
ĠJ UST
int endent
S omet
Ġn aj
Ùħ ÙĬ
ĠIs is
ĠAs ide
Ġsim ulation
ĠSch ne
Ġuncons cious
ĠM our
ĠL anguage
ĠT ories
Ġacadem y
Ġunde rest
ĠÐ± Ð¾Ð»ÑĮ
ĠSt alin
orig inal
ĠBren nan
l on
at ivo
Ġlog in
ĠGr ass
Ġcon gest
ĠL ogan
#### ####
Ġmet eor
Ãª tre
Ġexpl ic
ĠM AN
Ġbl at
Ġest ud
sh aring
Ġj unk
Ġp und
Ġat op
Ġslow ed
Y S
re cy
ex pl
Ġlegitim acy
Ġb od
ĠD uterte
Ġsubpo ena
è¨ Ī
b ia
h ouses
Ġgener ates
b org
Ġde ar
AG E
ĠLe x
ment ation
ĠMult iple
Ġe cl
ĠMont gomery
b ucks
ill on
ĠL av
Ġun believ
Ġje opard
Semit ism
Ġ×ľ ×
ĠG or
ean or
a ired
ãģ¨ ãĤĤ
Ġlight ly
r ong
ĠBay ern
ĠM ak
ëĬ Ķ
Ġproblem a
somet hing
S ports
Ġkilomet res
Ġesse re
ĠCh ampion
ad ata
Ġag grav
ĠCons ult
Ġobsc ure
Ġdiplom at
Ġappe aled
d d
Ġj ak
ine a
Ġv ou
ĠM ills
inn en
ari at
Ġp p
ĠInvest ment
ĠD ust
Ġfound ations
s ens
ĠR apt
ĠAustral ians
Ġc ater
Ġrecogn ised
Ġnost alg
Ġin herently
Ġic ons
Ġh vor
Ġconsum ing
ãģķ ãģĽ
å¼ ķ
Ġrock ets
Tr ans
Ġf ic
Ġsh adows
Ġunh appy
Ġpl um
Ġas leep
ĠBul g
B er
Ġstr angers
ĠB uch
c lick
Ġe gy
Ġmathem atical
ĠM ull
ĠA udi
el ong
op olit
ac s
Ġest Ã¡n
ĠV illa
Ġbicy cle
d est
l Ä±
Ġpast or
Ġsurf aces
ĠÐ±Ñĭ Ð»Ð¾
lick r
op y
ãģĹ ãģ¾ãģĻ
ut ton
oc y
ag h
Ġg rief
ĠW end
ĠPR O
uel le
te chn
aw i
s ay
ĠSant os
ĠV as
C are
ĠDam ascus
Ġlight weight
Ġcurric ulum
af i
ĠLa unch
an mar
Ġindivid ually
Ġmedic ations
Ġaver aging
Ġfict ional
Ð° Ñħ
Ġby tes
ĠEll is
Ġbas ics
Ġspe ar
Ġapolog ized
l it
æł ¼
Ġinterven e
bu ild
ĠRe b
Ġmil estone
Ġw en
ĠNor weg
rape ut
Ġenjoy s
und e
ĠCom cast
Ġcaut ious
ĠU E
Ġinspect or
Ġshel ves
et on
ĠN uclear
Ġrail way
Ġexp osing
Ġstat o
ĠSu ccess
Ġap enas
Ġsurv iving
Ġl inem
ï¼ ķ
Ġtime ly
Ġloc ate
ĠMem phis
Ġbo asts
ĠEv an
ĠSpecific ally
ich ael
Ġc oding
Ġb ounce
Ġdesc end
op ular
Ġw ished
s rc
ĠR az
Ġsens ible
Ġo un
sh aped
Ġsystem atic
is le
ĠJul ie
Ġrest oration
Ġgu ides
Ġco ff
ĠRal ph
Ġn ail
Ġir ony
ĠRom a
ĠC er
Ġgr am
Ġ10 5
ĠB rent
Ġf Ã¸r
atch ing
Ġreward ed
Ġsc attered
ãģķãĤĮ ãģ¦ãģĦãĤĭ
anth rop
Ġeuro p
Ø§Ø ¦
Ġl ors
ĠVol ks
com pass
P ac
Ø± ÙĬ
Ġtra it
Ġn ella
ĠG em
on en
Ġes pecial
Ġmor ality
Â Ģ
and als
ist i
Ġfrag ile
èĩª åĪĨ
Ġe g
ĠMy anmar
ĠR ab
U RE
Ø±Ùĥ Ø©
Ġch asing
ay an
Ġsmall est
th s
å Ĵ
Ġpus hes
ĠR ugby
Ġsla ughter
ĠÏĥ Îµ
Ġn at
ĠT ier
ĠTe legraph
ĠTit ans
Ġnegoti ated
ourge ois
Ġsc ales
ĠF low
ĠE cho
Ġrece ipt
Ġh ace
uff y
ĠT as
Ġadv ise
Ġlect ure
Ġv oy
ĠR ew
Ġext inction
ĠC inem
ell t
ĠK un
Ġmix ing
ibl ical
Ġgouvern ement
On ce
ĠHend erson
rit o
Ġupgr aded
H I
Ġagree ing
ĠJ azeera
or ie
Ġhuge ly
ĠT iger
Ġqu art
ĠÐ·Ð° Ð¿
çļĦ ãģ«
ĠTib et
ĠAven gers
ott es
F ree
m ount
Ġv icious
Ġpen is
Ġper t
ĠDod gers
rop he
Ġrelax ed
åĪ ¤
ĠIns urance
Ġemb ark
Ġo we
Ġdatab ases
ĠT M
Ġaff id
Ġenfor ced
Ġimm un
ĠAlexand ria
ĠPl ant
Î» Îµ
ĠEconom ics
Ġo ven
ĠP ie
Ġscholars hip
Ġhom icide
Ġauthentic ation
Ġremain der
on est
Ġvend or
Ġtip o
Ġp add
ex isting
ins i
ig el
Ġpres erved
ĠACL U
R ec
Ġpit ches
Ġpar ole
Ġgl ac
Ġbrow s
Ġe go
ÄĻ d
Î» Î·
Ġm g
Ġacc ent
ĠPer o
Ġsatisf ying
Ġc z
ĠP u
Ġsus cept
ĠEx cept
,âĢĻ âĢĿ
00 1
ĠD ad
lev ard
ĠSH A
it ous
ĠS ame
est on
åĪ ¥
ï ¸ı
S ub
Ġsl im
ĠI stanbul
ĠLuck ily
qu et
ĠRichard son
×ķ× ª
ĠB og
å ŀ
Ġsm iled
Ġinsist ing
om ore
Ñĩ ÐµÐ½
ĠCub s
Ġwork out
Ġw itch
ĠE cu
ĠS ak
âĢĿ ),
Ġwel coming
ĠH ook
Ġperform s
Ġfl ies
ĠÐ¸ Ð»Ð¸
Ġdecis ive
Ġsequ ences
Ġh Ã¤n
ĠB ills
Ġtro phy
Ġadvent ures
** *
ĠR ange
ĠKn ights
ĠJen kins
Ġr anges
ĠTh ought
Ġmeasure ment
Ġmerchand ise
Ġc age
ster dam
Ġinter ventions
ĠO UT
Ġp unk
Ġà¤ ª
Ġrelig ions
ect ed
Ġprocess ors
Ġflood ed
Ġafore mentioned
Ġ Ã¤
Ġd av
ĠÐ² ÑĢÐµÐ¼
ew ay
èª ¬
ĠC G
Ġfin est
pa Ã±
ic z
Ġdes cent
Ġb ent
Ð¼ ÐµÐ½
ĠR BI
be h
ĠCo ver
ĠM end
Ã¼ l
ĠIndepend ence
Ġver ification
Ġgorge ous
Ļ Ĥ
ĠLeg ends
ĠGT X
Ġquick er
ĠI van
Ġcandid acy
Ġcont rac
az Äĥ
Î½ Î·
en os
ĠChrist ine
Ġto gg
ãģĹ ãģ¦ãģĦãģŁ
Ġprem ature
Ġot ros
ĠÐ¿ Ð¾Ð²
Ġmon itored
the ning
tit le
ĠN ice
ĠMatthew s
c ue
Ġcompar isons
Ġhon ored
ĠTex ans
ãĥª ãĤ¢
ec d
éħ į
Ġwood s
åıĹ ãģĳ
Ġunemploy ed
ĠP ew
Ġbil ateral
ok rat
ĠSalv ador
Ñĩ Ð¸ÑĤ
ĠF resh
Ġdo is
ĠCommon wealth
Ġg ates
Ġdis gu
ĠA be
os ion
é ¨
ĠF ear
ĠSy m
Ġhalf way
Ġhe mp
P O
ing o
Ġprofess ors
a ient
ĠUlt ra
Ġpun ct
em et
Ġpit ched
Ġde ve
Ġair lines
ĠÎ ¤
ĠC lear
Ġgl oves
Ad d
Ġall ocated
ur ally
ĠB apt
Ġb ang
ig ion
Ġno on
Ġo w
ĠId aho
Ġest ar
M AN
ĠpaÃŃs es
Ġvir uses
ix els
ãĤģ ãĤĭ
éĻ Ĳ
ile m
Ġlad ies
Ġp ork
Ġcl ue
Ġpar as
Ġl lev
Ġt ours
Ġmil hÃµes
ĠFil ip
ĠOpp osition
ig i
ir ation
Ġprim aries
ĠP it
ĠCrime a
ĠMos ul
Ġob taining
ason able
ie ves
Ġcomb o
ement e
met ic
Ġrow s
ĠAl z
ĠExper ts
m ajor
Ġplant ed
ĠPH P
Ġprogram mes
ign e
Ġpri ests
ost ic
Ġgob ierno
M s
ĠL anc
Ġdon c
Ġw Ã¼r
ĠLind a
Ġstrateg ist
ĠH TC
Ġform ats
Ġgun man
Ġmetap hor
Ġfaith ful
ãģ© ãģĨ
ĠMed ium
uss ions
c iÃ³n
èµ ·
ãĤ ®
UL L
******** ********
ĠBeh ind
Ġn Ã©
be cca
Ġhur ting
Ġs way
ĠC atherine
Ġun named
Ã¡ g
at ia
Ġabund ance
Ġyield s
ĠON E
P aul
j as
P ol
em y
og yn
ĠD ana
ĠB ir
Ġdet r
ĠI Q
Ġhur ricane
Ġmon itors
uss en
Ġma ar
Ġal i
Ġr abb
ÑĢ Ð¾Ð´
ÑĨÐ¸ Ð¾Ð½
Ġes o
ĠÑĢÐ° Ð±Ð¾ÑĤ
Ġvibr ant
q a
Ġtat too
Ġmusic ian
ĠMÃ© xico
Ġambul ance
ÙĪ Ø¯
in it
Ġadjust ment
ff e
Ġfore most
Ġaccommod ation
Ġout reach
ograph ical
Ġpersu ade
Ġparticip ant
Ġm uss
ĠQual ity
L ife
ĠFred er
w age
Ġre per
Ġmis er
Ġtrans mit
Ġgang s
re ci
ek ing
ri ver
ĠG ore
Ġfather s
äº ¬
Ġbrew ery
do ors
Americ a
Ġand ere
G l
ä½ į
ep rint
Ñĥ Ð´Ð°
l iv
us cript
Ġcar pet
Ġret ained
Ġill usion
il ers
Ġju ven
Ð½ ÑĥÑİ
Ġwal lets
Ġsp ont
ĠSc ript
in to
Ðµ ÑĢÐ¸
V C
Ġemp athy
ons ider
ĠR oc
ĠSw an
ĠContin ue
Ġbox ing
rig er
b ps
ĠFl a
s al
Ġware house
ĠN OW
ĠGu er
Ġfl uct
Ġbro ker
r Ã¡
Ġciv ic
Ġhor r
Ġind ul
ĠR uth
play ed
ke eping
ãģ¨ ãģ¯
B ig
ĠT ut
Ġtrav ail
j el
ĠD iet
Ġunlaw ful
ĠRep orter
Ġcook ed
Ġschol ar
Ġflav ors
Ġcompl ications
Ġco pper
unic ation
ĠN ike
ãĢĤ ãĢĮ
ĠPh ase
Ġ ÏĨ
Ã¢ m
Ġsyn thetic
Ġview er
Ġlow ered
Ġannounce ments
w ent
G R
un ts
Ġlot tery
Ġpract ition
Ġov at
Ġoff ences
ĠBrother hood
sh it
ĠW ir
Ġw aren
Ġ[ âĢ¦]
Ġmin es
Ġâ ĪĴ
Ġflow er
ot ers
Ġ: )
ĠArm strong
y en
Ġhand ing
Ġpros pective
Ġmunic ip
ides how
av it
ĠB rist
Ġcert ification
Ġtraject ory
ĠTelev ision
ĠE ug
OC K
Ð°Ð½ Ð´
tt a
Ġsh ark
iat ric
Ġmention ing
ĠI F
Ġpl ausible
ĠA LS
O ff
Ġmes es
Ġins ufficient
Ġemer gence
prote ct
ĠCap t
ĠE rik
Ġfaz er
Ġext ensions
ĠB elf
an Ã§a
re view
ott i
z ia
Ġblow ing
Ġup ward
if le
Ġkind a
Ġdis l
ĠM ead
Ġinaug uration
H O
Ġf Ã¥r
Ġgovern ors
ĠC I
ĠQu arter
Ġdis abilities
Ġav iation
ĠCh i
Ġf og
at ured
author ized
Ġincon ven
Ġk g
Ġquarterback s
ĠV on
Ġcr ises
ĠCol ts
ĠKle in
Ġsurf aced
Ġshel f
ĠKur ds
ĠVenezuel an
B B
Ġbe es
Ġcamp uses
Ġincons istent
E X
Ġb ubb
] )
at ri
ĠP ub
Ġbl ade
ï¼ Ķ
ĠThanks giving
Ġca us
Ġhier archy
Ġinjust ice
ĠEl ite
ĠLiber t
Ġincorpor ated
Ġhum ble
Ġc ared
ĠPro duction
Ġer st
Ġhol der
ä» ¶
Ġres ent
ĠMan ufact
Ġdr astically
Ġsepar at
le ague
.' "
Ġse ize
ãĥ³ ãĤ¹
Ġrhyth m
Ġdest inations
Ġbe m
Russ ian
ĠY esterday
Ġpass words
k it
ot ics
Ġc ouch
j Ã¤
M art
ĠLe o
ĠÎ ļ
ĠWals h
r Ã¥
ĠA uch
Ġan kle
xt on
Ġjer sey
Ġrif les
ĠSocial ist
ĠH ours
Ġprol ifer
Ġt ense
Ġhapp ily
ĠEm irates
Ġn ada
Ïģ Îµ
Ġmit igate
Ġbl u
ĠHe ights
Ġw it
ĠW rest
Ġadd itions
Ġthr ust
ĠSask at
ĠLe ad
asc ular
ĠH od
Ġhasht ag
Ġrespect s
n um
Ġsw orn
Ġmult ip
duc er
ĠApp lication
Ġrespir atory
av o
ĠFor bes
ĠÑĢÐ¾Ñģ ÑģÐ¸
in ion
Ġ× ĳ×
L ike
ĠStr ange
Ġcand y
Q U
ĠB end
ĠLau ren
Ġtra ils
ĠCar roll
ãĥ¼ ãĤ¯
Ġintu itive
ĠGob ierno
Ġint oler
ç© ¶
iction ary
f illed
ĠK ra
Ġal ors
Ġar rog
å¸ ¸
Ġsen iors
Ġout line
Ġelement ary
step s
Ġp oured
Ġoverlook ed
Ġancest ors
is y
Ġacc laim
Ð½Ð¾ ÑģÑĤÑĮ
amm ad
ĠIntro duction
k Ã¤
Ġc otton
utter stock
Ġpass er
ĠJ agu
ie urs
Ġfert il
Ġd ude
Î¼ Î¿
ĠOr acle
M O
Ġwe iter
Ġneighb ours
ĠÐłÐ¾ÑģÑģÐ¸ Ð¸
For ce
á» ĭ
æµ ·
c ig
ĠFe el
ĠB ent
Ġtal es
Ġan ge
ess age
ĠLike wise
ĠsÃ¤ ger
B ar
ult z
åĪ ĩ
ĠStu art
Ġpersonal ities
Ñĸ Ð¹
éĥ ½
ert a
Ġrein force
um per
Ġport ions
Ġa ven
b illion
éģ İ
ĠMir ror
ĠNex us
Ñĥ Ð²
p ark
Ġf reed
Ġt ires
Ġun related
Ġnew com
ĠTill erson
A g
P lease
d at
Ã©t Ã©
Ġactiv ate
Ġalleg ing
Ġl oot
Ġalarm ing
Ġprob ation
Ġst agn
Ġb un
ĠBelg ian
Ġl ugar
ĠPOL IT
ĠO val
Ġsib lings
Ġcoun cill
Ġam ended
Ġest Ã£o
Ġliter al
Ġcrus hed
p ers
ie le
um en
Ú ¯
Ġsl ots
Ġb anc
Ġterrit orial
ĠFor ward
ĠHero es
ĠRom ania
å± ±
Ġac est
ĠAn onymous
ĠWe ight
L L
Ġs out
Ġapp le
ĠE A
q l
Ġs or
ul o
ĠEmb assy
spr ing
ÐµÐ½Ð¸ Ð¸
al an
ĠRom Ã¢n
Ġflo ors
Ġcomb ining
Ġplay back
um ed
ĠRa vens
st Ã¤
Ġprem ises
Ġenter prises
Ġsoc io
ent ry
Ġunp opular
Ġtheat re
Ġfemin ism
OU T
Ġst aged
ĠOr b
ĠSc hed
Ġtravel ers
ĠEver ton
Ġque er
ĠCirc le
m ag
c ell
ĠS ah
ĠCon way
Ġwhe at
G H
Ġj aw
J S
à¥ ģ
ĠJ ur
Ġgr ades
ĠK re
ustain able
on so
w ire
Ġpro ces
Ġcontest ed
Ġty r
Ġbi ased
ĠB in
Ġant is
Ġs acks
uch t
Ġassist ed
Ġimprison ment
eng ine
ĠInd ividual
ĠResp ons
çĶ £
ny der
Ġlad der
h ner
ON D
Ġp iss
S en
Ġretali ation
ĠS z
Ġvis as
Ġse ine
S ince
IS S
ur able
ĠN iss
Ġassert ed
Ġnot or
Ġcoinc idence
y tt
Ġb rib
ĠGrand e
Ġsufficient ly
Ġsc aling
Ġfact ion
èĢĥ ãģĪ
te x
ÑģÐºÐ¸ Ðµ
Ġdisapp ro
OW N
Ġsc iences
ĠÏĢ Î±
P art
Ġclear ance
sh adow
Æ°á» Ŀ
ind o
ĠBarn es
uch ar
Ġreiter ated
ĠSom alia
Ġsel bst
d in
Ġerup ted
und en
l ang
i aries
ĠReyn olds
á» ¯
Ġrecip ient
Ġbe e
Ġsimilar ities
\ "
Gener al
Ġcompl iment
Ġpur ported
] ;
m ble
hed ral
Ġobs essed
ĠAm sterdam
Ġh arn
Ġvel ocity
T B
bu ilt
Ġad ul
Ġtri v
ĠUs ually
ĠSad ly
Ġenthusi astic
ĠW ii
Ġne arest
Ġcat aly
ãĥ ¦
ched el
W ind
ĠA vi
Ġpositive ly
Ġlaun dering
Ġreal ities
Ġvari ants
ĠSteel ers
it zer
ĠCamer a
éģ ķ
heart ed
ĠMult i
Ġplaint iffs
Ġl end
Ġcontrad ict
ĠâĨ Ĵ
Ġ} ,
Ġf ung
ĠW id
ĠC ory
Ġbr on
Ġsl og
Ġl amb
Ġton nes
ĠDam age
ĠLe Bron
Ġexplan ations
Ġdri ed
ĠM aps
Ġn ad
Ġs rc
emet ery
ĠF ine
Ġc ables
Ġpoet ry
Ġl ion
Ġc ores
ĠE ST
Ġdi as
Ġnar rat
Ġp ills
iv at
Ġpr ag
ãĤĴæ Į
S et
Ġshel ters
Ġs ow
ĠRest aur
Ġdemonstr ating
g one
Ġupd ating
ĠNok ia
ĠP O
Ġ196 4
Ġincl ined
fam ily
os aur
ĠTrans it
Ġfe ather
åı į
ĠRed s
Ġrecy cling
Ġen rich
Ġfact o
Ġsanct uary
Ġ10 80
Ð° ÐµÑĤ
Ġrequest ing
Ġinform al
AR Y
Ġ ãĥ»
Ġm onde
US E
Ġreal izing
V er
ÙĦ ÙĬ
ĠProf essional
Ġat omic
Ġco h
Ġhomosexual ity
Ġmotorcy cle
Ġfif ty
Ġ17 0
inte gr
Ġwe ars
Ġon der
ĠB urg
Ġex terior
Ġeuro pe
Ġliber ties
Ġproxim ity
Ġg it
Ġpropri etary
ĠCont ract
ĠKenn y
ĠAppe als
od i
AN G
Ġnomine es
Ġ__ _
amer a
ĠTh orn
ĠGonz alez
Ġconf isc
Ã© ral
Ġbarg aining
Ġcomp ile
Ġspr int
ĠP ain
ĠNorweg ian
Ġbehavior al
ĠTechn ologies
ãģ ¶
ro e
ĠMem ory
st rom
H R
Ġpredomin antly
Ġse it
ĠSur face
Ġdistinct ive
n as
Ġcomed ian
ĠNic olas
j Ãł
ol ics
Ġrespond s
qu ier
go ogle
Ġs ore
Ġorche str
het ical
Ġhur ts
and y
ain en
im ag
ĠHern andez
Ġb og
ĠJ ahren
Ġo ceans
ĠÐ¾ Ð½Ð¸
ĠC ensus
ĠH app
ĠTrib unal
ãĤīãĤĮ ãĤĭ
ĠS gt
Ġinst itute
ÃĥÃĤÃĥÃĤÃĥÃĤÃĥÃĤ ÃĥÃĤÃĥÃĤÃĥÃĤÃĥÃĤ
ĠMoh amed
Ġbl aming
ĠN iel
ĠÐ± ÐµÐ·
Ġlog ged
Ġunderstand able
f ocused
Ġan them
Ġproc ure
Ġimpro ves
aut h
s ix
ĠT ourn
ĠD il
ĠW ings
Ġselect ing
Ġweakness es
ĠT IME
ĠT oken
ĠI MA
Ġball istic
ĠEcu ador
ĠFa ith
Ġsystem ic
ĠÑģ Ð¾Ð²
ĠGlas gow
qu el
ĠTy p
Ġs ous
Ġp ÅĻ
Ġreflect ing
im edia
Ġcraft ed
r ade
Ġjew el
W est
g rown
Ġtod as
Ġp act
ge re
Ġk rit
M c
Ġg ently
Ġpay roll
ĠThe ory
Ġstagger ing
ĠK in
ĠL iter
Ġconfirm ing
ĠC raw
Ġd ough
ĠTw in
ĠFr ame
åı Ĥ
f el
Ġrepe ating
ar is
Ġre ductions
Ġregul ator
sh ine
r iminal
ĠL iu
ĠRe becca
Ġsur render
Ġgr ams
ĠH ub
Ġlaw maker
ĠC ob
ĠB ug
Ġpl ung
ĠStar bucks
éģ ĭ
Ġvalid ation
Ġb ourgeois
ff ent
Ġ ï¼
Ġbuck et
Ġc hess
qu ito
Ġsk a
ĠQuest ions
Ġmilit ia
Ġmis dem
ost en
in qu
re rs
Ġord inance
ĠGene va
Ġaccess ories
is co
May be
ĠTr ack
Ġhilar ious
ĠInd y
Ġpool s
ĠCore y
Ġadm itting
ore st
ĠRef uge
m t
ak in
r ising
Ġsupp ress
ĠJ up
ĠM ate
ĠS hen
ĠR ac
Ġfair ness
Ġvol atile
other apy
Ġwond ers
Ġfo is
ĠNon etheless
F R
Ġdetect ive
ĠPer fect
Ġ\ (
Ġdys function
Ġpromot es
ĠD ocument
Ġcar b
han i
ĠMig uel
ĠH ond
Ġminist re
ĠAc ross
Ġtight ly
f ood
Ġan i
ĠAdd ing
ĠEd in
ĠInvest igation
Ġfin ed
Ġste ering
Ġactiv ation
ĠNe igh
Ġgen ome
ĠPear l
Ġsl am
Ġpist ol
Ġinstrument al
ion age
sex ual
ĠN an
Ġm ars
Ġconce aled
ĠBuzz Feed
ãĤ¤ ãĥ«
Ġ19 45
Ġrapp er
ern ame
te k
ump s
ĠLab s
Ġexha usted
in j
ĠTri ple
Ġbar red
ĠNav al
c oun
Ġinadequ ate
ĠO L
ĠGins burg
ãĤģ ãģ¦
Ġfor wards
Ġsp ying
Ġeat en
Ġrecomm ends
ĠArn old
ĠG ian
m ake
il ies
Ġweek day
Ġbre eding
polit ical
Ġwh ales
Ġsens ation
Ġcook ie
Ġn am
Ġcontract ed
Ġhom em
Ġbelong ed
ĠÑį Ðº
ort on
ros so
Ġwh olly
ĠF S
ĠPre viously
ĠSebast ian
orn ings
Ġun con
Ġeff ic
Ġintern ally
f em
Ġsustain ability
Î¿ Î»
ĠL ay
he y
H er
ãĤĴ è¦ĭ
ĠGu atem
Ġreck less
ag ar
ĠRand y
Ġcl ues
Ð¾Ð²Ð¾ ÑĢÐ¸
Ġpat ents
ĠInst it
Ġgas oline
æ ģ
d ra
ag ging
cl ock
ĠStat us
ĠLe ices
ãģ£ ãģ¦ãģĦ
Ġorigin ated
ĠW elt
Ġ196 5
ol iberal
ik en
ur se
u ated
ÙĨ Ø¸
A ut
ĠAnk ara
Ġk Ã¶
ĠU FO
Ġg ad
C R
Ġst or
Ġpa ired
Ġfr Ã¥n
Ġillustr ate
Cl ass
ĠPun j
Ġre leg
Ķ ç©¶
Ġr ust
ĠDevelop er
ĠBur ke
Ġsymp athy
ĠMun ich
Ġg ases
og raf
ÑĢ Ð³
Ġg y
Ġemail ed
ĠNorth west
pe ace
Ġspecial ists
Ġacc use
Ġprescrib ed
ball s
ĠMc A
ÏĦ ÏĮ
ĠW rite
Ġevalu ated
Ã¼ ber
ĠPre p
Ġcorrid or
Ġscar ce
as io
Ġaccompany ing
Ġg Ã¥
E ng
Ġrom ance
ä» ķ
Ġconsider ations
Ġurg ency
Ġtack ling
ĠSab ha
Pl us
Ġaston ishing
ĠMor oc
Ġdetail ing
ap i
A ng
Ġred irect
ĠWin ston
Ġinsect s
Ġob jet
Ġexc er
ĠSor os
Ġsell ers
Ġoutrage ous
Ġconced ed
Ġdetain ees
Ġserv ants
12 5
os ph
B u
Ġadop ting
Ġconnect s
Ġper secution
t v
Ġreact ed
Ġdis asters
ĠAct ive
Ġbund le
Ġvast ly
ĠInf o
ĠV I
ĠSum mary
st ud
Ġpr zy
Ġang les
Ġchap ters
ĠAP Is
respons ible
Ġmaxim ize
ĠG ur
ĠSa ud
Ġcongress man
Ġri ots
Ġexcer pt
Ġem pir
ĠC ad
çĻº è¡¨
Ġdep icted
il ight
ĠNewslet ters
Ġm ismo
ri ved
Ġse hr
à¥ Ī
Ġrun ners
Ġred ist
Ġadm ire
ĠEag le
16 0
Ġadvoc ating
v ous
ne ys
ãĥķãĤ ©
ĠRoberts on
d id
Ġdi jo
ĠAz ure
Ġcas os
Ġ} );
Ġfeed s
åŀ ĭ
Ġv ain
Ġcig arette
ĠPHOT O
ĠLind sey
åĴ Į
Ø§Ø ¹
Ġpedest rian
ĠB ot
Ġgener ator
ĠT roy
sa fe
f ind
ĠS nyder
Ġan ten
S QL
à ¹
ĠAb ove
ĠEvery body
Ġf ot
Ñı Ð·
Ġuns afe
Ġvit amin
Ġunw anted
l ov
ĠEp ic
Ġremark ably
in ement
Ġstoryt elling
ĠTH C
ÏĦ Î®
7 50
ÃŃ cia
ic ian
ĠL ite
ĠAlex a
Ġprosecut ed
Ġmy Ã¶s
r ational
åĥ ı
D D
un os
Ġcharacter istic
Ġir regular
Ġme ga
Ġpropos ing
ch anging
Ġbound ary
ĠÃ ģ
ĠL ars
ĠB il
Ġuncom mon
ĠCole man
ĠÑĥ Ð¶Ðµ
Ġback ward
Ġcont ention
in ist
Semit ic
am men
Ã© rie
Ġstand point
ĠSim mons
ĠL ad
Ġsad ly
U B
ãģ® ãģł
ĠÐ¸ Ñħ
ĠIM F
Ġlun ar
Wh ite
ĠS ver
im an
ĠR are
Ġliquid ity
Ġdesc riptions
B it
ĠBudd hist
Å į
[ /
{ "
Ġes a
Ġweig hing
ĠH amb
d ist
Ġha w
ĠZ imb
Ġqu er
Ġprohib ition
ĠInvestig ators
ĠEx ample
ĠN Ã£o
Ġstruct ured
ela ide
Ġphys i
Ġmetab ol
Ġcapt uring
Ġwas hing
ĠCh ang
ĠP le
l anguage
ĠL anka
ate urs
Ġworks hop
k te
AT A
Ġeleph ant
Ġseason al
c zy
Ġl ingu
Ġdeb ts
Ġfart her
ĠKat ie
empt ion
Ġmed ieval
Ġincomp et
k il
Ġadvertis ers
ĠC ities
Ġst ip
Ġal go
Ġanticip ate
Ġsn ake
á» ¥
ĠAlz heimer
K ey
ĠSh ot
cons cious
æ¥ ½
ON G
Ġbe aches
Ġindic ators
ĠprÃ©s ident
Ġprivile ged
Ġs atur
Ãºblic a
Ġcol ours
Ġinfect ious
Ġh obby
ãģ® ä¸Ń
M ac
ĠAm anda
ĠIsa ac
Ġfig uring
ab we
ĠCris is
Ġaccept s
let ics
ph abet
ĠÎ ľ
ador a
ĠDar win
s v
ĠCo ffee
Ġcard i
ĠPoke mon
Ġstret ched
Ġmer ger
Ð± Ð¸
Ġinaug ural
! âĢĻ
Ġst ew
å¤§ ãģį
hel p
Ġgreet ed
Ġjump s
pp le
ĠF E
T er
ĠR ash
ĠR ipple
Ġso ber
Ġbroad caster
Ġprest igious
ãģ ²
ĠCertain ly
ãģĵãģ¨ ãģ¯
Ġshort ages
it Ã¤t
ĠWhe never
ut ta
Ġenthusi asts
Ġse Ã±
Ġweek ends
L ast
G L
ĠNep al
Ġren owned
Ġall er
Ġso b
ĠExt ra
Ġmethod ology
Ġtr action
Ġhead set
AB LE
Ġas ÃŃ
ĠK om
Ġlo vers
Ġen compass
Ġdiplom acy
pt ic
ĠEl on
Ġfuel ed
st airs
an u
Ġquant ities
ĠSh ane
ĠM oving
Ġn ucle
Ġbot hered
Ġmon opoly
ag i
ĠpÃºblic o
Re g
Ġp enn
Ġproject ion
ĠVe hic
w agen
aff e
ĠÐ¿ÑĢ Ð¾Ð´
Ð Ķ
yn asty
est o
Ġ11 5
n ak
ID E
Ġo wed
ĠB S
ĠM UST
Ġst airs
oint ed
ĠConserv ation
Ġdep ressed
r ina
os er
rib u
ia is
Ġment or
ĠÃł s
ĠC ork
Ġwarr ants
year s
M et
ion ale
Ġappet ite
Ġt ally
ĠP ors
ãĤ ´
Ġsafe guard
ett es
ĠS kin
Ġreg ist
ĠGu ild
ï¼ ħ
Ġcyber security
ĠPal in
Ġprohib it
ĠSch midt
af ia
Ġpl at
Ġcentral ized
Ġassault s
Ġentire ty
Ġsag te
Ġobs ession
æ ¶
Ġexp on
asc ript
Ġpers pectives
ĠL inks
Ġhome owners
Ġdeg li
role um
o in
Ġhack er
ric anes
D is
Ġun ified
ĠMon ica
ver b
á»Ľ i
ĠDis play
Ġhint s
ĠJe g
Ġbrand ed
Ġbo o
ĠM int
ĠTe ams
Ġmin us
Ġspecific s
Ġest r
ĠrÃ© p
ĠB ach
Ġatmosp heric
Ġman uscript
ĠL iz
Ġcolor ful
Ġ ile
Ġim aging
ĠAnn ual
Ġm ie
Ġclean er
fal se
ĠD HS
Ġr ider
Ġwith hold
ĠL il
Ġcont ests
Ġinher it
Ġfl own
h art
çĶ ±
Ġextensive ly
ĠS ara
ĠB T
Ġdeal er
Ġcatal og
Ġimpl ied
at ie
Ġlo ver
ĠN est
oy le
Ġr ack
Ġ ^
ĠÂ §
Ġci udad
âĢĿ ;
Ġj azz
Ġmach inery
Ġdevast ated
Ġcle arer
Ġunder water
Ġc rap
ĠM iles
ĠDan ish
ĠItal ia
' '
w ave
ĠStand ing
ĠCON T
uff s
ãģĹ ãģ¦ãģĦ
Ġko ji
Ġunpredict able
ĠRe ality
Ġshut ting
r ays
fund ing
ĠCl int
Ġjud ged
ĠB ert
Ġlo oph
Ġtast es
Ġtout ed
Ã¤ lt
Ġz wei
ĠJ ill
e ft
f light
áº¡ n
ubb lic
Ġd ÃŃa
ĠCl aire
ĠG E
áº¡ i
Ġv ivid
Ð ¢
Ġsun light
Ġcompr ised
k owski
ĠBris bane
v ik
Ġhom eland
Ġl ining
ĠLeaf s
Ġm int
ĠF ors
Î¯Î½ Î±Î¹
ĠBl izzard
N ote
e ous
Ġmem e
Ġscreens hot
Ġer r
Ġcompet itions
ĠG ad
o ly
ĠCh ain
Ġhe b
ĠBrist ol
ĠM ets
ĠT witch
Ġe ines
Ġse us
ĠK ob
ĠE ste
Ġaffect ion
ĠÂ Ĺ
Ġcoordin ate
Ġla wn
Ġingred ient
Ġur anium
Ġc et
oll a
ĠInspect or
all ah
e j
Ġclass ification
Ġsc roll
ĠBro ck
ĠD ale
ĠBash ar
Ġfall out
ĠÃ ³
Ġs ir
ottes ville
ĠB irth
Ġdep ut
or um
Ġphr ases
Ġinc lu
Ġthought ful
Ġof t
åıĸ ãĤĬ
ĠGreg ory
ĠEv ents
ç½ ®
Ġt res
Ġnot re
m ass
ĠMa o
Ġn er
Ġp unt
Ġrep ay
Ġther mal
Ġnever theless
1 80
ĠB ever
Ġpop ulated
ans a
Ġe ternal
Ġpal m
ĠM t
id an
ĠSch ul
Ġopt ical
Ġen rolled
Ġliqu or
Ġro pe
ic ans
è Ħ
Ġmuk aan
Ġcan on
ĠKer ala
ĠMe ga
Ġc ried
U MP
rup ting
or f
Ġbat ting
Ġse as
def ense
Ġr ubb
ĠTh read
Ġappoint ments
Ã¡ vel
Ġdev il
Ġobject ions
Ġc ite
Ġdel icate
Ġat roc
ĠB le
Ġtweet ing
and ro
Ġvis itor
Ġparl ament
ij u
Ġdark er
any a
ss en
ign ment
å¿ħ è¦ģ
Ġno ble
ch te
we ise
f ax
Ġant agon
Ġcalc ulation
Ġappropri ately
Ġind o
Ġsk ulle
ĠAng els
ĠDay ton
fol k
Ġper ipher
Ġbl o
ĠT ul
ĠprÃ³ x
Ġinflu x
el ig
r ights
Ġcirc ular
Ġconcess ions
i ÃŁ
ve is
C or
ĠÑĩ Ð°
ick er
Ġvac ant
ĠStr ategy
ĠPlan ning
ĠWat ers
ĠHe aven
r acy
am on
Ġsyn c
Ġstr ains
ĠS aw
s il
Ġhum ili
ĠL an
l ate
ìĹ Ĳ
ĠAP P
Ġt ended
ĠÐºÐ¾ÑĤÐ¾ÑĢÑĭ Ðµ
Ġconcentr ations
ys ical
Ġconst itutes
Ġwas hed
ĠWalk ing
Ġtrib unal
ĠG ross
ĠJ edi
Ġpaper work
IN T
Ġf iat
d imensional
ĠR idge
Ġcool er
Ã© qu
Ġjust ices
ÑĢÑĥ Ð¿
Ġmathem atics
Ġconstitu ency
Ġcol ony
n ar
Ġhealth ier
ĠSach s
Ġrev ision
ĠTre vor
Ġband width
Ġadd ict
ĠMc N
Ġb ak
Ð»Ð° Ð²
Ġconf ined
Ġcomp elled
Ġded ication
Ġche ating
ou x
ĠProsecut ors
Ġimper ative
ĠBe e
Ġleft ist
Ġ* /
ÑģÑĤ ÑĢÐ°
ĠSteph anie
ãĤĤ ãģĹ
ĠF ILE
ĠHus sein
f acebook
Ġno ve
ĠPan el
Ġcur iosity
Ġdam it
z w
ĠConsider ing
Ã¸ re
c ock
Ġp ave
Ġsyn chron
Ġsoph omore
c ro
Ġfalse ly
Ġincom plete
le aning
ny ch
Ġinaccur ate
D F
ĠW orth
Ġcritic izing
Ġfreedom s
ĠT rent
ĠR abb
inent al
Ġar row
c reat
Ġmid term
Ġbrows ers
Ġ× ŀ×
ê °
Ġextrem ism
Ġind icted
ĠBrend an
Ġan ecd
b ud
Ġwh ale
ĠAl ready
ĠTr ain
Ġc ob
Ġexcl usion
ĠSouth west
f air
Ġv iv
Ġof icial
ĠMe yer
25 6
ĠK iev
ĠC ort
Ã¡ ria
Ġsub urb
Ġ24 0
ĠAd elaide
ãĥ¥ ãĥ¼
comm unications
et ed
ant is
gr aduate
ĠConst ruction
ĠA A
yl on
ãģª ãĤĭ
Ġf eder
ĠRC MP
pro ject
ĠLl oyd
st o
ĠA W
Ġback ers
åħ ±
IC S
00 3
Ġrecogn izing
Ġch rom
larg est
ĠHass an
L ink
Ġabs ol
ĠR ise
is ans
Ġwip ed
ĠAlf red
ĠT B
ĠM n
g rowing
ĠBet a
Ġo lig
çĽ ´
Ġcontroll ers
ĠDis covery
Ġbless ing
ĠEst ados
Ġinher ited
ert s
éĩ ı
amp ire
ĠWrit ten
ort ium
Ġrespons ive
Ġsh aping
ok s
Ġdepend encies
ãģ§ãģ¯ ãģªãģĦ
Ġunder going
Ġresist ant
ĠC AR
Ġcha otic
Ġcl iff
ar us
Ã© rio
ĠD ocker
Ġcho oses
te il
Ġsoul s
è ĳ
Ġdis respect
Ġsh irts
ĠÐ¿ ÑĢÐ¾Ð²
Ġreg ener
ĠMoh ammad
ãģŁ ãģĦ
an qu
ĠÐ±Ñĭ Ð»
Ġbig ot
Ġnod ded
ook ie
ey ed
Ġal c
Ġrestr iction
Ġdist ances
ist es
ro ads
Ġfore front
Ġd ock
Ġconj unction
Ġind oor
ri ad
Ġ4 50
ĠEn tre
Ġcr ush
Ġcorrect ed
ĠH arm
Ġdeport ed
ass ing
ĠPas o
Ġin ning
ĠOr t
Ġtriv ial
Ġlisten ers
åº ĥ
Ġself ish
ĠdÃ© jÃł
Ġpaint ings
) |
Ġcol ored
Ġimprison ed
T wo
it an
Ġfat igue
Ġtoler ate
ĠAng ular
ĠC ord
Ġill icit
s um
p aper
Ġreb oot
ha us
Ġmy st
Ġst unned
Ġeleg ant
ĠD ifferent
ĠJS ON
Ġinv ention
D ER
ãĤı ãĤĮ
ĠP engu
ä¾ Ľ
ang a
ĠT ickets
ãĥ¼ ãĥ³
Every one
Ġsuff ers
Ġobst ruct
Ġdece ased
Ġd alla
el en
Ġrem inis
ĠB oot
Ġhe ck
Ġanaly zing
ÂĢ Â
Ġdiscuss es
ĠP ablo
cent er
ĠM unic
ins ky
Ġric hest
ĠP ist
Ġfraud ulent
ĠR an
ĠD B
ĠV ic
ĠAny thing
Ġdiscover ing
f te
Ð· Ð¾Ð²
Ġastronaut s
Ġp ixel
Ġwur den
ĠYOU R
ĠAub urn
Ġtele com
artic le
Ġmer ge
abe i
Ġemphas ize
per ing
Îº Îµ
iel le
Ġand eren
Ġy elling
Ġenjoy able
Ã¡ b
Ġcritic ize
N O
Ġmis ogyn
ĠEdin burgh
d ens
D O
ÐµÐ» Ð¾Ð²
ĠL um
ĠFre eman
Ġexceed ed
Ġc ites
Ġhomeless ness
Ġmodel ing
Ġassum es
Ġla vor
ĠN L
ĠIn sp
Ġcomb ines
hal ten
ĠTim othy
Ġel imination
Ġsand wich
è» Ĭ
ch ied
Ġparad igm
R em
Ġconcentr ate
Ġstr at
Ġsell er
Ġmult in
ĠViol ence
Russ ia
Ġsie ge
Ġright ly
g ithub
Ġso ap
ĠMill enn
Ġl ur
ãģ Ĳ
ĠG ul
are l
as m
ĠW S
ĠHe ather
Ġinv iting
Ġb aking
Ġw ary
ĠG ir
ĠOw en
Ġafter ward
ĠM Y
ĠNiss an
ãģª ãģĮ
H E
Î¯Î± ÏĤ
ri ents
achel or
ĠLeices ter
ĠRes idents
Ġbl essed
Ġw anna
Ġloc ks
work ers
ĠB oss
Ġil s
ĠFif th
Ġborrow ing
Ġsum s
atter y
ĠTurn bull
st ill
Ġmole cular
ĠG ut
ĠNico le
Ġd oses
ĠD ell
Ġviol ates
Ġh over
A f
ĠAl s
ĠSh ares
r ab
Ġan nex
Ġgr ind
Ġinnov ations
Ġdisappear ance
ĠÐ² Ð¸
ĠE gg
Ġforecast s
Ġd un
is ol
ĠJ orge
ĠÐºÐ¾Ð¼ Ð¿
Th ank
Ġm und
red ited
am t
Ġbenef ited
ĠPortug ues
ĠL ith
T or
Ġm ornings
Ġsuprem acy
ĠIS T
Ġprompt ly
Ġcomb inations
Ġspin ning
ĠCharl ottesville
Ġbre wing
Ġsem ana
Ġch ol
Ġaccess ing
ĠElect ronic
Ð± Ð¾
c ond
ĠÎ Ķ
Ġall ocation
m n
Ġv ille
ĠRe y
N P
jek t
Ġfur ious
Ġsubject ive
Ġshall ow
un ter
Ġun just
ant om
ãĥ ¤
ens a
v ideo
Ð² ÐµÑĤ
Ġacqu iring
Ġprolong ed
Ġd ol
Ġsymp athetic
ĠJ ays
ĠW ie
b id
ĠCh at
Ġ ents
ãģĻãĤĭ ãģ¨
ĠSec urities
igg s
Ġobst acle
b ird
onn ie
alk ing
Ġrel ates
ut il
Ġmeth ane
ib i
Ġ< <
ĠF M
Ġsubsid iary
Ġimp art
Ġliber ation
Ġes ports
Ġna ar
Re f
ĠFood s
ot ine
ĠFl int
at Ã³
ang led
Ġec ological
Ġdes irable
Ġpr ince
Ġa kin
ĠKit chen
åħ ļ
ise xual
ĠE z
h orn
ry s
Ġcourt room
ĠCho ose
lect ed
ĠAbd ullah
ĠMinor ity
Ġk os
ĠBou levard
ĠZimb abwe
ĠT ucker
ĠÐ½Ð° Ñģ
Ġdep ois
å¢ Ĺ
ing es
Ġnotice able
ĠEx pect
Ġhelicop ters
ĠRock et
us ers
Ġdesp uÃ©s
Ġdirect ive
Ġd uck
Ġsu do
ĠSuper ior
Ġen act
Ġph ases
Ġpos ing
h re
Ġsound track
ĠFl oren
ĠUn a
Ġg auge
Ġlog istics
a qu
l ive
Ġreg ain
ĠK inder
Ġso it
Ġs iger
land er
Ġassess ments
Ġcommunic ating
Ġperform ers
ĠC airo
ĠCele br
ĠSter ling
ĠWH AT
Ġacknowled ges
ent re
Ġsymp ath
Ġrem ed
Ġtort ured
åı £
Ġfant as
ĠProt ocol
ĠRober to
Ġrep airs
Ġal lev
Ġunch anged
Ass ad
Î¿Ïħ ÏĤ
Ġo re
Ġch ron
d oc
Ã© v
ĠAm nesty
ac Äĥ
ÑĦ Ð¸
ĠPer l
Ġmas ters
Ġfin ishes
Ġtogg le
Ġreferen ced
ĠC elt
Ġillness es
Ġid iot
Ġins ider
asp berry
ĠD ort
ĠÑī Ð¾
Ġcont enders
ĠnÃºmer o
fe it
Ġer ad
Å¾ e
×¨ ×
ä»Ĭ åĽŀ
Ġcontent ious
M al
Ġab st
Ġbe w
ĠkÃ¶n n
ĠL P
ÙĨ Ø¯
Ġdisplay ing
Ùħ Ø§
Ġback drop
Ġevacu ated
Ġproceed ed
Ġperce ive
ĠR i
Ġrans om
Ġsque ez
im as
ic its
ĠCath olics
ĠRe venue
pa rent
Ġbus h
ÃŁ er
il ogy
Ġw olf
ĠÐĿ Ð¾
Ġnarrat ives
Ġest ado
Ġn ed
v s
r ace
Ġmedic ines
ĠR um
aw ays
ĠScient ific
ì Ħ
ĠR SS
Ġend ured
Ġval ley
Ġk ol
ĠHig her
w ort
z ial
Ġo ri
ĠGr und
Ġembarrass ed
anc ers
ĠAdvent ure
am ount
Ã¶g lich
ĠOrgan isation
ĠÐ±ÑĥÐ´ ÐµÑĤ
ĠÐ² ÑĸÐ´
Ġtransm itted
Ġinter rupted
ĠTechn ical
M ex
vas ive
ĠÐ½Ð° Ð·
Ġw ives
ĠT amb
Ġman a
ĠSex ual
ãģ® ãģĮ
h om
Ġg ol
ĠW ake
ĠDep ression
Ġha ul
Ġ20 25
Ġblast ed
Ð¸Ð» ÑĮ
m atch
Ġst al
ĠOccup y
Ġintro duces
y et
C AR
osa urs
Ġreact or
ir as
r ust
ĠM ick
Ã¤ re
Ġh v
Ġdesp air
aj Äħ
Ġre election
if ax
Ġt urt
Ġintention al
Ġpas ado
akes pe
vid ia
ĠR ising
ãĤ¹ ãĥĨ
arl o
h ops
ieg el
ĠC raft
Ġsam pling
ĠL uk
ter min
Ġsever ity
Ġple as
ĠV it
Ġlower ing
ĠGl en
Ġunder cover
ĠResp onse
ÈĽ ie
Ġsuccess es
Ġre open
Ġv ine
pl aces
und ers
Ġpract iced
Ġmir acle
ĠZ hang
he ed
p u
ì §
Ġv andal
l ier
ĠD olphins
com plete
Ġparad ox
Ġdown ward
Ġen light
Ġproud ly
Ġfilm maker
Ġthank ed
k on
Ġdict ator
ĠF uk
Ġsec recy
ĠFal cons
Ġa hora
ient es
Ġh ipp
Ġcl oth
m g
Ġst d
Ġball oon
k ie
ĠCharg ers
Î¬ Î½
Ġr av
Ġum bre
c ope
uc ing
ĠW ong
bus iness
ĠProp het
Ġback yard
Ġburn s
Ġrecogn izes
Pac ific
al en
ĠLet ter
ĠK oh
me ga
Ġon s
Ġot ro
Ġp Ã¤Ã¤
ĠP am
ĠBurn s
is ka
viol ent
å½ ¼
ans on
ĠTourn ament
Ġgrand es
ĠU tt
Ġden ounced
ĠPl aza
ĠBar rett
Ġpartic le
Ġmon et
c iously
pa Ã±a
le z
Ġred dit
od en
ic ating
igg ins
ĠB ast
Ġend ure
ĠQ U
Ġpremium s
Ġwe il
ĠO T
ĠP rest
Ġadmin istered
ãģĤ ãģ£ãģŁ
Ġbe am
èģ ŀ
Ġal pha
ĠComp lex
Ġhigh s
OU ND
ĠH ask
ĠHay es
Ġgenet ically
Ġatt ain
Ġposition ing
ĠPors che
ãĤĬ ãģ¾ãģĻ
ĠSpr int
d ag
Ġe Bay
äºº ãģĮ
ĠF usion
Ġh ills
m itted
Ġblog ger
ĠX P
Ġst unt
Ġstere otypes
Ġkn ocking
ins pired
ĠGes ch
Ġsupervis or
ed u
Ġmor ally
ĠFr ances
ĠFried man
Ġident ifies
Ġexempt ion
ĠR iley
Ġdisp ers
sk ins
! ).
Ġver se
we re
Ġge ht
it ational
b order
Ġpredict ing
op a
ĠF ury
Ġcr Ã©
Ġhy ster
Ġbr acket
ĠÑĤ Ð¾Ð»ÑĮÐºÐ¾
y g
os oph
ĠAC T
Ġtw isted
ny t
Ġm s
Ġorgan isms
mo il
ĠH il
ĠGr am
t xt
Ġrel iance
qu arter
Ġcrack ed
Ġv ier
Ġsurviv or
ĠIn valid
ĠG olf
Ġide als
Ġd ilem
Ġser a
200 7
ism us
C BC
Ġlobby ists
ĠAdd ress
ub a
Ġmet adata
Ġimag in
Ġbol ster
ÑİÑĤ ÑģÑı
ĠH alo
Ġfool ish
Ġcelebr ations
Ġt apped
Ġdis regard
Ġimpro v
ĠGe off
Ġdefin itions
OT US
Ġinhabit ants
ren ched
im g
Ġmaneu ver
ĠDo ctors
Ġ| |
Ġsp un
ì ŀ
ĠM oto
Ġon de
ĠS low
iz aciÃ³n
Ġmem oir
ĠAr g
Ġdiam ond
Ġpl ots
Ġhorizont al
G P
ĠMatt is
bl ue
Ġpod ium
c led
Ġperson nes
Ġho ax
ĠH ood
ll er
S pe
ĠNY PD
ĠSa id
Ġphenomen a
Ġi hr
Ġbal ancing
Ġsing ular
ĠMour inho
kl Ã¤r
ĠP ars
es i
ĠSh ip
S ervice
Ãª t
Ġa ur
Ġn ortheast
F l
Ġhost ility
ĠM ight
Ġstreng thening
h ui
Ġ10 4
ĠHon or
sp onsored
gu ards
Ġmerc ado
ĠÄ ĩ
ãģĵ ãģĨ
Ġco vert
Ġwar mer
ĠB ass
ĠG S
Ġlo oming
ĠÑģ Ð¾Ð±
ĠØ§Ø ³
ent ral
ps y
ĠP ru
Ġsuppl ier
ĠCelt ics
Ġexp ired
ĠR oche
Ø¯ ÙĬ
Ġout ros
ĠprÃ© c
ĠGu jar
ĠJohn s
Ġgoal keeper
Ġins ulin
Ġste alth
Ø º
Ñĥ ÑĤÐ¸
Ġprivile ges
Ġdebut ed
l n
Ġreg imes
Ġpsychiat ric
ĠA ce
ãģĤãĤĬ ãģ¾ãģĻ
Ġdiam eter
ĠP ep
is ers
ĠSS D
b ing
Ġacceler ated
ish ops
Ġub iqu
Ġsuper b
Ġheight ened
ĠD EL
Ġsh ade
ĠFranc o
ĠEv olution
ĠÐ° Ðº
ĠY o
omet ry
Ġbrut ality
Ġexc av
el or
ans k
ĠC W
Ġpro cur
ĠJ azz
Ġrelent less
Ġl enses
Ġprejud ice
akespe are
reng th
ç ĸ
è¼ ī
Ġpot atoes
ĠÃ© gal
Ġstaff er
Ġcap ita
load ed
Ġon board
Ġmar riages
ĠSal man
ĠD NS
ous se
ĠÃ Ń
ĠB U
T oo
ĠBl ade
ĠØ§ÙĦØ Ń
ĠM ale
ĠM R
Ġhe eft
Ð°Ð» Ð¾
ans ing
Ġterr ified
äº Ĩ
Ġsm arter
Ġaggreg ate
Ġsne ak
Ġvers atile
la ughter
bour g
Ġcell ular
Ġf rem
Æ°á»£ c
ĠAst ron
ĠN unes
Ġtr aces
ĠCarl son
Ġun real
Ġzomb ie
Cl oud
sequ ently
as is
Ġst ellar
å »
ĠÎ± Ïħ
¤ ľ
ĠMar ines
ubl ished
ĠBah rain
rent es
æ¨ ©
Ġne uros
ch in
Ġemb od
Ġrig orous
ĠÏĦÎ¿ Î½
oun ge
develop ment
Ġfor ty
ip es
ĠMic he
ĠÏĢ Îµ
ib ilit
ĠR id
Ġembr acing
ĠVal ve
Ġnegoti ation
ĠHar bor
or r
gu ided
Ġvolunt arily
Ġin ad
Ġsque eze
Ġrec laim
Ġdump ed
op ed
T ext
Ġdepend ency
ĠUn idos
æŃ ¢
Ġpreval ent
Ġnegative ly
ĠÎµ Î¯Î½Î±Î¹
Ġout law
Ġmat rix
ĠD y
ĠTe en
ĠPer iod
Ġmer cy
es p
ĠN FC
ĠMap le
ot he
ĠP v
od s
Ġnou ve
ĠPh arm
æĥ ³
it Äĥ
ess ential
ÑĤ Ð¾Ð±Ñĭ
Ġpath way
Ġfe ud
S tr
den ly
ant on
ĠCh am
G ame
Ġd Ã©s
ĠTr ading
Ġbre wer
Ġv intage
Ġexc lude
Ġillustr ated
ad min
Ġinfer ior
ott est
C T
Ġend uring
ĠBr anch
ĠL ud
ĠMan it
ĠS leep
ãģ¨ ãģ®
ĠW ow
Ġcatast rophe
Ġaut op
Ġairpl ane
ĠF ighter
Ġins urers
Co in
Ġground ed
Ġw ipe
Ġch amp
Ġprotagon ist
Ġfree zing
m ut
Ġac ordo
ä¸Ń åĽ½
Ġiter ation
Ġnot ices
Ġmer its
Ġpit chers
ĠHe brew
Ġcry st
att ed
ãģ§ãģĻ ãģĮ
Ġm um
ist ical
Ġcycl ists
Ġartif acts
ĠG ru
Å£ ii
à¤ µ
ĠJup iter
op ian
ä¼ ģ
ĠVictor ian
ĠMcC abe
ace y
Ġti empo
ĠPri x
st ed
Ġinterf aces
Ġmag net
Ġaffid avit
Ġdetect ives
Ġillustr ation
ĠSol utions
ĠTam il
ĠRec omm
ocaly pse
t em
Ġsu o
Ġignor ant
ĠPat reon
Ġfif teen
lic ht
ĠK ris
am iliar
ĠPan ama
ĠG oth
Ġro de
Ġcondition ing
åķı é¡Į
Ð½Ð¸ ÑĨ
re qu
ĠG L
Ġ( .
Ġex otic
ãģ¨ ãģĵãĤį
Ġre ef
Ġar che
ĠDav ies
Ġar senal
ob o
çī Ī
Ġprosec ute
g mail
ĠRead y
Ġtyp ing
ĠE ther
Ġbarg ain
ĠÑĤ Ð°
Ġsk ate
ĠÐ² Ð¸Ð´
Ġcollabor ative
ĠS ou
ĠR oute
Ġmo is
ĠU pper
Ob ject
ĠV ince
ne um
M R
Ġenv oy
çµ Ĥ
Ġsm ok
Ġâĸ ł
ob il
ĠHe ath
Ġaccus ation
ĠÐ· Ð½Ð°
d ar
Ġre jo
W ar
osp ace
ĠÏĥÏĦÎ· Î½
Ġown ing
ë ¡
å¤ļ ãģı
Ġstat ut
Ġdecl ines
Ġmarc hed
and id
Ġpolit ique
ink le
Ġcompat ibility
Ġtake over
ãģĦ ãĤĭ
Ġsl ump
sec ure
i ating
Ġl oro
Ġhous ed
Ġemp ow
ĠEl le
Ġmot ives
ĠRes istance
reg or
ĠHug o
Ġdial og
l Ã¤
ick ers
at ore
Ġbeaut ifully
Ġskept icism
T ech
Ġcriticism s
Ġdef icits
Ġcr unch
Ð² Ð¾
Å¡ e
ters on
Ġk ar
ÙĨ Ø§
ĠSher man
ĠR ade
ren s
Ġla und
sh irts
Ġattract ing
f est
ĠP LA
Ġharn ess
Ð² Ð¾Ð´
Ð± Ðµ
Ġsp ur
Ġih m
com mon
Ġchar ities
ĠCh in
OR Y
v ity
Ġsc andals
av ior
Ã§ as
Ġref riger
ĠThe ater
ĠInnov ation
ãģ İ
Ġst ems
ĠW ILL
Ġconv entions
E G
ĠPlay ing
Ġsh red
Ġcomment ators
ib en
ĠLyn n
i ÄĻ
Ġdom ains
ÏĥÎ· ÏĤ
ìĿ Ħ
ĠDar ren
Ġha iled
Ġcast le
ors i
Ġwor s
et c
Ġsuper market
Ġcá» §
I l
Ġundert aken
Ġemb ry
Ġun cover
Ġexch anged
Ġrebell ion
Ġdeb ated
Ġround ed
ĠÐµ ÑģÑĤÑĮ
ren n
part isan
Ġdevelop s
Ġb end
ĠEconom y
Ġpod r
Ġme er
c row
ator i
ion a
Ġdiv ul
Ġextract ion
Ġhe cho
Ġmis information
P ass
ĠRe qu
Ġcontam ination
Ġch ill
ft s
ĠÐ½Ð° Ñĩ
w at
ĠCh anges
ĠCitiz en
D own
g ay
Ġhost age
Ġmult ic
ĠLeg acy
Ġ10 2
ĠS ug
Ġsn apped
Ġf usion
Ġgradu ation
C onn
ĠChe v
æĺ ¯
ĠF i
ĠS R
Ġsens es
ĠØ¯ Ø±
Ġhistor ians
Ġelig ibility
Ġchar itable
Ġth under
Ġst oring
é Į
Ġtur moil
Ġcons oles
ĠMy ster
s ided
Ġpri zes
Ġrepl icate
v ir
ĠK arn
ĠÂ ±
Ġpip es
Ġrefe ree
Ġlone ly
Ġchar m
ob ject
N I
Ġun ite
Ġrecru its
âĶĢâĶĢ âĶĢâĶĢ
pp en
Ġimp ly
Ġbank ers
Ä± ÅŁ
Ġstret ches
Ġa insi
Ġâ ľ
Ġcapt ures
Ġc raw
Ñĸ Ð½
Ġth wart
ĠSol o
ract ed
am ment
Ġfr amed
Ġ2 20
Ġswit ches
Ġtrans plant
ĠBudd h
Ġnick name
Ã¼ cht
ĠD uc
æħ ĭ
ĠEr in
Ñģ Ð¾Ð²
bra him
ĠC V
bal ance
ĠIndust ries
ĠÑĢÐ¾ÑģÑģÐ¸ Ð¹
D ie
Ġinqu iries
ĠPret ty
un ion
ze z
Ġuns ure
Ä± z
Ġthe rapeut
Ġobser ving
Ġde er
ĠI z
Ġbu ys
Ġc ows
Ġmicro phone
ĠÐ° Ð²
Ġsurg ical
Ġmor ph
ĠLat est
Ġpo em
with out
Ġmanifest o
ĠS add
Ġcooper ative
ĠB om
Ġru ined
å¥ ½
ãģĹãģĭ ãģĹ
Ġclos ures
ĠLeban ese
Ġcompet ent
c ross
Ġgather ings
Ġl ungs
ĠC ards
ff en
ĠAbr ams
Ġla ughter
iet h
ab en
Ġwell s
Ġdivis ive
Ġbl ir
Ġjet zt
Ġac uer
ch ains
ĠSte fan
Ġtr at
Ġchampionship s
Ġsimpl icity
u ks
kins on
ĠL ula
Ġey eb
ess ors
Ġwh it
Ġconsist ing
Ġprogress ives
ĠHel en
ĠW ald
ä»¥ ä¸Ĭ
cour t
Ġsurpr ises
Ġs ights
Ġ20 50
Ġexplos ives
h ig
ĠJ as
ĠO ri
ĠAd obe
ĠCho ice
Ï Ī
ĠB har
ĠS tern
Ġrebu ilding
Ġunst able
J an
Ġsmooth ly
b uster
ol ith
Ġmerch ants
x on
ract ion
health y
ĠE R
åĪ© çĶ¨
ĠA IDS
Ġgar lic
ĠW AS
ul atory
Ġunbeliev able
Can ada
Ġamb ient
ĠApp lic
ht ra
ĠPen insula
Ġcá»§ a
çķ ª
Ġmur de
ĠKn icks
ĠT X
Ġunf amiliar
Ġsupp ression
Ġpl asma
ĠP ool
ĠL B
Ġme jor
Ġf ist
Ġb ore
Ġro z
keep ers
Ġj oked
ÈĽ ia
Ġwa ist
ĠMid west
in tern
he ts
ĠH ogan
ĠD IS
ãģķ ãĤī
Ġbureauc racy
Ġle aning
In ter
ĠC able
Ġbe ard
Ġne ut
ien ne
Ġcr ashing
Ġacknowled ging
Ġref resh
Ġutil ized
Ġpe cul
ĠChampionship s
j ours
Ġpart nered
ĠN iet
en zie
ĠEl se
Ġalign ment
Ġbere its
ĠR hod
Ġdetermin es
Ġp ond
Ġt ed
,' '
Ġfeas ible
Ġjudg ement
ograph ics
ĠHait i
Ġhead phones
ĠSp ark
Ġint ric
ĠSchne ider
ãģĵãģ¨ ãģ§
ÐµÐ¼ Ñĥ
Ġstretch ing
ĠD raw
og gi
j Ã¸
ne k
ari us
ĠS AN
ĠG ent
D id
bl ood
Ġunders c
b il
ĠObserv atory
Ġson dern
Ġid i
Ġdeleg ate
Ġmet als
riz z
ro ot
pl aced
OS S
Ġp ixels
Ġco erc
names e
ĠR ift
Ġver ge
ĠÎ¸ Î±
We b
ari um
ĠG ol
EN S
ĠH els
Ġhard core
ĠBelf ast
Ġsuscept ible
k im
ĠEs paÃ±a
Ġplus ieurs
olog ie
Ġdisg usting
Ġdec id
ly s
ĠWag ner
P ER
ãģ ĸ
osp here
Ġanticip ation
c in
æĴ ĥ
Ġout spoken
ĠC ultural
Ġtrain er
g ger
Ġfore nsic
iment os
ĠSN P
Ã© ric
ĠCO MM
ĠDep ending
Ġe igen
ĠIntern al
ĠAt hens
Ġu h
ĠCamb od
ĠÃ Ħ
ĠDev il
Ġf aut
read ing
ĠA uss
Ġreward ing
ĠIo T
ĠR ES
ĠLeg ion
in fect
) ?
Ġpostp oned
erv ative
Ġturn over
Ġpolicy makers
ĠWy oming
ĠInit ially
ĠÐ¼ ÐµÐ½
de b
Ġdistr action
Ġfundra iser
ĠWhe eler
ĠCauc us
s or
ĠIn come
ãģķ ãģĦ
Ġthe sis
M in
Ġwar rior
z ip
Ġoccup y
ĠÑĩ ÐµÐ»Ð¾Ð²
Ġevalu ating
ĠAdmin ist
at ism
any e
Ġdr astic
Ġimp uls
i em
k al
ĠGil bert
Ġmar athon
ĠE OS
ĠBl asio
hh hh
Ġhor as
ĠMerc ury
upp orted
Ġadvoc ated
a Ã±
AC H
Ġcertific ates
Ġt ai
ĠRes cue
Ġne oliberal
å½ ±
Ġindef initely
Ġje ans
ĠR ate
Ġpred ators
Ġant it
Ġpsy chedel
Ġwithd rawn
ĠYork er
w ife
in th
Ġfright ening
æ°ı ãģ¯
oc ese
ĠHann ah
Ġdownload s
ãģ£ ãģ¨
ĠDem s
ĠLiqu id
ĠAur ora
ãģĦ ãģĦ
ĠSh akespeare
ĠR oh
Ġswift ly
Ġmos quito
Ġvar ieties
Ġshut tle
ĠY outube
ĠD ol
l le
ver ts
Ġd iving
ĠPartners hip
Ġjourn als
th ouse
c f
squ are
Ġclean ed
c ould
ĠCor rect
Ġillustr ates
Ġk ur
Ġcorner back
ĠPortugues e
ĠCl iff
Ġte x
Ġcompens ate
ĠL iv
Ġcoc onut
ĠD if
ĠÐ¿ Ð¾Ð¼
ĠD uty
Ġescal ation
Ġcontam inated
be e
Ġfr anÃ§ais
ĠD iaz
c ision
Ġbl and
ĠPer u
Ġobject ion
omm es
ĠM IN
Ġsuperv ision
Ġdisadvant age
ĠJ ump
ĠG ret
D avid
Ġf itted
op ers
Ġunsuccess ful
ĠD L
d ue
id y
Go ogle
Ð· Ð¸Ð´
EM A
Ġche ek
S ch
B o
Ġauthor ization
ĠB our
Ġramp ant
Ġfl ank
çĻ »
ĠdÃ© f
Ġh alls
ĠFight ing
Ġpay load
h azi
ĠH outh
ĠCom o
Ġadequ ately
Ġs aga
Ġprepar ations
iqu Ã©
ĠSky pe
Ġ196 6
Ġge opolit
ĠC aval
Ġexist ential
mod ern
Ġarch ives
Ġax is
do es
Ð° ÑĢÐ°
ag t
W ork
Ġvol atility
ĠAm id
ĠD re
Î» Î±
Ġwithd rew
ĠAv iv
ĠB A
ĠDri ver
Ġtrig gers
Ġy o
ĠMel issa
Ġ196 3
ĠF avor
Ġg room
ĠN ate
M arch
Ġantibiot ics
ser ver
ĠVol ume
ĠCom mercial
ĠSt ats
Ġdent ro
Ġ11 2
ĠV ul
w y
æĬ ķ
Ġg aze
Ġtheir s
ĠSat an
z ero
g re
ĠProv ince
VID IA
pa res
ĠÙĦ ÙĦ
cas ters
fe ed
Ġl ov
Ġmy riad
rend re
Ġpsych ologist
ì ł
Ġoh ne
ĠÐ² Ð»Ð°
Ġa ura
f ired
us p
Ġlapt ops
å¹ ³
â Ī
Ġsel on
ãĤĴ ä½¿
OL L
ĠÑĤ Ð¾Ð¼
Ġdown side
Ġresol utions
ĠP osition
Ġwork flow
Ġrob otic
l ain
Ġpres erving
Ġnarrow ly
ĠALS O
Ġmai or
ĠA AP
Ġpour ing
ich i
ĠâĢľ âĢ¦
ib al
ÙĪ Ùħ
ÈĽ Äĥ
but ton
ĠÐ² Ñģ
æĶ ¾
che m
ĠP oor
ĠPunj ab
Ġfav ors
ĠG avin
Ġn urt
ĠTest ing
ĠProper ty
Ġup wards
Ġk ron
ĠP AR
ĠC E
Ġdest abil
Ġfore see
Ġp enc
Ġth y
Ġflood s
Ġsal mon
Ġsuper star
Ġcont end
cent ric
åº ľ
B ack
Ġrain fall
Ð½Ð¸ ÐºÐ°
ĠPC s
ĠCl aim
ĠChar acter
è« ĸ
ĠBald win
Ä± m
pl ate
ÐµÐ½ÑĤ Ð°
any on
Ġhapp ier
Ġcouncil s
ur st
Ġbre asts
ĠQu ote
k Ã¶
old en
bre aks
ĠâĹ ı
at ra
and ra
Ġlaugh s
ĠAtl as
Ġv ra
ĠG RE
Ġwholes ale
Ġmark er
Ġtunn els
Ð°ÑĤÑĮ ÑģÑı
ĠÃľ ber
and en
Ġre imb
ĠDian e
f act
ĠP ont
OU R
Ġappar atus
ĠE lder
ãĤµ ãĥ¼ãĥ
ĠIv anka
ĠOF F
Ġk le
ĠKenn eth
ĠCard inal
com put
áº ¯
Ñĭ Ð²
ost i
Ġmicro bi
Ġunique ly
ĠL oren
Ġshr ink
ĠÃ©gal ement
Ġstri ve
ĠR F
ĠR iot
ĠWilliam son
14 0
tr ade
Ġ2 30
t arget
Ġse iner
Ġle aking
Ġener get
Ġev id
Ġmultin ational
j es
Ġqu asi
ĠCar bon
Ġvie le
ram id
Ġfest ivals
ĠTer rit
,' "
Ġfil ings
Ġdif eren
ĠB ild
ĠS ed
d ire
u ent
Ġmem es
åı °
Ġm att
ĠB ew
Ġcirc ulating
ĠNational s
Ġqu em
Ġdatas et
Ġrad ically
å® ³
B ox
ĠC red
ĠNiel sen
ĠÃ Ģ
] ]
il ib
ĠÅ Ľ
Ġen zy
Ġrec onsider
Ġdefe ating
ĠIr ving
pa rents
i ated
Ġside walk
âĢ¦âĢ¦ âĢ¦âĢ¦
Ġup held
ł ×
Ġseg Ãºn
æĥħ åł±
Ġperpet rators
er ne
Ġter rific
ĠHor se
Ġrun time
Ġar be
Ġprost itution
ĠÏĦÎ¿Ïħ ÏĤ
ĠÑįÑĤ Ð¾Ð¼
Ġextrad ition
Ġinst ability
Ġconf er
åı İ
Ġpreval ence
ĠF I
Ġfirm ware
Ġcl usters
ĠÐ¾ Ðº
ĠCom pl
Ġl bs
Ġwrit ings
Ġcell phone
~~ ~~
Ġk am
éŁ ³
Ã³ l
k ke
Ġs ÃŃ
ÅĽ Äĩ
rv ats
ĠN igel
éĸĭ çĻº
in el
Ġdur able
ĠViet namese
i ency
Ġuniform s
ag ent
Ġcongest ion
B Y
ĠN vidia
Ġthank ful
Ġâ Ļ
Ġfr acking
lic t
Ġn avy
ĠE du
Ġess a
Ġmem b
Ġ10 3
ould er
Ġjud iciary
ĠAb stract
ĠSat urn
Ġtang ible
st ro
Ġdo ve
Ġcont ributes
l av
Ġa plic
bn b
ĠSeg undo
Ġshort s
Ġa ka
! '
Ġde af
Ġvar ies
Ġscreens hots
,âĢĻ âĢĻ
ĠPay Pal
Ġì Ŀ
Al though
it ures
ĠAr row
ĠHol der
ib o
enc ial
ĠE isen
ĠmÃ¼ ssen
ĠG iant
ãĢį ãĢĮ
m ot
æ ¡
ĠAbb as
> </
Ġg rap
Ġpro w
ĠÐ³ Ð¾Ð²Ð¾ÑĢÐ¸
Ġid ol
Ġund is
Ġrec apt
Ġs ar
Ġdir ig
ĠW yn
ĠD LC
re cht
Ġac us
Ġconcept ion
Ġcruel ty
Ġcommun al
Ġorganiz er
Ġtr am
Ġref ined
ĠGer ald
à µ
Ġteach ings
Ġvis ually
cur rent
ĠÃ© p
ĠBr uno
ĠPrinc eton
Ġand re
ĠFrank en
ab ase
h on
ot on
Ġpo pped
Ġtransl ates
Ġp oco
Ġf ie
Ġhand c
ĠPolize i
s uper
Ġdoub les
Ġemploy s
Ġ( #
g le
ĠRed skins
Ġdis qual
Ġcanc ellation
ĠGujar at
Ġlike wise
ĠJackson ville
ĠC OR
Ġdem ise
Ġmod ifications
ag le
ĠAR M
Ġhand ler
uff er
ĠG ust
D ec
Ġs ack
Ġdisse min
ĠRaf ael
Ġter ribly
ed ay
ch ter
om as
Ġ7 50
Ġcomp uls
Ġl ent
Ã§ os
b c
iv able
Ġsh am
r ado
ĠSt yle
ul i
Ġhand gun
f ell
C r
ĠStrateg ic
ĠL SU
com fort
ĠJack ie
ÑĤÑĮ ÑģÑı
an ity
Ġt ir
Ġblow s
Ġresearch ing
ĠView s
ill Ã¤
hal b
Ã¡ z
ãģ» ãģ©
Ġimp ed
Ġunus ually
ĠK ub
ĠAl v
Ġbroadcast ing
ĠAl leg
f ill
Ġl ado
Ġbrand ing
is ure
Ġun authorized
am el
P age
Ġsu ing
Ġaut umn
Ð¾ ÑģÐº
ĠCand id
Ġkid ney
ãĥ¼ ãĤ¿
Ġland sc
ig ated
çĿ Ģ
ĠArab s
rec ord
v able
ren te
ĠIss ue
ĠDeut sche
3 60
ĠC iv
ĠÑį ÑĤÐ¸
Ġtr aced
ucc i
Ġre he
Ġcelebr ates
ĠNe o
ãģ«ãĤĪ ãĤĭ
et ter
Ġvol cano
n os
Ġqu and
ĠGard ner
Ġ18 00
Ġm ater
ĠT RE
Ġprocess o
Ġv Ã©
Ġengine ered
j son
rÃ© al
Ġsab ot
ĠHist or
ĠM ental
Ġmir rors
M T
ĠÎ ¬
á» ±
Ġsubm issions
Ġgrant ing
Ġh Ã¤t
Ġem it
ĠArt ist
Ġprogram mers
ĠAn cient
f ed
ĠNew man
over ty
pp led
Val ue
ut os
Ġpret ending
oot er
Ġde gr
T ex
Ġre du
Ñ ķ
ĠM ist
ra vel
ĠRol ling
Ġb iod
Ġdub ious
ri um
ĠExpl ore
Ġbook ing
Ġclos es
count ry
Ġne p
ĠW it
Ġtop s
ĠProt esters
è³ ĩ
F ox
ĠS ugar
Ġoff ended
ĠPru itt
ĠK iss
us ammen
u ar
Ġh ug
Ġt Ã¤
Ġs idelines
Ġst acked
W atch
Ġretrie ve
ĠBoe hner
ic as
P o
Ġdis able
Ġmin eral
Ġup rising
atin um
Ġl ou
ĠPat ric
ĠTon ight
Ġpr inter
Ð³ Ð¾Ð´
o ire
ĠBapt ist
Ġsol ic
he iro
est ine
c ity
Ġbid ding
Ġch uck
Ġred und
ĠStock holm
Ġr uth
ĠP ierce
Ð½Ð¸ Ð¹
Ġgl uc
ĠFar age
æ² »
ĠElect ions
Ġplum met
Ġash amed
em pre
k amp
ort al
Ġcost ing
iz o
ĠRiver a
ĠW ine
ĠJin ping
ĠF IR
id able
Ġlength s
ris y
åŃ ĺ
ãĥ¼ãĥ Ĺ
ĠS anti
ĠJoh ann
ĠE arl
vel le
ĠSe vent
ener gy
j ournal
ĠCan on
è¡ ĵ
ro b
Ġhe ights
Ġd ick
ĠAm ber
cho ice
Ġh ats
Ġsper m
Ġna ive
pict ured
ĠN aj
pe x
ub s
Ġinteract ing
orn al
ĠN I
Ġentre v
Ġbail out
ĠCong o
ÑĤ Ð¾Ð²
O ct
ĠTor res
iz oph
Ġtoss ed
ĠAl ien
he ard
ĠÄ °
ĠE arn
Ġecosystem s
ĠEm peror
in ters
G en
Ġpo inter
Ġpast e
Ġâĸ Ī
ĠS IM
ist ence
Ġhint ed
ĠDur ant
ĠpÃºblic a
Ġd ÃŃas
Ġm Ã©
ĠK C
Ġam ple
ĠM W
Ġsing les
Ġs op
Ġmillenn ials
Ġext r
ãģ¦ ãĤĤ
in ian
ad io
Ġle mon
Ġfl ame
Ġe cc
ĠGar rett
ÃŃ cio
Ġdiscipl inary
Ġdistingu ished
ĠExpl orer
ch ten
ĠGen esis
threat ening
Ġ ãĢĲ
Ġlab s
ĠSch l
tr as
Ġ10 8
Ġmilit ias
ys s
ien st
Ġunanim ously
ĠDown town
f on
åĬ ¹
Ġher b
Ġmes h
ĠT we
Ġsl ap
ĠWhere as
Ġpiv otal
A tt
ĠThank fully
Ñĥ Ð»ÑĮ
int elligence
á» į
ĠG y
Ġthri ving
Ġpoison ing
ĠØ£ ÙĨ
K A
Ġindirect ly
Ġheav ier
Ġacceler ation
g end
Ġpl ut
ĠSt orage
Ġaw aken
Ġrest ing
h os
ĠÄ Ĳ
ĠBeng hazi
ĠCh arter
Ġsoc ied
l oc
n ull
ĠSt ur
ĠIn to
Ġgrat itude
ĠÑĤ Ð¾Ð³Ð¾
Ġtar iff
ĠSh an
ĠV ern
ĠÑĩ ÑĤÐ¾Ð±Ñĭ
ĠD ot
Ġcommand ers
Ġ11 1
if ted
Ïģ Ïī
Ġde z
ãģ« ãģĬ
own s
Ġcr ust
ĠCreat ing
pro p
ĠPer th
Ġ>> >
Ġevacu ation
ĠC anyon
Ġman kind
Ġp ussy
Ġdo omed
ai ver
Ġbe im
ĠF X
ex cept
Ġrehabilit ation
Â º
ĠV ander
Ġoff ender
æı Ĳ
ĠN eder
Ġk unn
g uns
Ã³ ria
ge b
é¨ ĵ
ĠMe chan
ĠA mer
Ġdeploy ing
Ġafirm ou
Ġun b
Ġcost umes
Ġman ge
ĠH oney
Ġj ungle
Ġcomment ator
à¤ ¦
Ġgood ness
ĠSett ings
Ġenfor cing
Ġmess y
ĠConc ern
Ġcon oc
ind uced
ĠIS O
Ġcirc ulated
ĠÐ³ Ð¾Ñģ
$ $
Ġoper atives
w ic
ĠA zer
ĠC arn
li hood
ÈĻ ti
" ]
Ġinf ra
ä¸Ĭ ãģĴ
ll i
Ġt ener
íķ ĺ
Ġcu enta
Ġoptim ization
Ġlie u
is iÃ³n
ĠAr s
ãģ¾ ãĤĬ
ht i
Ġcr acks
Ġpo orest
Ð¾ Ð½Ð°
ik u
Ġarr ange
ĠS ikh
ĠV oting
ĠCurt is
Ġblu eprint
Ġ uk
Ġ} ;
the med
Ġquant o
f Ã¼r
ĠSy nd
int ro
ul as
ĠPro ble
ĠElect oral
Ġp ensions
Ġrig id
d ates
ĠZ oo
F X
ber net
ĠÃº n
Ġbom ber
n ant
ĠRich ards
ĠV ita
Ġtour ing
ĠC od
ĠL ance
Ġp anc
el p
ĠEl i
iss en
person al
Ġpredict s
Ġseiz ure
Ġp ine
ĠFro st
Ġlivest ock
cast ing
ĠSh awn
Ġdig its
ĠF inding
Ġpedest rians
ĠOp ening
Ġoper a
Ġcan s
Ġr anged
ĠL ac
Ġcomp ares
ĠLe eds
Ġst alled
ç© º
Ġdoub ling
Ġneed le
Ġnut rients
ĠB ened
Ġperfect ion
Ġhal ted
ĠCongress man
Ġal umn
Ġd opo
Î± ÏĤ
ĠDo ing
ĠS PD
ĠEll en
ĠRe ich
Ġest as
áº¿ t
ĠN om
Ġmod o
Ð°ÑĤ Ð°
pl er
c ot
ĠCom bat
ç ģ
part ic
Ġd well
Ġtou jours
Ġdis charge
Ġbl ur
Ġinnoc ence
ĠD W
Ð¼ Ð¾Ð¶
Ġh id
Ġf ier
Ġextract ed
ush i
im on
ĠP av
ĠLib yan
Ð¶ ÐµÐ½
Ġp ont
O E
Ġhes it
Ġf lick
Ġ10 6
izoph ren
ä¼ Ŀ
Øª Ùħ
Ġy elled
ĠN VIDIA
ĠØ¨ Ùĩ
Ïģ Î·
ĠSon ic
Ġaw a
av ier
ĠTro phy
Ġun paid
ĠÏĦ Î¹
Ġex h
) -
ĠCraw ford
ĠSer gio
Ġv ault
ick y
ĠG ing
Ġmed dling
ĠSpe c
Ġconfig ure
M ENT
Ġgif ted
æ ·
ĠSp icer
Ġv apor
Ġdet on
ĠB un
ä¿ Ĥ
st ated
Ġret ros
ĠTreat y
ĠConfeder ate
ĠÐ ¥
Ã©r ation
Ġd op
ĠTh an
ĠV ari
ĠF eder
ĠBon us
els en
Ġtod d
ad ian
ĠSo le
ãģĭ ãģª
Ġpig s
Ġdiscount s
ĠP ure
and ing
ament al
ax ies
ÐµÐ½Ð¸ Ð¹
Ġnorth west
ĠB ottom
ĠPa rents
ĠS ul
Ġspect acle
10 1
ĠH aley
ĠÐ½ Ð¾Ð²
Ġforb idden
ĠKas ich
Ġfemin ists
Ġun identified
og ram
ĠBru ins
è ·
Ġte cn
ĠR osa
y ect
ĠRapt ors
ĠF est
Ġol ive
ĠÑģÐ¾ Ð¾Ð±
Ġl lam
Ġdictators hip
Ġx en
Ġmel ting
ol ia
Ġ12 3
Ġun den
xt y
Ġt ienen
Ġsupremac ist
Ġinter val
ĠSurv iv
m or
ĠAust rian
ĠVolks wagen
Ø§ Ùĩ
Ġfasc ist
IG H
u ren
ĠRock ets
ĠÄĳ Æ°á»£c
ĠJ ung
Ð £
Ġreminis cent
200 6
Ġtw ins
Ġback pack
ĠCor rection
ĠÎ Ł
Ġinflamm ation
Ġhorm one
ig ger
Ġframe works
ĠAltern ative
Ġalt itude
Ġairst rikes
Ġspecific ations
Ġm ener
Ġb acon
Ġembarrass ment
ĠH ir
Ð³ ÑĢÐ°
ãģĿ ãģĹãģ¦
ms on
Ġconver ting
Ġaccum ulated
Ġsal ad
Ġhypot hetical
Ġdom ination
isp here
he e
Ġrele vance
Ġprot ester
oster one
Ġforg ive
Ġde ix
Ġlif elong
Ġh ottest
ct ica
f ake
Ġsurround ings
ĠAth letic
Ġprogram mer
Ġcap it
Ġborrow ed
ĠS ang
w omen
Ġcos mic
f aced
ĠSm ash
Ġru ins
l ived
ĠP TS
ĠÐº Ð¾Ð»
Ġcreep y
ĠLuc y
sm all
Ġper chÃ©
Ġsle pt
ss Ã¤
ĠM H
ĠJoy ce
Ġjuven ile
Ġenroll ment
ĠMin utes
ĠØ§ÙĦØ ´
oss ibly
Ġt ilt
ak an
Ġhun ters
çľ Į
Ġabsor bed
ĠSch ultz
ĠWeb b
Ġmiss es
c ule
ĠEn de
Ġe fect
ĠRel igion
Ġall ied
ĠMy ers
ark o
Ġgr abbing
ĠFrank f
Ġsm o
ÐµÐ» Ñı
åŁ º
Ġpal ace
Ġaster oid
ĠH our
hen ko
Ġin effective
ÙĨØ¸ ÙĬÙģ
Ð½Ñĭ Ð¼Ð¸
Ġst all
Ġnom inations
Ġp ulse
Ġcor ro
ĠAl ger
ĠLic ense
ĠL un
Ã¡ tica
ĠW o
AA AA
Ġcease fire
ãģĭ ãĤĬ
Ġrem edy
ĠCoin base
AN C
Ġkidn apped
he ter
Ġhonest y
Ġsk ies
IN K
Ġgood bye
ed o
Ġp uls
ff iti
ĠDrag ons
ÑĤ Ñĭ
ĠI brahim
ĠL I
ĠT yson
bernet es
Ġap ost
ÑĪ ÐµÐ½
Ġcop ied
in ition
ĠPOLIT ICO
aras htra
Ġthere after
Ġpres ervation
Q ue
ĠL if
ĠW ave
Ġrival ry
Ġdisrupt ive
ass ed
Ġbrow sing
Ġret iring
Ġdisp on
Ġboost ing
Ġsho ppers
ĠM K
Ġdiscover ies
V I
ĠN em
li est
enc ias
Ġecon Ã³
ĠM arijuana
ĠDown ing
Ġbull shit
ãĤµ ãĤ¤ãĥĪ
ĠRay mond
è¨ĺ äºĭ
Ġfert ility
Ġsign aling
ĠB inance
Ġo ss
Ġcon ceived
Ġdistr acted
v on
ĠDes ert
Ġsent iments
Ġadoles c
Ġsubmar ine
Ġgl orious
â ĪĴ
op hers
ĠH O
[...]
